{
  "version": "1.0",
  "truncation": null,
  "padding": null,
  "added_tokens": [
    {
      "id": 0,
      "content": "<PAD>",
      "single_word": false,
      "lstrip": false,
      "rstrip": false,
      "normalized": false,
      "special": true
    },
    {
      "id": 1,
      "content": "<BOS>",
      "single_word": false,
      "lstrip": false,
      "rstrip": false,
      "normalized": false,
      "special": true
    },
    {
      "id": 2,
      "content": "<EOS>",
      "single_word": false,
      "lstrip": false,
      "rstrip": false,
      "normalized": false,
      "special": true
    },
    {
      "id": 3,
      "content": "<CLS>",
      "single_word": false,
      "lstrip": false,
      "rstrip": false,
      "normalized": false,
      "special": true
    },
    {
      "id": 4,
      "content": "<SEP>",
      "single_word": false,
      "lstrip": false,
      "rstrip": false,
      "normalized": false,
      "special": true
    },
    {
      "id": 5,
      "content": "<Q>",
      "single_word": false,
      "lstrip": false,
      "rstrip": false,
      "normalized": false,
      "special": true
    },
    {
      "id": 6,
      "content": "<CTX>",
      "single_word": false,
      "lstrip": false,
      "rstrip": false,
      "normalized": false,
      "special": true
    },
    {
      "id": 7,
      "content": "<UNK>",
      "single_word": false,
      "lstrip": false,
      "rstrip": false,
      "normalized": false,
      "special": true
    }
  ],
  "normalizer": null,
  "pre_tokenizer": {
    "type": "ByteLevel",
    "add_prefix_space": false,
    "trim_offsets": true,
    "use_regex": true
  },
  "post_processor": null,
  "decoder": {
    "type": "ByteLevel",
    "add_prefix_space": true,
    "trim_offsets": true,
    "use_regex": true
  },
  "model": {
    "type": "BPE",
    "dropout": null,
    "unk_token": "<UNK>",
    "continuing_subword_prefix": null,
    "end_of_word_suffix": null,
    "fuse_unk": false,
    "byte_fallback": false,
    "ignore_merges": false,
    "vocab": {
      "<PAD>": 0,
      "<BOS>": 1,
      "<EOS>": 2,
      "<CLS>": 3,
      "<SEP>": 4,
      "<Q>": 5,
      "<CTX>": 6,
      "<UNK>": 7,
      "!": 8,
      "\"": 9,
      "#": 10,
      "$": 11,
      "%": 12,
      "&": 13,
      "'": 14,
      "(": 15,
      ")": 16,
      "*": 17,
      "+": 18,
      ",": 19,
      "-": 20,
      ".": 21,
      "/": 22,
      "0": 23,
      "1": 24,
      "2": 25,
      "3": 26,
      "4": 27,
      "5": 28,
      "6": 29,
      "7": 30,
      "8": 31,
      "9": 32,
      ":": 33,
      ";": 34,
      "<": 35,
      "=": 36,
      ">": 37,
      "?": 38,
      "@": 39,
      "A": 40,
      "B": 41,
      "C": 42,
      "D": 43,
      "E": 44,
      "F": 45,
      "G": 46,
      "H": 47,
      "I": 48,
      "J": 49,
      "K": 50,
      "L": 51,
      "M": 52,
      "N": 53,
      "O": 54,
      "P": 55,
      "Q": 56,
      "R": 57,
      "S": 58,
      "T": 59,
      "U": 60,
      "V": 61,
      "W": 62,
      "X": 63,
      "Y": 64,
      "Z": 65,
      "[": 66,
      "\\": 67,
      "]": 68,
      "^": 69,
      "_": 70,
      "`": 71,
      "a": 72,
      "b": 73,
      "c": 74,
      "d": 75,
      "e": 76,
      "f": 77,
      "g": 78,
      "h": 79,
      "i": 80,
      "j": 81,
      "k": 82,
      "l": 83,
      "m": 84,
      "n": 85,
      "o": 86,
      "p": 87,
      "q": 88,
      "r": 89,
      "s": 90,
      "t": 91,
      "u": 92,
      "v": 93,
      "w": 94,
      "x": 95,
      "y": 96,
      "z": 97,
      "{": 98,
      "|": 99,
      "}": 100,
      "~": 101,
      "¡": 102,
      "¢": 103,
      "£": 104,
      "¤": 105,
      "¥": 106,
      "¦": 107,
      "§": 108,
      "¨": 109,
      "©": 110,
      "ª": 111,
      "«": 112,
      "¬": 113,
      "®": 114,
      "¯": 115,
      "°": 116,
      "±": 117,
      "²": 118,
      "³": 119,
      "´": 120,
      "µ": 121,
      "¶": 122,
      "·": 123,
      "¸": 124,
      "¹": 125,
      "º": 126,
      "»": 127,
      "¼": 128,
      "½": 129,
      "¾": 130,
      "¿": 131,
      "À": 132,
      "Á": 133,
      "Â": 134,
      "Ã": 135,
      "Ä": 136,
      "Å": 137,
      "Æ": 138,
      "Ç": 139,
      "È": 140,
      "É": 141,
      "Ê": 142,
      "Ë": 143,
      "Ì": 144,
      "Í": 145,
      "Î": 146,
      "Ï": 147,
      "Ð": 148,
      "Ñ": 149,
      "Ò": 150,
      "Ó": 151,
      "Ô": 152,
      "Õ": 153,
      "Ö": 154,
      "×": 155,
      "Ø": 156,
      "Ù": 157,
      "Ú": 158,
      "Û": 159,
      "Ü": 160,
      "Ý": 161,
      "Þ": 162,
      "ß": 163,
      "à": 164,
      "á": 165,
      "â": 166,
      "ã": 167,
      "ä": 168,
      "å": 169,
      "æ": 170,
      "ç": 171,
      "è": 172,
      "é": 173,
      "ê": 174,
      "ë": 175,
      "ì": 176,
      "í": 177,
      "î": 178,
      "ï": 179,
      "ð": 180,
      "ñ": 181,
      "ò": 182,
      "ó": 183,
      "ô": 184,
      "õ": 185,
      "ö": 186,
      "÷": 187,
      "ø": 188,
      "ù": 189,
      "ú": 190,
      "û": 191,
      "ü": 192,
      "ý": 193,
      "þ": 194,
      "ÿ": 195,
      "Ā": 196,
      "ā": 197,
      "Ă": 198,
      "ă": 199,
      "Ą": 200,
      "ą": 201,
      "Ć": 202,
      "ć": 203,
      "Ĉ": 204,
      "ĉ": 205,
      "Ċ": 206,
      "ċ": 207,
      "Č": 208,
      "č": 209,
      "Ď": 210,
      "ď": 211,
      "Đ": 212,
      "đ": 213,
      "Ē": 214,
      "ē": 215,
      "Ĕ": 216,
      "ĕ": 217,
      "Ė": 218,
      "ė": 219,
      "Ę": 220,
      "ę": 221,
      "Ě": 222,
      "ě": 223,
      "Ĝ": 224,
      "ĝ": 225,
      "Ğ": 226,
      "ğ": 227,
      "Ġ": 228,
      "ġ": 229,
      "Ģ": 230,
      "ģ": 231,
      "Ĥ": 232,
      "ĥ": 233,
      "Ħ": 234,
      "ħ": 235,
      "Ĩ": 236,
      "ĩ": 237,
      "Ī": 238,
      "ī": 239,
      "Ĭ": 240,
      "ĭ": 241,
      "Į": 242,
      "į": 243,
      "İ": 244,
      "ı": 245,
      "Ĳ": 246,
      "ĳ": 247,
      "Ĵ": 248,
      "ĵ": 249,
      "Ķ": 250,
      "ķ": 251,
      "ĸ": 252,
      "Ĺ": 253,
      "ĺ": 254,
      "Ļ": 255,
      "ļ": 256,
      "Ľ": 257,
      "ľ": 258,
      "Ŀ": 259,
      "ŀ": 260,
      "Ł": 261,
      "ł": 262,
      "Ń": 263,
      "it": 264,
      "is": 265,
      "nit": 266,
      "Unit": 267,
      "ĠUnit": 268,
      "co": 269,
      "re": 270,
      "Ġt": 271,
      "as": 272,
      "de": 273,
      "he": 274,
      "Ġis": 275,
      "Ġas": 276,
      "Ġre": 277,
      "ist": 278,
      "er": 279,
      "cor": 280,
      "cord": 281,
      "or": 282,
      "code": 283,
      "Ġcode": 284,
      "Ġthe": 285,
      "ĠR": 286,
      "gist": 287,
      "Ġregist": 288,
      "ĠI": 289,
      "ĠS": 290,
      "ĠID": 291,
      "es": 292,
      "ey": 293,
      "ed": 294,
      "Ġto": 295,
      "Ġu": 296,
      "key": 297,
      "Ġkey": 298,
      "Ġs": 299,
      "nt": 300,
      "Ġf": 301,
      "ig": 302,
      "ĠRK": 303,
      "ĠSN": 304,
      "at": 305,
      "ecord": 306,
      "ry": 307,
      "Ġn": 308,
      "um": 309,
      "ned": 310,
      "al": 311,
      "sig": 312,
      "Ġassig": 313,
      "Ġassigned": 314,
      "'s": 315,
      "Ġfor": 316,
      "Ġrecord": 317,
      "ere": 318,
      "eri": 319,
      "The": 320,
      "ses": 321,
      "Ġit": 322,
      "Ġuses": 323,
      "Ġits": 324,
      "For": 325,
      "ered": 326,
      "Ġregistered": 327,
      "list": 328,
      "Ġlist": 329,
      "ecords": 330,
      "ber": 331,
      "Ġnum": 332,
      "Ġnumber": 333,
      "Ġseri": 334,
      "Ġserial": 335,
      "ent": 336,
      "on": 337,
      "ic": 338,
      "ĠZ": 339,
      "ĠQ": 340,
      "ĠX": 341,
      "ĠL": 342,
      "ĠC": 343,
      "Ġent": 344,
      "Ġentry": 345,
      "if": 346,
      "ur": 347,
      "Records": 348,
      "ac": 349,
      "ec": 350,
      "hat": 351,
      "ide": 352,
      "ati": 353,
      "ifi": 354,
      "ice": 355,
      "ĠK": 356,
      "ĠM": 357,
      "ĠJ": 358,
      "ĠF": 359,
      "ĠB": 360,
      "ĠT": 361,
      "ĠH": 362,
      "ĠD": 363,
      "ĠN": 364,
      "urit": 365,
      "ĠP": 366,
      "Ġsec": 367,
      "urity": 368,
      "Ġsecurity": 369,
      "ĠG": 370,
      "ĠY": 371,
      "ĠW": 372,
      "Ġregistry": 373,
      "ces": 374,
      "ĠV": 375,
      "rati": 376,
      "Ġregistrati": 377,
      "Ġregistration": 378,
      "Ġac": 379,
      "cess": 380,
      "Ġaccess": 381,
      "Ġide": 382,
      "ntifi": 383,
      "Ġidentifi": 384,
      "Ġidentifier": 385,
      "dev": 386,
      "Ġunit": 387,
      "Ġdev": 388,
      "Ġdevice": 389,
      "iv": 390,
      "il": 391,
      "ot": 392,
      "am": 393,
      "in": 394,
      "el": 395,
      "What": 396,
      "ĠFor": 397,
      "ĠThe": 398,
      "ĠRecords": 399,
      "ĠZR": 400,
      "ĠXK": 401,
      "ĠLM": 402,
      "ĠQF": 403,
      "85": 404,
      "99": 405,
      "70": 406,
      "25": 407,
      "73": 408,
      "21": 409,
      "60": 410,
      "41": 411,
      "40": 412,
      "63": 413,
      "80": 414,
      "20": 415,
      "81": 416,
      "71": 417,
      "83": 418,
      "61": 419,
      "43": 420,
      "23": 421,
      "75": 422,
      "65": 423,
      "45": 424,
      "ase": 425,
      "ile": 426,
      "ote": 427,
      "90": 428,
      "95": 429,
      "91": 430,
      "93": 431,
      "hiv": 432,
      "ĠCase": 433,
      "Ġfile": 434,
      "ĠRecord": 435,
      "hived": 436,
      "Ar": 437,
      "chived": 438,
      "ĠAr": 439,
      "ĠArchived": 440,
      "nv": 441,
      "ory": 442,
      "ĠInv": 443,
      "Ġnote": 444,
      "entory": 445,
      "ĠInventory": 446,
      "ame": 447,
      "ag": 448,
      "aj": 449,
      "up": 450,
      "ax": 451,
      "aq": 452,
      "uz": 453,
      "ut": 454,
      "ab": 455,
      "af": 456,
      "us": 457,
      "ay": 458,
      "ug": 459,
      "ul": 460,
      "ak": 461,
      "uj": 462,
      "an": 463,
      "aw": 464,
      "uq": 465,
      "uv": 466,
      "oz": 467,
      "ap": 468,
      "av": 469,
      "ux": 470,
      "uf": 471,
      "iz": 472,
      "uw": 473,
      "ix": 474,
      "un": 475,
      "az": 476,
      "ub": 477,
      "im": 478,
      "iy": 479,
      "uk": 480,
      "ib": 481,
      "uy": 482,
      "ob": 483,
      "ik": 484,
      "ol": 485,
      "oy": 486,
      "ov": 487,
      "op": 488,
      "os": 489,
      "oj": 490,
      "ok": 491,
      "ij": 492,
      "iq": 493,
      "og": 494,
      "iw": 495,
      "ip": 496,
      "om": 497,
      "oq": 498,
      "of": 499,
      "ow": 500,
      "ox": 501,
      "78": 502,
      "28": 503,
      "44": 504,
      "26": 505,
      "76": 506,
      "ep": 507,
      "ef": 508,
      "eg": 509,
      "eb": 510,
      "en": 511,
      "ew": 512,
      "ek": 513,
      "eq": 514,
      "ex": 515,
      "et": 516,
      "ej": 517,
      "ez": 518,
      "em": 519,
      "hic": 520,
      "ev": 521,
      "has": 522,
      "elon": 523,
      "Name": 524,
      "Whic": 525,
      "belon": 526,
      "gs": 527,
      "Ġbelon": 528,
      "Which": 529,
      "Ġbelongs": 530,
      "Ac": 531,
      "what": 532,
      "Ġhas": 533,
      "Ġwhat": 534,
      "cordin": 535,
      "Accordin": 536,
      "According": 537,
      "96": 538,
      "46": 539,
      "48": 540,
      "98": 541,
      "uc": 542,
      "id": 543,
      "ud": 544,
      "ad": 545,
      "ah": 546,
      "od": 547,
      "ir": 548,
      "ih": 549,
      "ar": 550,
      "uh": 551,
      "22": 552,
      "oc": 553,
      "77": 554,
      "oh": 555,
      "13": 556,
      "53": 557,
      "10": 558,
      "50": 559,
      "eh": 560,
      "92": 561,
      "42": 562,
      "47": 563,
      "97": 564,
      "88": 565,
      "66": 566,
      "11": 567,
      "55": 568,
      "33": 569,
      "30": 570,
      "27": 571,
      "94": 572,
      "68": 573,
      "15": 574,
      "72": 575,
      "86": 576,
      "49": 577,
      "51": 578,
      "31": 579,
      "35": 580,
      "67": 581,
      "24": 582,
      "87": 583,
      "29": 584,
      "74": 585,
      "62": 586,
      "82": 587,
      "64": 588,
      "79": 589,
      "84": 590,
      "69": 591,
      "89": 592,
      "16": 593,
      "18": 594,
      "58": 595,
      "56": 596,
      "38": 597,
      "36": 598,
      "17": 599,
      "57": 600,
      "12": 601,
      "52": 602,
      "37": 603,
      "14": 604,
      "32": 605,
      "54": 606,
      "34": 607,
      "19": 608,
      "59": 609,
      "39": 610,
      "00": 611,
      "uhe": 612,
      "ure": 613,
      "ohe": 614,
      "ahe": 615,
      "ore": 616,
      "uco": 617,
      "aco": 618,
      "ico": 619,
      "ihe": 620,
      "ode": 621,
      "are": 622,
      "ire": 623,
      "ade": 624,
      "oco": 625,
      "ude": 626,
      "ehe": 627,
      "eco": 628,
      "ede": 629,
      "03": 630,
      "05": 631,
      "01": 632,
      "06": 633,
      "07": 634,
      "08": 635,
      "02": 636,
      "04": 637,
      "uru": 638,
      "agu": 639,
      "ami": 640,
      "unu": 641,
      "afi": 642,
      "awa": 643,
      "ula": 644,
      "ule": 645,
      "09": 646,
      "use": 647,
      "upe": 648,
      "abu": 649,
      "ixu": 650,
      "upa": 651,
      "aku": 652,
      "uce": 653,
      "afu": 654,
      "aki": 655,
      "ape": 656,
      "aje": 657,
      "uhu": 658,
      "ayu": 659,
      "uxa": 660,
      "ane": 661,
      "age": 662,
      "adu": 663,
      "ujo": 664,
      "ilo": 665,
      "ute": 666,
      "udo": 667,
      "izo": 668,
      "ayi": 669,
      "iha": 670,
      "osu": 671,
      "uma": 672,
      "afe": 673,
      "aqe": 674,
      "ayo": 675,
      "uxo": 676,
      "utu": 677,
      "oke": 678,
      "axi": 679,
      "ofe": 680,
      "iru": 681,
      "ama": 682,
      "uzi": 683,
      "uso": 684,
      "axo": 685,
      "ini": 686,
      "iju": 687,
      "avi": 688,
      "ale": 689,
      "uri": 690,
      "aba": 691,
      "ake": 692,
      "aga": 693,
      "uvu": 694,
      "oyu": 695,
      "isa": 696,
      "aci": 697,
      "uzu": 698,
      "uji": 699,
      "aha": 700,
      "oki": 701,
      "aya": 702,
      "oze": 703,
      "ume": 704,
      "uti": 705,
      "olu": 706,
      "oqi": 707,
      "upu": 708,
      "aqi": 709,
      "azo": 710,
      "uca": 711,
      "upo": 712,
      "uge": 713,
      "apa": 714,
      "aca": 715,
      "ozo": 716,
      "uyu": 717,
      "axa": 718,
      "uxe": 719,
      "oxo": 720,
      "alo": 721,
      "agi": 722,
      "uqa": 723,
      "ido": 724,
      "ada": 725,
      "aji": 726,
      "ako": 727,
      "iza": 728,
      "oja": 729,
      "ahi": 730,
      "aho": 731,
      "apu": 732,
      "igu": 733,
      "ahu": 734,
      "uzo": 735,
      "uqi": 736,
      "udi": 737,
      "oka": 738,
      "uve": 739,
      "azu": 740,
      "iso": 741,
      "aqu": 742,
      "ugu": 743,
      "avo": 744,
      "uxu": 745,
      "ife": 746,
      "ike": 747,
      "ago": 748,
      "igo": 749,
      "ura": 750,
      "ana": 751,
      "izi": 752,
      "uwi": 753,
      "oba": 754,
      "opi": 755,
      "uje": 756,
      "ipe": 757,
      "uda": 758,
      "ari": 759,
      "afa": 760,
      "axu": 761,
      "usi": 762,
      "awi": 763,
      "uyi": 764,
      "uke": 765,
      "obe": 766,
      "amu": 767,
      "aju": 768,
      "aru": 769,
      "ulu": 770,
      "ace": 771,
      "ina": 772,
      "ufo": 773,
      "uni": 774,
      "ado": 775,
      "ifo": 776,
      "idu": 777,
      "ivi": 778,
      "iyi": 779,
      "uka": 780,
      "ipo": 781,
      "omo": 782,
      "uqe": 783,
      "aka": 784,
      "una": 785,
      "ibo": 786,
      "iki": 787,
      "iqi": 788,
      "ita": 789,
      "uta": 790,
      "uvo": 791,
      "opa": 792,
      "ida": 793,
      "ubu": 794,
      "oya": 795,
      "ovo": 796,
      "uze": 797,
      "oto": 798,
      "ajo": 799,
      "abe": 800,
      "ave": 801,
      "icu": 802,
      "uba": 803,
      "owa": 804,
      "ite": 805,
      "ica": 806,
      "oci": 807,
      "umi": 808,
      "uro": 809,
      "ani": 810,
      "uva": 811,
      "ise": 812,
      "uga": 813,
      "ixo": 814,
      "uki": 815,
      "uja": 816,
      "odu": 817,
      "ibu": 818,
      "ixa": 819,
      "imi": 820,
      "iyu": 821,
      "ipu": 822,
      "oge": 823,
      "ija": 824,
      "alu": 825,
      "ihi": 826,
      "itu": 827,
      "afo": 828,
      "ibe": 829,
      "ila": 830,
      "iwa": 831,
      "ufe": 832,
      "ubi": 833,
      "uci": 834,
      "aza": 835,
      "iva": 836,
      "abo": 837,
      "azi": 838,
      "imu": 839,
      "umu": 840,
      "ilu": 841,
      "oso": 842,
      "abi": 843,
      "ije": 844,
      "ine": 845,
      "oza": 846,
      "ixi": 847,
      "aze": 848,
      "opo": 849,
      "obo": 850,
      "iwu": 851,
      "owu": 852,
      "ora": 853,
      "eci": 854,
      "ojo": 855,
      "amo": 856,
      "ozu": 857,
      "ucu": 858,
      "idi": 859,
      "ima": 860,
      "oko": 861,
      "oha": 862,
      "awo": 863,
      "anu": 864,
      "une": 865,
      "oqa": 866,
      "oxi": 867,
      "omu": 868,
      "uyo": 869,
      "ole": 870,
      "oye": 871,
      "ufi": 872,
      "axe": 873,
      "uwe": 874,
      "obu": 875,
      "oje": 876,
      "ige": 877,
      "aqa": 878,
      "ika": 879,
      "odo": 880,
      "acu": 881,
      "usu": 882,
      "ofi": 883,
      "ozi": 884,
      "ali": 885,
      "aja": 886,
      "iho": 887,
      "ebe": 888,
      "iwe": 889,
      "ivu": 890,
      "usa": 891,
      "apo": 892,
      "ogi": 893,
      "upi": 894,
      "obi": 895,
      "ivo": 896,
      "aqo": 897,
      "uwu": 898,
      "imo": 899,
      "ofa": 900,
      "ega": 901,
      "oti": 902,
      "ugo": 903,
      "ava": 904,
      "oro": 905,
      "oyo": 906,
      "ovi": 907,
      "ufu": 908,
      "ibi": 909,
      "ipa": 910,
      "ohi": 911,
      "iku": 912,
      "oku": 913,
      "oga": 914,
      "iyo": 915,
      "ugi": 916,
      "ubo": 917,
      "ize": 918,
      "iye": 919,
      "ala": 920,
      "ose": 921,
      "iqe": 922,
      "uli": 923,
      "uno": 924,
      "owe": 925,
      "adi": 926,
      "ata": 927,
      "elu": 928,
      "uza": 929,
      "oji": 930,
      "ori": 931,
      "ono": 932,
      "iga": 933,
      "uqo": 934,
      "oxa": 935,
      "ano": 936,
      "one": 937,
      "ube": 938,
      "uhi": 939,
      "isi": 940,
      "igi": 941,
      "omi": 942,
      "ifu": 943,
      "ira": 944,
      "awe": 945,
      "uvi": 946,
      "uho": 947,
      "ime": 948,
      "iba": 949,
      "uye": 950,
      "aye": 951,
      "uwo": 952,
      "ogu": 953,
      "oni": 954,
      "ifa": 955,
      "api": 956,
      "ove": 957,
      "uju": 958,
      "uya": 959,
      "iji": 960,
      "udu": 961,
      "iri": 962,
      "iya": 963,
      "oqu": 964,
      "onu": 965,
      "oru": 966,
      "iqa": 967,
      "ijo": 968,
      "aro": 969,
      "umo": 970,
      "ona": 971,
      "eqi": 972,
      "ocu": 973,
      "ota": 974,
      "izu": 975,
      "uwa": 976,
      "ipi": 977,
      "ohu": 978,
      "oce": 979,
      "ele": 980,
      "eli": 981,
      "ovu": 982,
      "uha": 983,
      "ola": 984,
      "ihu": 985,
      "iqo": 986,
      "iwo": 987,
      "ome": 988,
      "osa": 989,
      "avu": 990,
      "otu": 991,
      "uqu": 992,
      "uto": 993,
      "aso": 994,
      "ulo": 995,
      "epa": 996,
      "oda": 997,
      "ece": 998,
      "inu": 999,
      "eze": 1000,
      "uxi": 1001,
      "ese": 1002,
      "oyi": 1003,
      "ili": 1004,
      "eka": 1005,
      "ova": 1006,
      "oxe": 1007,
      "efu": 1008,
      "ogo": 1009,
      "era": 1010,
      "asu": 1011,
      "iti": 1012,
      "oli": 1013,
      "uko": 1014,
      "ici": 1015,
      "ive": 1016,
      "iro": 1017,
      "uku": 1018,
      "awu": 1019,
      "epu": 1020,
      "ato": 1021,
      "ope": 1022,
      "ego": 1023,
      "isu": 1024,
      "asa": 1025,
      "iko": 1026,
      "owo": 1027,
      "oca": 1028,
      "iqu": 1029,
      "eyu": 1030,
      "olo": 1031,
      "atu": 1032,
      "ufa": 1033,
      "oqo": 1034,
      "eje": 1035,
      "opu": 1036,
      "osi": 1037,
      "ofu": 1038,
      "ito": 1039,
      "ino": 1040,
      "oma": 1041,
      "ewi": 1042,
      "eke": 1043,
      "ate": 1044,
      "odi": 1045,
      "oho": 1046,
      "edu": 1047,
      "ebo": 1048,
      "ara": 1049,
      "ixe": 1050,
      "enu": 1051,
      "ehi": 1052,
      "eva": 1053,
      "efi": 1054,
      "oqe": 1055,
      "eti": 1056,
      "oxu": 1057,
      "epi": 1058,
      "elo": 1059,
      "eno": 1060,
      "evi": 1061,
      "asi": 1062,
      "ege": 1063,
      "eyo": 1064,
      "ebi": 1065,
      "efe": 1066,
      "efo": 1067,
      "exo": 1068,
      "ewa": 1069,
      "owi": 1070,
      "ejo": 1071,
      "emo": 1072,
      "ewo": 1073,
      "oju": 1074,
      "eto": 1075,
      "eca": 1076,
      "ofo": 1077,
      "epo": 1078,
      "ecu": 1079,
      "eni": 1080,
      "esi": 1081,
      "emu": 1082,
      "eho": 1083,
      "exu": 1084,
      "ene": 1085,
      "etu": 1086,
      "efa": 1087,
      "equ": 1088,
      "ema": 1089,
      "eha": 1090,
      "eya": 1091,
      "eta": 1092,
      "epe": 1093,
      "ewe": 1094,
      "ezu": 1095,
      "exe": 1096,
      "eku": 1097,
      "eqe": 1098,
      "edi": 1099,
      "eja": 1100,
      "ero": 1101,
      "exi": 1102,
      "eki": 1103,
      "eqo": 1104,
      "esa": 1105,
      "eyi": 1106,
      "eda": 1107,
      "eju": 1108,
      "eko": 1109,
      "emi": 1110,
      "eve": 1111,
      "edo": 1112,
      "ebu": 1113,
      "ela": 1114,
      "eru": 1115,
      "exa": 1116,
      "ewu": 1117,
      "ena": 1118,
      "eba": 1119,
      "evo": 1120,
      "eso": 1121,
      "eye": 1122,
      "egu": 1123,
      "eqa": 1124,
      "ehu": 1125,
      "ete": 1126,
      "ezi": 1127,
      "iwi": 1128,
      "eme": 1129,
      "esu": 1130,
      "egi": 1131,
      "eji": 1132,
      "ezo": 1133,
      "eza": 1134,
      "evu": 1135,
      "810": 1136,
      "450": 1137,
      "210": 1138,
      "410": 1139,
      "600": 1140,
      "200": 1141,
      "610": 1142,
      "730": 1143,
      "700": 1144,
      "250": 1145,
      "430": 1146,
      "850": 1147,
      "499": 1148,
      "800": 1149,
      "650": 1150,
      "230": 1151,
      "710": 1152,
      "750": 1153,
      "413": 1154,
      "630": 1155,
      "400": 1156,
      "900": 1157,
      "830": 1158,
      "855": 1159,
      "655": 1160,
      "491": 1161,
      "493": 1162,
      "403": 1163,
      "605": 1164,
      "795": 1165,
      "853": 1166,
      "813": 1167,
      "475": 1168,
      "611": 1169,
      "980": 1170,
      "473": 1171,
      "425": 1172,
      "920": 1173,
      "295": 1174,
      "831": 1175,
      "925": 1176,
      "721": 1177,
      "431": 1178,
      "921": 1179,
      "791": 1180,
      "780": 1181,
      "420": 1182,
      "451": 1183,
      "299": 1184,
      "815": 1185,
      "293": 1186,
      "970": 1187,
      "923": 1188,
      "633": 1189,
      "603": 1190,
      "615": 1191,
      "291": 1192,
      "965": 1193,
      "275": 1194,
      "225": 1195,
      "490": 1196,
      "415": 1197,
      "401": 1198,
      "899": 1199,
      "835": 1200,
      "433": 1201,
      "423": 1202,
      "973": 1203,
      "635": 1204,
      "851": 1205,
      "793": 1206,
      "455": 1207,
      "723": 1208,
      "405": 1209,
      "811": 1210,
      "471": 1211,
      "465": 1212,
      "453": 1213,
      "833": 1214,
      "495": 1215,
      "411": 1216,
      "421": 1217,
      "601": 1218,
      "695": 1219,
      "693": 1220,
      "895": 1221,
      "221": 1222,
      "975": 1223,
      "703": 1224,
      "435": 1225,
      "480": 1226,
      "290": 1227,
      "871": 1228,
      "673": 1229,
      "631": 1230,
      "725": 1231,
      "701": 1232,
      "613": 1233,
      "220": 1234,
      "890": 1235,
      "280": 1236,
      "691": 1237,
      "699": 1238,
      "790": 1239,
      "971": 1240,
      "799": 1241,
      "271": 1242,
      "620": 1243,
      "720": 1244,
      "773": 1245,
      "223": 1246,
      "820": 1247,
      "273": 1248,
      "680": 1249,
      "671": 1250,
      "825": 1251,
      "893": 1252,
      "985": 1253,
      "665": 1254,
      "625": 1255,
      "880": 1256,
      "891": 1257,
      "623": 1258,
      "705": 1259,
      "823": 1260,
      "875": 1261,
      "775": 1262,
      "940": 1263,
      "873": 1264,
      "983": 1265,
      "821": 1266,
      "945": 1267,
      "771": 1268,
      "621": 1269,
      "765": 1270,
      "981": 1271,
      "241": 1272,
      "440": 1273,
      "740": 1274,
      "941": 1275,
      "675": 1276,
      "265": 1277,
      "485": 1278,
      "285": 1279,
      "690": 1280,
      "461": 1281,
      "760": 1282,
      "245": 1283,
      "443": 1284,
      "663": 1285,
      "960": 1286,
      "785": 1287,
      "963": 1288,
      "943": 1289,
      "261": 1290,
      "483": 1291,
      "865": 1292,
      "460": 1293,
      "961": 1294,
      "745": 1295,
      "470": 1296,
      "240": 1297,
      "281": 1298,
      "990": 1299,
      "263": 1300,
      "463": 1301,
      "661": 1302,
      "595": 1303,
      "441": 1304,
      "645": 1305,
      "510": 1306,
      "445": 1307,
      "883": 1308,
      "283": 1309,
      "481": 1310,
      "270": 1311,
      "243": 1312,
      "930": 1313,
      "260": 1314,
      "670": 1315,
      "660": 1316,
      "741": 1317,
      "150": 1318,
      "553": 1319,
      "863": 1320,
      "870": 1321,
      "770": 1322,
      "860": 1323,
      "685": 1324,
      "743": 1325,
      "683": 1326,
      "763": 1327,
      "881": 1328,
      "845": 1329,
      "761": 1330,
      "781": 1331,
      "885": 1332,
      "641": 1333,
      "681": 1334,
      "153": 1335,
      "841": 1336,
      "903": 1337,
      "843": 1338,
      "910": 1339,
      "783": 1340,
      "840": 1341,
      "643": 1342,
      "640": 1343,
      "946": 1344,
      "110": 1345,
      "246": 1346,
      "113": 1347,
      "926": 1348,
      "950": 1349,
      "175": 1350,
      "550": 1351,
      "993": 1352,
      "203": 1353,
      "513": 1354,
      "573": 1355,
      "125": 1356,
      "193": 1357,
      "580": 1358,
      "521": 1359,
      "313": 1360,
      "121": 1361,
      "123": 1362,
      "350": 1363,
      "476": 1364,
      "944": 1365,
      "478": 1366,
      "171": 1367,
      "928": 1368,
      "861": 1369,
      "498": 1370,
      "976": 1371,
      "496": 1372,
      "525": 1373,
      "593": 1374,
      "575": 1375,
      "310": 1376,
      "744": 1377,
      "228": 1378,
      "276": 1379,
      "373": 1380,
      "590": 1381,
      "390": 1382,
      "426": 1383,
      "844": 1384,
      "523": 1385,
      "948": 1386,
      "726": 1387,
      "199": 1388,
      "395": 1389,
      "180": 1390,
      "399": 1391,
      "191": 1392,
      "428": 1393,
      "978": 1394,
      "778": 1395,
      "195": 1396,
      "353": 1397,
      "571": 1398,
      "120": 1399,
      "391": 1400,
      "173": 1401,
      "244": 1402,
      "796": 1403,
      "325": 1404,
      "591": 1405,
      "165": 1406,
      "320": 1407,
      "798": 1408,
      "296": 1409,
      "848": 1410,
      "278": 1411,
      "248": 1412,
      "371": 1413,
      "648": 1414,
      "583": 1415,
      "565": 1416,
      "393": 1417,
      "776": 1418,
      "846": 1419,
      "644": 1420,
      "876": 1421,
      "321": 1422,
      "181": 1423,
      "190": 1424,
      "380": 1425,
      "511": 1426,
      "375": 1427,
      "728": 1428,
      "520": 1429,
      "826": 1430,
      "298": 1431,
      "163": 1432,
      "628": 1433,
      "746": 1434,
      "626": 1435,
      "896": 1436,
      "226": 1437,
      "828": 1438,
      "570": 1439,
      "898": 1440,
      "323": 1441,
      "748": 1442,
      "599": 1443,
      "688": 1444,
      "370": 1445,
      "561": 1446,
      "676": 1447,
      "355": 1448,
      "155": 1449,
      "143": 1450,
      "678": 1451,
      "365": 1452,
      "340": 1453,
      "922": 1454,
      "161": 1455,
      "343": 1456,
      "540": 1457,
      "866": 1458,
      "141": 1459,
      "696": 1460,
      "585": 1461,
      "145": 1462,
      "363": 1463,
      "878": 1464,
      "381": 1465,
      "545": 1466,
      "140": 1467,
      "185": 1468,
      "646": 1469,
      "170": 1470,
      "183": 1471,
      "868": 1472,
      "341": 1473,
      "698": 1474,
      "345": 1475,
      "541": 1476,
      "543": 1477,
      "722": 1478,
      "477": 1479,
      "422": 1480,
      "311": 1481,
      "560": 1482,
      "581": 1483,
      "563": 1484,
      "977": 1485,
      "297": 1486,
      "360": 1487,
      "385": 1488,
      "383": 1489,
      "492": 1490,
      "497": 1491,
      "361": 1492,
      "160": 1493,
      "515": 1494,
      "277": 1495,
      "677": 1496,
      "949": 1497,
      "427": 1498,
      "546": 1499,
      "822": 1500,
      "247": 1501,
      "877": 1502,
      "144": 1503,
      "792": 1504,
      "100": 1505,
      "176": 1506,
      "530": 1507,
      "315": 1508,
      "126": 1509,
      "130": 1510,
      "198": 1511,
      "727": 1512,
      "847": 1513,
      "292": 1514,
      "596": 1515,
      "396": 1516,
      "797": 1517,
      "947": 1518,
      "942": 1519,
      "178": 1520,
      "566": 1521,
      "148": 1522,
      "692": 1523,
      "196": 1524,
      "622": 1525,
      "166": 1526,
      "747": 1527,
      "188": 1528,
      "548": 1529,
      "526": 1530,
      "647": 1531,
      "598": 1532,
      "576": 1533,
      "697": 1534,
      "742": 1535,
      "892": 1536,
      "348": 1537,
      "500": 1538,
      "351": 1539,
      "346": 1540,
      "544": 1541,
      "344": 1542,
      "146": 1543,
      "242": 1544,
      "328": 1545,
      "376": 1546,
      "330": 1547,
      "398": 1548,
      "128": 1549,
      "827": 1550,
      "528": 1551,
      "326": 1552,
      "366": 1553,
      "588": 1554,
      "168": 1555,
      "388": 1556,
      "378": 1557,
      "627": 1558,
      "578": 1559,
      "642": 1560,
      "842": 1561,
      "568": 1562,
      "751": 1563,
      "672": 1564,
      "713": 1565,
      "300": 1566,
      "368": 1567,
      "235": 1568,
      "897": 1569,
      "251": 1570,
      "213": 1571,
      "872": 1572,
      "494": 1573,
      "215": 1574,
      "255": 1575,
      "901": 1576,
      "186": 1577,
      "753": 1578,
      "772": 1579,
      "231": 1580,
      "253": 1581,
      "205": 1582,
      "755": 1583,
      "953": 1584,
      "735": 1585,
      "805": 1586,
      "733": 1587,
      "905": 1588,
      "801": 1589,
      "955": 1590,
      "715": 1591,
      "249": 1592,
      "915": 1593,
      "777": 1594,
      "211": 1595,
      "651": 1596,
      "931": 1597,
      "224": 1598,
      "991": 1599,
      "929": 1600,
      "201": 1601,
      "731": 1602,
      "294": 1603,
      "233": 1604,
      "951": 1605,
      "264": 1606,
      "994": 1607,
      "238": 1608,
      "913": 1609,
      "979": 1610,
      "694": 1611,
      "708": 1612,
      "738": 1613,
      "809": 1614,
      "933": 1615,
      "935": 1616,
      "814": 1617,
      "911": 1618,
      "606": 1619,
      "803": 1620,
      "711": 1621,
      "838": 1622,
      "995": 1623,
      "734": 1624,
      "408": 1625,
      "288": 1626,
      "222": 1627,
      "237": 1628,
      "653": 1629,
      "788": 1630,
      "289": 1631,
      "439": 1632,
      "284": 1633,
      "924": 1634,
      "438": 1635,
      "779": 1636,
      "424": 1637,
      "709": 1638,
      "636": 1639,
      "418": 1640,
      "774": 1641,
      "404": 1642,
      "756": 1643,
      "286": 1644,
      "436": 1645,
      "706": 1646,
      "254": 1647,
      "759": 1648,
      "467": 1649,
      "817": 1650,
      "468": 1651,
      "607": 1652,
      "632": 1653,
      "219": 1654,
      "206": 1655,
      "227": 1656,
      "236": 1657,
      "764": 1658,
      "402": 1659,
      "836": 1660,
      "267": 1661,
      "252": 1662,
      "474": 1663,
      "972": 1664,
      "604": 1665,
      "807": 1666,
      "806": 1667,
      "658": 1668,
      "272": 1669,
      "259": 1670,
      "787": 1671,
      "736": 1672,
      "472": 1673,
      "217": 1674,
      "268": 1675,
      "762": 1676,
      "614": 1677,
      "419": 1678,
      "804": 1679,
      "974": 1680,
      "707": 1681,
      "484": 1682,
      "927": 1683,
      "856": 1684,
      "258": 1685,
      "619": 1686,
      "789": 1687,
      "282": 1688,
      "904": 1689,
      "786": 1690,
      "732": 1691,
      "757": 1692,
      "958": 1693,
      "739": 1694,
      "204": 1695,
      "812": 1696,
      "457": 1697,
      "602": 1698,
      "718": 1699,
      "229": 1700,
      "479": 1701,
      "859": 1702,
      "207": 1703,
      "454": 1704,
      "819": 1705,
      "837": 1706,
      "932": 1707,
      "712": 1708,
      "758": 1709,
      "617": 1710,
      "652": 1711,
      "218": 1712,
      "437": 1713,
      "412": 1714,
      "608": 1715,
      "818": 1716,
      "638": 1717,
      "938": 1718,
      "966": 1719,
      "857": 1720,
      "998": 1721,
      "609": 1722,
      "618": 1723,
      "956": 1724,
      "918": 1725,
      "274": 1726,
      "729": 1727,
      "216": 1728,
      "716": 1729,
      "456": 1730,
      "768": 1731,
      "637": 1732,
      "808": 1733,
      "717": 1734,
      "432": 1735,
      "232": 1736,
      "447": 1737,
      "874": 1738,
      "714": 1739,
      "937": 1740,
      "448": 1741,
      "429": 1742,
      "256": 1743,
      "409": 1744,
      "269": 1745,
      "766": 1746,
      "279": 1747,
      "858": 1748,
      "208": 1749,
      "654": 1750,
      "782": 1751,
      "417": 1752,
      "469": 1753,
      "967": 1754,
      "737": 1755,
      "634": 1756,
      "719": 1757,
      "839": 1758,
      "616": 1759,
      "239": 1760,
      "752": 1761,
      "287": 1762,
      "407": 1763,
      "767": 1764,
      "202": 1765,
      "209": 1766,
      "434": 1767,
      "907": 1768,
      "957": 1769,
      "262": 1770,
      "266": 1771,
      "486": 1772,
      "987": 1773,
      "852": 1774,
      "214": 1775,
      "656": 1776,
      "659": 1777,
      "986": 1778,
      "988": 1779,
      "704": 1780,
      "212": 1781,
      "916": 1782,
      "586": 1783,
      "914": 1784,
      "854": 1785,
      "992": 1786,
      "834": 1787,
      "769": 1788,
      "482": 1789,
      "488": 1790,
      "452": 1791,
      "414": 1792,
      "802": 1793,
      "458": 1794,
      "386": 1795,
      "234": 1796,
      "754": 1797,
      "459": 1798,
      "416": 1799,
      "464": 1800,
      "406": 1801,
      "832": 1802,
      "964": 1803,
      "679": 1804,
      "996": 1805,
      "657": 1806,
      "906": 1807,
      "952": 1808,
      "257": 1809,
      "902": 1810,
      "969": 1811,
      "466": 1812,
      "997": 1813,
      "612": 1814,
      "639": 1815,
      "959": 1816,
      "912": 1817,
      "919": 1818,
      "934": 1819,
      "442": 1820,
      "954": 1821,
      "784": 1822,
      "984": 1823,
      "816": 1824,
      "999": 1825,
      "587": 1826,
      "444": 1827,
      "449": 1828,
      "487": 1829,
      "ĠHoj": 1830,
      "446": 1831,
      "989": 1832,
      "ĠXum": 1833,
      "674": 1834,
      "377": 1835,
      "522": 1836,
      "ĠDem": 1837,
      "702": 1838,
      "917": 1839,
      "462": 1840,
      "ĠCet": 1841,
      "ĠFib": 1842,
      "909": 1843,
      "192": 1844,
      "489": 1845,
      "982": 1846,
      "936": 1847,
      "962": 1848,
      "724": 1849,
      "ĠBol": 1850,
      "177": 1851,
      "908": 1852,
      "939": 1853,
      "968": 1854,
      "ĠDuz": 1855,
      "ĠRiz": 1856,
      "ĠZal": 1857,
      "ĠHiq": 1858,
      "ĠYex": 1859,
      "ĠKiy": 1860,
      "889": 1861,
      "122": 1862,
      "197": 1863,
      "187": 1864,
      "ĠSim": 1865,
      "ĠFel": 1866,
      "ĠRut": 1867,
      "ĠSov": 1868,
      "ĠCop": 1869,
      "ĠQaq": 1870,
      "ĠQev": 1871,
      "ĠNiq": 1872,
      "ĠZiv": 1873,
      "ĠYop": 1874,
      "ĠKex": 1875,
      "ĠDig": 1876,
      "ĠPew": 1877,
      "ĠYef": 1878,
      "ĠNux": 1879,
      "ĠSab": 1880,
      "ĠSuj": 1881,
      "ĠMab": 1882,
      "ĠJew": 1883,
      "ĠJet": 1884,
      "ĠPug": 1885,
      "ĠXig": 1886,
      "ĠMoz": 1887,
      "172": 1888,
      "ĠXom": 1889,
      "ĠKut": 1890,
      "ĠMap": 1891,
      "ĠWiv": 1892,
      "ĠZan": 1893,
      "ĠLus": 1894,
      "ĠNuy": 1895,
      "ĠVun": 1896,
      "ĠFol": 1897,
      "ĠGen": 1898,
      "135": 1899,
      "ĠJaj": 1900,
      "ĠBap": 1901,
      "ĠGun": 1902,
      "147": 1903,
      "ĠZuq": 1904,
      "ĠQub": 1905,
      "ĠKof": 1906,
      "ĠMul": 1907,
      "ĠTuw": 1908,
      "ĠWis": 1909,
      "ĠVax": 1910,
      "ĠViz": 1911,
      "668": 1912,
      "ĠCaw": 1913,
      "ĠFox": 1914,
      "ĠBix": 1915,
      "ĠPof": 1916,
      "ĠGiz": 1917,
      "ĠVap": 1918,
      "127": 1919,
      "397": 1920,
      "327": 1921,
      "ĠHuj": 1922,
      "ĠNoz": 1923,
      "ĠWum": 1924,
      "ĠSex": 1925,
      "ĠQuk": 1926,
      "ĠLof": 1927,
      "ĠLef": 1928,
      "ĠBus": 1929,
      "ĠToz": 1930,
      "ĠDuq": 1931,
      "ĠGix": 1932,
      "684": 1933,
      "ĠRuz": 1934,
      "ĠLup": 1935,
      "ĠHaz": 1936,
      "ĠGeg": 1937,
      "667": 1938,
      "ĠCen": 1939,
      "ĠDey": 1940,
      "ĠGav": 1941,
      "ĠYiv": 1942,
      "ĠWeb": 1943,
      "ĠVof": 1944,
      "322": 1945,
      "577": 1946,
      "547": 1947,
      "ĠXel": 1948,
      "ĠXib": 1949,
      "ĠMom": 1950,
      "ĠBuw": 1951,
      "ĠSev": 1952,
      "ĠQuf": 1953,
      "ĠQim": 1954,
      "ĠCut": 1955,
      "ĠPey": 1956,
      "ĠViy": 1957,
      "ĠRiw": 1958,
      "ĠRep": 1959,
      "ĠSin": 1960,
      "ĠCez": 1961,
      "ĠFuq": 1962,
      "887": 1963,
      "ĠKog": 1964,
      "ĠBaw": 1965,
      "ĠTeq": 1966,
      "ĠHaf": 1967,
      "ĠNuv": 1968,
      "ĠNiz": 1969,
      "ĠPuj": 1970,
      "ĠGiv": 1971,
      "884": 1972,
      "342": 1973,
      "527": 1974,
      "ĠRuy": 1975,
      "ĠCiq": 1976,
      "ĠKiw": 1977,
      "ĠToj": 1978,
      "ĠNuf": 1979,
      "ĠVov": 1980,
      "142": 1981,
      "ĠSan": 1982,
      "ĠCak": 1983,
      "ĠKey": 1984,
      "ĠFet": 1985,
      "ĠBoz": 1986,
      "ĠNij": 1987,
      "ĠPus": 1988,
      "ĠPov": 1989,
      "ĠVab": 1990,
      "ĠVay": 1991,
      "131": 1992,
      "347": 1993,
      "ĠRos": 1994,
      "ĠLag": 1995,
      "ĠMum": 1996,
      "ĠMiz": 1997,
      "ĠMek": 1998,
      "ĠBef": 1999,
      "ĠDun": 2000,
      "ĠWab": 2001,
      "ĠVey": 2002,
      "592": 2003,
      "ĠRoy": 2004,
      "ĠDep": 2005,
      "ĠNus": 2006,
      "ĠNep": 2007,
      "ĠPub": 2008,
      "ĠGof": 2009,
      "ĠWan": 2010,
      "ĠRig": 2011,
      "ĠReb": 2012,
      "ĠRev": 2013,
      "ĠZul": 2014,
      "ĠZuv": 2015,
      "ĠZiq": 2016,
      "ĠCig": 2017,
      "ĠMen": 2018,
      "ĠTet": 2019,
      "ĠPel": 2020,
      "ĠPim": 2021,
      "ĠGak": 2022,
      "ĠVal": 2023,
      "ĠSiy": 2024,
      "ĠQeb": 2025,
      "ĠJak": 2026,
      "ĠNup": 2027,
      "ĠPaj": 2028,
      "ĠWaf": 2029,
      "392": 2030,
      "ĠLuf": 2031,
      "ĠKus": 2032,
      "ĠJal": 2033,
      "ĠJuw": 2034,
      "ĠFav": 2035,
      "ĠFoy": 2036,
      "ĠHan": 2037,
      "ĠHuy": 2038,
      "ĠNol": 2039,
      "ĠPuy": 2040,
      "ĠGaj": 2041,
      "ĠVup": 2042,
      "664": 2043,
      "167": 2044,
      "ĠQix": 2045,
      "ĠXaq": 2046,
      "ĠKon": 2047,
      "ĠMuj": 2048,
      "ĠJax": 2049,
      "ĠJib": 2050,
      "ĠTig": 2051,
      "ĠTus": 2052,
      "ĠTov": 2053,
      "ĠTek": 2054,
      "ĠDan": 2055,
      "ĠDuf": 2056,
      "ĠNal": 2057,
      "ĠPig": 2058,
      "ĠWuq": 2059,
      "ĠWem": 2060,
      "686": 2061,
      "ĠZog": 2062,
      "ĠZox": 2063,
      "ĠQal": 2064,
      "ĠQox": 2065,
      "ĠCum": 2066,
      "ĠKiq": 2067,
      "ĠFug": 2068,
      "ĠBav": 2069,
      "ĠBom": 2070,
      "ĠBeg": 2071,
      "ĠPaf": 2072,
      "ĠVuz": 2073,
      "542": 2074,
      "894": 2075,
      "ĠSep": 2076,
      "ĠQok": 2077,
      "ĠXug": 2078,
      "ĠXux": 2079,
      "ĠXex": 2080,
      "ĠLiz": 2081,
      "ĠLog": 2082,
      "ĠMuf": 2083,
      "ĠFix": 2084,
      "ĠFob": 2085,
      "ĠBon": 2086,
      "ĠTav": 2087,
      "ĠDul": 2088,
      "ĠNaz": 2089,
      "ĠPum": 2090,
      "ĠPoz": 2091,
      "ĠPej": 2092,
      "ĠGay": 2093,
      "ĠYiy": 2094,
      "ĠWel": 2095,
      "ĠRuf": 2096,
      "ĠSix": 2097,
      "ĠQax": 2098,
      "ĠQut": 2099,
      "ĠKiv": 2100,
      "ĠKab": 2101,
      "ĠKoz": 2102,
      "ĠJej": 2103,
      "ĠFej": 2104,
      "ĠDay": 2105,
      "ĠGax": 2106,
      "ĠYev": 2107,
      "ĠWag": 2108,
      "ĠWuv": 2109,
      "597": 2110,
      "824": 2111,
      "ĠSej": 2112,
      "ĠQey": 2113,
      "ĠQib": 2114,
      "ĠXop": 2115,
      "ĠCag": 2116,
      "ĠMos": 2117,
      "ĠFiv": 2118,
      "ĠBaq": 2119,
      "ĠHax": 2120,
      "ĠPiv": 2121,
      "ĠGux": 2122,
      "ĠWaw": 2123,
      "387": 2124,
      "ĠSes": 2125,
      "ĠZag": 2126,
      "ĠQoy": 2127,
      "ĠXaw": 2128,
      "ĠLab": 2129,
      "ĠMaf": 2130,
      "ĠFaj": 2131,
      "ĠFim": 2132,
      "ĠFeg": 2133,
      "ĠBut": 2134,
      "ĠPit": 2135,
      "ĠPeb": 2136,
      "ĠVaz": 2137,
      "689": 2138,
      "849": 2139,
      "ĠReg": 2140,
      "ĠReq": 2141,
      "ĠZix": 2142,
      "ĠXiz": 2143,
      "ĠXeg": 2144,
      "ĠCuq": 2145,
      "ĠCav": 2146,
      "ĠMal": 2147,
      "ĠJep": 2148,
      "ĠFaq": 2149,
      "ĠFos": 2150,
      "ĠFep": 2151,
      "ĠGug": 2152,
      "ĠGov": 2153,
      "ĠYey": 2154,
      "ĠYay": 2155,
      "ĠYoy": 2156,
      "649": 2157,
      "ĠRaj": 2158,
      "ĠSew": 2159,
      "ĠZeb": 2160,
      "ĠZek": 2161,
      "ĠQuj": 2162,
      "ĠQez": 2163,
      "ĠXis": 2164,
      "ĠXuz": 2165,
      "ĠLuw": 2166,
      "ĠCin": 2167,
      "ĠCaq": 2168,
      "ĠCom": 2169,
      "ĠKet": 2170,
      "ĠJuq": 2171,
      "ĠJuk": 2172,
      "ĠBez": 2173,
      "ĠBem": 2174,
      "ĠHim": 2175,
      "ĠHop": 2176,
      "ĠHoq": 2177,
      "ĠYix": 2178,
      "669": 2179,
      "ĠSaw": 2180,
      "ĠZef": 2181,
      "ĠZet": 2182,
      "ĠLej": 2183,
      "ĠCoq": 2184,
      "ĠJiv": 2185,
      "ĠBax": 2186,
      "ĠHob": 2187,
      "ĠDum": 2188,
      "ĠNig": 2189,
      "ĠNin": 2190,
      "ĠNoj": 2191,
      "ĠGap": 2192,
      "ĠGuy": 2193,
      "ĠWoz": 2194,
      "ĠWuk": 2195,
      "ĠVoy": 2196,
      "194": 2197,
      "ĠSek": 2198,
      "ĠZoy": 2199,
      "ĠZop": 2200,
      "ĠQej": 2201,
      "ĠXez": 2202,
      "ĠKez": 2203,
      "ĠMit": 2204,
      "ĠFut": 2205,
      "ĠFom": 2206,
      "ĠDet": 2207,
      "ĠNof": 2208,
      "ĠPiy": 2209,
      "ĠRax": 2210,
      "ĠRuj": 2211,
      "ĠSob": 2212,
      "ĠZaj": 2213,
      "ĠZus": 2214,
      "ĠXon": 2215,
      "ĠXew": 2216,
      "ĠLeb": 2217,
      "ĠFeq": 2218,
      "ĠBul": 2219,
      "ĠTaq": 2220,
      "ĠTej": 2221,
      "ĠNob": 2222,
      "ĠPes": 2223,
      "ĠPuq": 2224,
      "ĠYog": 2225,
      "ĠYew": 2226,
      "ĠWop": 2227,
      "ĠVag": 2228,
      "794": 2229,
      "ĠRus": 2230,
      "ĠSuz": 2231,
      "ĠXix": 2232,
      "ĠXov": 2233,
      "ĠXow": 2234,
      "ĠLes": 2235,
      "ĠLix": 2236,
      "ĠLuy": 2237,
      "ĠLow": 2238,
      "ĠCiv": 2239,
      "ĠKol": 2240,
      "ĠKeg": 2241,
      "ĠMuk": 2242,
      "ĠMep": 2243,
      "ĠJub": 2244,
      "ĠBik": 2245,
      "ĠHuz": 2246,
      "ĠHog": 2247,
      "ĠNis": 2248,
      "ĠPos": 2249,
      "ĠSel": 2250,
      "ĠSox": 2251,
      "ĠZoz": 2252,
      "ĠZiw": 2253,
      "ĠQiy": 2254,
      "ĠXaz": 2255,
      "ĠLek": 2256,
      "ĠMey": 2257,
      "ĠJes": 2258,
      "ĠFov": 2259,
      "ĠFiq": 2260,
      "ĠBux": 2261,
      "ĠBeq": 2262,
      "ĠTub": 2263,
      "ĠHuv": 2264,
      "ĠHef": 2265,
      "ĠDiw": 2266,
      "ĠPef": 2267,
      "ĠGes": 2268,
      "ĠGuw": 2269,
      "ĠGet": 2270,
      "ĠYes": 2271,
      "ĠYow": 2272,
      "ĠWox": 2273,
      "ĠVuv": 2274,
      "ĠVux": 2275,
      "ĠRes": 2276,
      "ĠQug": 2277,
      "ĠXoq": 2278,
      "ĠXof": 2279,
      "ĠCay": 2280,
      "ĠCik": 2281,
      "ĠKoy": 2282,
      "ĠKos": 2283,
      "ĠMix": 2284,
      "ĠMij": 2285,
      "ĠJoj": 2286,
      "ĠBeb": 2287,
      "ĠTox": 2288,
      "ĠDes": 2289,
      "ĠDuv": 2290,
      "ĠNaw": 2291,
      "ĠNen": 2292,
      "ĠYuw": 2293,
      "ĠVik": 2294,
      "503": 2295,
      "ĠZik": 2296,
      "ĠXag": 2297,
      "ĠXuj": 2298,
      "ĠLiw": 2299,
      "ĠLet": 2300,
      "ĠCog": 2301,
      "ĠMin": 2302,
      "ĠMeg": 2303,
      "ĠJof": 2304,
      "ĠFax": 2305,
      "ĠFun": 2306,
      "ĠFaz": 2307,
      "ĠTit": 2308,
      "ĠTen": 2309,
      "ĠTew": 2310,
      "ĠHuf": 2311,
      "ĠHew": 2312,
      "ĠDik": 2313,
      "ĠDop": 2314,
      "ĠPax": 2315,
      "ĠYon": 2316,
      "ĠYuy": 2317,
      "ĠYoq": 2318,
      "ĠYej": 2319,
      "ĠRal": 2320,
      "ĠRik": 2321,
      "ĠSiz": 2322,
      "ĠSez": 2323,
      "ĠQef": 2324,
      "ĠXal": 2325,
      "ĠCon": 2326,
      "ĠCib": 2327,
      "ĠKap": 2328,
      "ĠKaz": 2329,
      "ĠMig": 2330,
      "ĠMux": 2331,
      "ĠJis": 2332,
      "ĠJex": 2333,
      "ĠTiv": 2334,
      "ĠDel": 2335,
      "ĠDob": 2336,
      "ĠDek": 2337,
      "ĠNag": 2338,
      "ĠPis": 2339,
      "ĠGoy": 2340,
      "ĠWut": 2341,
      "ĠViv": 2342,
      "ĠVuq": 2343,
      "ĠViw": 2344,
      "562": 2345,
      "624": 2346,
      "ĠSiv": 2347,
      "ĠSuq": 2348,
      "ĠSef": 2349,
      "ĠZep": 2350,
      "ĠCun": 2351,
      "ĠKew": 2352,
      "ĠKeq": 2353,
      "ĠJab": 2354,
      "ĠTaw": 2355,
      "ĠHis": 2356,
      "ĠNov": 2357,
      "ĠNoq": 2358,
      "ĠPex": 2359,
      "ĠGeb": 2360,
      "ĠYaw": 2361,
      "ĠVuj": 2362,
      "687": 2363,
      "124": 2364,
      "567": 2365,
      "ĠRel": 2366,
      "ĠRug": 2367,
      "ĠSav": 2368,
      "ĠSol": 2369,
      "ĠZig": 2370,
      "ĠZij": 2371,
      "ĠXiv": 2372,
      "ĠXol": 2373,
      "ĠXoj": 2374,
      "ĠXeq": 2375,
      "ĠCos": 2376,
      "ĠMob": 2377,
      "ĠJiq": 2378,
      "ĠJog": 2379,
      "ĠFey": 2380,
      "ĠFez": 2381,
      "ĠHuw": 2382,
      "ĠHiw": 2383,
      "ĠDol": 2384,
      "ĠPeg": 2385,
      "ĠGig": 2386,
      "ĠYak": 2387,
      "ĠYoz": 2388,
      "ĠWaq": 2389,
      "ĠWos": 2390,
      "ĠWof": 2391,
      "103": 2392,
      "666": 2393,
      "ĠRex": 2394,
      "ĠZex": 2395,
      "ĠQon": 2396,
      "ĠXiy": 2397,
      "ĠLel": 2398,
      "ĠCuz": 2399,
      "ĠCim": 2400,
      "ĠMub": 2401,
      "ĠMib": 2402,
      "ĠMov": 2403,
      "ĠJag": 2404,
      "ĠTel": 2405,
      "ĠTom": 2406,
      "ĠHun": 2407,
      "ĠDaj": 2408,
      "ĠDuj": 2409,
      "ĠDef": 2410,
      "ĠNum": 2411,
      "ĠPuz": 2412,
      "ĠPuw": 2413,
      "ĠGoq": 2414,
      "ĠYum": 2415,
      "ĠYiq": 2416,
      "ĠYiw": 2417,
      "ĠVaf": 2418,
      "864": 2419,
      "ĠRin": 2420,
      "ĠRay": 2421,
      "ĠRop": 2422,
      "ĠZaq": 2423,
      "ĠQek": 2424,
      "ĠLan": 2425,
      "ĠJug": 2426,
      "ĠJaw": 2427,
      "ĠJop": 2428,
      "ĠFiz": 2429,
      "ĠBog": 2430,
      "ĠHix": 2431,
      "ĠHej": 2432,
      "ĠNan": 2433,
      "ĠNub": 2434,
      "ĠPup": 2435,
      "ĠWep": 2436,
      "531": 2437,
      "574": 2438,
      "ĠSip": 2439,
      "ĠZut": 2440,
      "ĠZuj": 2441,
      "ĠCit": 2442,
      "ĠCuk": 2443,
      "ĠKuk": 2444,
      "ĠJoy": 2445,
      "ĠJox": 2446,
      "ĠFak": 2447,
      "ĠBos": 2448,
      "ĠHeg": 2449,
      "ĠDoj": 2450,
      "ĠNut": 2451,
      "ĠNap": 2452,
      "ĠGoj": 2453,
      "ĠYaq": 2454,
      "ĠYib": 2455,
      "ĠYeg": 2456,
      "ĠWal": 2457,
      "ĠWil": 2458,
      "ĠWuz": 2459,
      "ĠWiy": 2460,
      "ĠVes": 2461,
      "ĠVum": 2462,
      "ĠVoz": 2463,
      "ĠRoz": 2464,
      "ĠSaz": 2465,
      "ĠXaj": 2466,
      "ĠLul": 2467,
      "ĠCob": 2468,
      "ĠCex": 2469,
      "ĠMis": 2470,
      "ĠMel": 2471,
      "ĠMip": 2472,
      "ĠFem": 2473,
      "ĠBun": 2474,
      "ĠBuk": 2475,
      "ĠBep": 2476,
      "ĠTug": 2477,
      "ĠTos": 2478,
      "ĠTiw": 2479,
      "ĠHaj": 2480,
      "ĠNab": 2481,
      "ĠNom": 2482,
      "ĠPam": 2483,
      "ĠPap": 2484,
      "ĠPol": 2485,
      "ĠGoz": 2486,
      "ĠYin": 2487,
      "ĠYup": 2488,
      "ĠWaj": 2489,
      "ĠWux": 2490,
      "537": 2491,
      "682": 2492,
      "879": 2493,
      "ĠRix": 2494,
      "ĠSaq": 2495,
      "ĠQes": 2496,
      "ĠQup": 2497,
      "ĠLim": 2498,
      "ĠKob": 2499,
      "ĠMam": 2500,
      "ĠJef": 2501,
      "ĠFef": 2502,
      "ĠFev": 2503,
      "ĠBaj": 2504,
      "ĠBug": 2505,
      "ĠBew": 2506,
      "ĠBev": 2507,
      "ĠTum": 2508,
      "ĠTiq": 2509,
      "ĠHaw": 2510,
      "ĠDok": 2511,
      "ĠDew": 2512,
      "ĠNef": 2513,
      "ĠPon": 2514,
      "ĠYiz": 2515,
      "ĠYun": 2516,
      "ĠYep": 2517,
      "ĠWoq": 2518,
      "ĠVan": 2519,
      "114": 2520,
      "ĠRit": 2521,
      "ĠSut": 2522,
      "ĠSom": 2523,
      "ĠSoq": 2524,
      "ĠSem": 2525,
      "ĠZit": 2526,
      "ĠQik": 2527,
      "ĠLis": 2528,
      "ĠLaf": 2529,
      "ĠLex": 2530,
      "ĠCew": 2531,
      "ĠCeq": 2532,
      "ĠJit": 2533,
      "ĠBiz": 2534,
      "ĠBiy": 2535,
      "ĠTuz": 2536,
      "ĠTix": 2537,
      "ĠHin": 2538,
      "ĠHow": 2539,
      "ĠNaq": 2540,
      "ĠNoy": 2541,
      "ĠGib": 2542,
      "ĠGol": 2543,
      "ĠGem": 2544,
      "ĠYuk": 2545,
      "ĠYen": 2546,
      "ĠWen": 2547,
      "ĠVon": 2548,
      "162": 2549,
      "829": 2550,
      "ĠSoj": 2551,
      "ĠZaw": 2552,
      "ĠZiz": 2553,
      "ĠQog": 2554,
      "ĠQem": 2555,
      "ĠXos": 2556,
      "ĠLuv": 2557,
      "ĠKul": 2558,
      "ĠKak": 2559,
      "ĠMon": 2560,
      "ĠMiy": 2561,
      "ĠJob": 2562,
      "ĠFag": 2563,
      "ĠFuy": 2564,
      "ĠFik": 2565,
      "ĠFew": 2566,
      "ĠBup": 2567,
      "ĠBob": 2568,
      "ĠBej": 2569,
      "ĠTuk": 2570,
      "ĠHut": 2571,
      "ĠHev": 2572,
      "ĠNog": 2573,
      "ĠGab": 2574,
      "ĠGim": 2575,
      "ĠWax": 2576,
      "ĠWuw": 2577,
      "ĠVav": 2578,
      "335": 2579,
      "572": 2580,
      "ĠZav": 2581,
      "ĠZuy": 2582,
      "ĠZev": 2583,
      "ĠXus": 2584,
      "ĠXoz": 2585,
      "ĠLib": 2586,
      "ĠCov": 2587,
      "ĠKaj": 2588,
      "ĠKim": 2589,
      "ĠKop": 2590,
      "ĠJaf": 2591,
      "ĠBuv": 2592,
      "ĠToy": 2593,
      "ĠTef": 2594,
      "ĠHum": 2595,
      "ĠHeb": 2596,
      "ĠDap": 2597,
      "ĠNiv": 2598,
      "ĠNuk": 2599,
      "ĠNet": 2600,
      "ĠGey": 2601,
      "ĠWub": 2602,
      "ĠWiq": 2603,
      "ĠVol": 2604,
      "133": 2605,
      "862": 2606,
      "869": 2607,
      "ĠRuw": 2608,
      "ĠSit": 2609,
      "ĠSuv": 2610,
      "ĠSoy": 2611,
      "ĠSeq": 2612,
      "ĠLaz": 2613,
      "ĠCes": 2614,
      "ĠCol": 2615,
      "ĠCok": 2616,
      "ĠJam": 2617,
      "ĠTak": 2618,
      "ĠDev": 2619,
      "ĠWey": 2620,
      "ĠVig": 2621,
      "888": 2622,
      "ĠSun": 2623,
      "ĠZen": 2624,
      "ĠLiy": 2625,
      "ĠCub": 2626,
      "ĠCiw": 2627,
      "ĠKen": 2628,
      "ĠTiy": 2629,
      "ĠTeb": 2630,
      "ĠHul": 2631,
      "ĠDis": 2632,
      "ĠDup": 2633,
      "ĠNek": 2634,
      "ĠPix": 2635,
      "ĠYav": 2636,
      "ĠVek": 2637,
      "ĠQep": 2638,
      "ĠLax": 2639,
      "ĠLoq": 2640,
      "ĠCab": 2641,
      "ĠKis": 2642,
      "ĠKan": 2643,
      "ĠKow": 2644,
      "ĠMeq": 2645,
      "ĠJan": 2646,
      "ĠJaz": 2647,
      "ĠJos": 2648,
      "ĠJek": 2649,
      "ĠFuv": 2650,
      "ĠFuw": 2651,
      "ĠTaz": 2652,
      "ĠHos": 2653,
      "ĠNow": 2654,
      "ĠPay": 2655,
      "ĠGub": 2656,
      "ĠGob": 2657,
      "ĠYub": 2658,
      "ĠWul": 2659,
      "ĠVuk": 2660,
      "886": 2661,
      "ĠRav": 2662,
      "ĠZim": 2663,
      "ĠZob": 2664,
      "ĠZoq": 2665,
      "ĠZow": 2666,
      "ĠLub": 2667,
      "ĠKip": 2668,
      "ĠKev": 2669,
      "ĠKuc": 2670,
      "ĠMaj": 2671,
      "ĠBex": 2672,
      "ĠTuq": 2673,
      "ĠTib": 2674,
      "ĠHik": 2675,
      "ĠHem": 2676,
      "ĠNip": 2677,
      "ĠPip": 2678,
      "ĠGew": 2679,
      "ĠYag": 2680,
      "ĠYol": 2681,
      "ĠVex": 2682,
      "539": 2683,
      "101": 2684,
      "ĠRub": 2685,
      "ĠSag": 2686,
      "ĠZum": 2687,
      "ĠZin": 2688,
      "ĠZov": 2689,
      "ĠQag": 2690,
      "ĠXuf": 2691,
      "ĠXok": 2692,
      "ĠLem": 2693,
      "ĠKoj": 2694,
      "ĠMaz": 2695,
      "ĠFip": 2696,
      "ĠFek": 2697,
      "ĠTax": 2698,
      "ĠTaf": 2699,
      "ĠHiz": 2700,
      "ĠHol": 2701,
      "ĠHip": 2702,
      "ĠHet": 2703,
      "ĠPen": 2704,
      "ĠYov": 2705,
      "ĠVub": 2706,
      "333": 2707,
      "ĠRey": 2708,
      "ĠRov": 2709,
      "ĠSop": 2710,
      "ĠZey": 2711,
      "ĠZay": 2712,
      "ĠZuf": 2713,
      "ĠZok": 2714,
      "ĠQel": 2715,
      "ĠQew": 2716,
      "ĠLik": 2717,
      "ĠCix": 2718,
      "ĠCij": 2719,
      "ĠKav": 2720,
      "ĠMiv": 2721,
      "ĠMag": 2722,
      "ĠMuy": 2723,
      "ĠMow": 2724,
      "ĠJap": 2725,
      "ĠJuf": 2726,
      "ĠFin": 2727,
      "ĠFoz": 2728,
      "ĠFen": 2729,
      "ĠBop": 2730,
      "ĠHup": 2731,
      "ĠDub": 2732,
      "ĠDez": 2733,
      "ĠPal": 2734,
      "ĠPoq": 2735,
      "ĠGis": 2736,
      "ĠGum": 2737,
      "ĠGel": 2738,
      "ĠGuj": 2739,
      "ĠGez": 2740,
      "ĠYug": 2741,
      "ĠWup": 2742,
      "ĠVeq": 2743,
      "867": 2744,
      "ĠSus": 2745,
      "ĠSib": 2746,
      "ĠSok": 2747,
      "ĠQap": 2748,
      "ĠQen": 2749,
      "ĠXep": 2750,
      "ĠLaq": 2751,
      "ĠLom": 2752,
      "ĠCax": 2753,
      "ĠKun": 2754,
      "ĠKem": 2755,
      "ĠMan": 2756,
      "ĠMav": 2757,
      "ĠJon": 2758,
      "ĠJuz": 2759,
      "ĠJut": 2760,
      "ĠJay": 2761,
      "ĠFuf": 2762,
      "ĠBit": 2763,
      "ĠBoj": 2764,
      "ĠHom": 2765,
      "ĠDug": 2766,
      "ĠDuy": 2767,
      "ĠNul": 2768,
      "ĠNem": 2769,
      "ĠPow": 2770,
      "ĠGan": 2771,
      "ĠYit": 2772,
      "ĠYaz": 2773,
      "ĠWix": 2774,
      "ĠWib": 2775,
      "ĠWuy": 2776,
      "ĠVop": 2777,
      "ĠVij": 2778,
      "501": 2779,
      "ĠRag": 2780,
      "ĠSay": 2781,
      "ĠZis": 2782,
      "ĠZel": 2783,
      "ĠZem": 2784,
      "ĠQaw": 2785,
      "ĠQiz": 2786,
      "ĠQol": 2787,
      "ĠXij": 2788,
      "ĠLez": 2789,
      "ĠCoj": 2790,
      "ĠMak": 2791,
      "ĠTey": 2792,
      "ĠTon": 2793,
      "ĠHag": 2794,
      "ĠHab": 2795,
      "ĠDak": 2796,
      "ĠDov": 2797,
      "ĠDeg": 2798,
      "ĠGos": 2799,
      "ĠYeq": 2800,
      "ĠWug": 2801,
      "ĠWav": 2802,
      "ĠVok": 2803,
      "533": 2804,
      "ĠRab": 2805,
      "ĠRem": 2806,
      "ĠSiq": 2807,
      "ĠQip": 2808,
      "ĠXes": 2809,
      "ĠCal": 2810,
      "ĠCuj": 2811,
      "ĠCeb": 2812,
      "ĠKup": 2813,
      "ĠKaf": 2814,
      "ĠKuv": 2815,
      "ĠMuz": 2816,
      "ĠMut": 2817,
      "ĠJiy": 2818,
      "ĠFig": 2819,
      "ĠFay": 2820,
      "ĠTag": 2821,
      "ĠHam": 2822,
      "ĠDeq": 2823,
      "ĠYul": 2824,
      "ĠYim": 2825,
      "ĠYob": 2826,
      "ĠVoq": 2827,
      "ĠZak": 2828,
      "ĠZap": 2829,
      "ĠLob": 2830,
      "ĠCuv": 2831,
      "ĠKov": 2832,
      "ĠMil": 2833,
      "ĠMop": 2834,
      "ĠJup": 2835,
      "ĠFum": 2836,
      "ĠFul": 2837,
      "ĠFok": 2838,
      "ĠBay": 2839,
      "ĠTiz": 2840,
      "ĠTip": 2841,
      "ĠTeg": 2842,
      "ĠHaq": 2843,
      "ĠDoz": 2844,
      "ĠDij": 2845,
      "ĠPik": 2846,
      "ĠPoy": 2847,
      "ĠPom": 2848,
      "ĠPem": 2849,
      "ĠGeq": 2850,
      "ĠYal": 2851,
      "ĠVow": 2852,
      "662": 2853,
      "ĠRon": 2854,
      "ĠRiv": 2855,
      "ĠZon": 2856,
      "ĠZom": 2857,
      "ĠZof": 2858,
      "ĠQig": 2859,
      "ĠQiq": 2860,
      "ĠXin": 2861,
      "ĠXut": 2862,
      "ĠXuq": 2863,
      "ĠLev": 2864,
      "ĠCul": 2865,
      "ĠCoz": 2866,
      "ĠMez": 2867,
      "ĠFes": 2868,
      "ĠFaf": 2869,
      "ĠFaw": 2870,
      "ĠBov": 2871,
      "ĠBiw": 2872,
      "ĠNej": 2873,
      "ĠPeq": 2874,
      "ĠWex": 2875,
      "ĠVaj": 2876,
      "ĠRiy": 2877,
      "ĠRom": 2878,
      "ĠQan": 2879,
      "ĠXit": 2880,
      "ĠXef": 2881,
      "ĠKik": 2882,
      "ĠJel": 2883,
      "ĠJux": 2884,
      "ĠJiz": 2885,
      "ĠJok": 2886,
      "ĠJeg": 2887,
      "ĠJeb": 2888,
      "ĠJeq": 2889,
      "ĠJev": 2890,
      "ĠBoq": 2891,
      "ĠBen": 2892,
      "ĠTun": 2893,
      "ĠDin": 2894,
      "ĠDus": 2895,
      "ĠDiz": 2896,
      "ĠDow": 2897,
      "ĠNim": 2898,
      "ĠNiw": 2899,
      "ĠPut": 2900,
      "ĠGus": 2901,
      "ĠGik": 2902,
      "ĠGiw": 2903,
      "ĠYot": 2904,
      "105": 2905,
      "ĠRam": 2906,
      "ĠRoj": 2907,
      "ĠSik": 2908,
      "ĠQot": 2909,
      "ĠQuv": 2910,
      "ĠXay": 2911,
      "ĠXuv": 2912,
      "ĠLuq": 2913,
      "ĠCug": 2914,
      "ĠKuf": 2915,
      "ĠJul": 2916,
      "ĠJoz": 2917,
      "ĠJol": 2918,
      "ĠFow": 2919,
      "ĠBis": 2920,
      "ĠBow": 2921,
      "ĠTal": 2922,
      "ĠTup": 2923,
      "ĠTap": 2924,
      "ĠTex": 2925,
      "ĠHub": 2926,
      "ĠHok": 2927,
      "ĠDav": 2928,
      "ĠDox": 2929,
      "ĠPak": 2930,
      "ĠGul": 2931,
      "ĠYok": 2932,
      "ĠVul": 2933,
      "ĠVaw": 2934,
      "551": 2935,
      "ĠRij": 2936,
      "ĠRen": 2937,
      "ĠSig": 2938,
      "ĠZiy": 2939,
      "ĠQit": 2940,
      "ĠQom": 2941,
      "ĠXim": 2942,
      "ĠXoy": 2943,
      "ĠXiw": 2944,
      "ĠXeb": 2945,
      "ĠCek": 2946,
      "ĠMim": 2947,
      "ĠBal": 2948,
      "ĠBiq": 2949,
      "ĠTep": 2950,
      "ĠHoz": 2951,
      "ĠDab": 2952,
      "ĠDuk": 2953,
      "ĠDoq": 2954,
      "ĠPep": 2955,
      "ĠGal": 2956,
      "ĠGaz": 2957,
      "ĠYuf": 2958,
      "ĠVit": 2959,
      "ĠVin": 2960,
      "ĠVeb": 2961,
      "509": 2962,
      "882": 2963,
      "ĠRuv": 2964,
      "ĠRet": 2965,
      "ĠSaj": 2966,
      "ĠSij": 2967,
      "ĠZax": 2968,
      "ĠZub": 2969,
      "ĠXiq": 2970,
      "ĠLop": 2971,
      "ĠCup": 2972,
      "ĠCox": 2973,
      "ĠKix": 2974,
      "ĠMof": 2975,
      "ĠMej": 2976,
      "ĠJuj": 2977,
      "ĠBuq": 2978,
      "ĠTuv": 2979,
      "ĠHes": 2980,
      "ĠDib": 2981,
      "ĠDoy": 2982,
      "ĠPav": 2983,
      "ĠGut": 2984,
      "ĠYus": 2985,
      "ĠVet": 2986,
      "ĠRat": 2987,
      "ĠSuk": 2988,
      "ĠZib": 2989,
      "ĠQis": 2990,
      "ĠQaf": 2991,
      "ĠQov": 2992,
      "ĠQoq": 2993,
      "ĠXak": 2994,
      "ĠXav": 2995,
      "ĠXob": 2996,
      "ĠXek": 2997,
      "ĠLeg": 2998,
      "ĠCip": 2999,
      "ĠKes": 3000,
      "ĠKoq": 3001,
      "ĠKef": 3002,
      "ĠMik": 3003,
      "ĠMev": 3004,
      "ĠFuk": 3005,
      "ĠTis": 3006,
      "ĠTuj": 3007,
      "ĠTuf": 3008,
      "ĠDaq": 3009,
      "ĠDix": 3010,
      "ĠDen": 3011,
      "ĠPuk": 3012,
      "ĠGex": 3013,
      "ĠGej": 3014,
      "ĠYel": 3015,
      "ĠYom": 3016,
      "ĠWez": 3017,
      "115": 3018,
      "151": 3019,
      "629": 3020,
      "pi": 3021,
      "ĠSuw": 3022,
      "ĠZun": 3023,
      "ĠQuw": 3024,
      "ĠQob": 3025,
      "ĠQet": 3026,
      "ĠXik": 3027,
      "ĠXej": 3028,
      "ĠLos": 3029,
      "ĠCuf": 3030,
      "ĠKit": 3031,
      "ĠMiw": 3032,
      "ĠMet": 3033,
      "ĠFuz": 3034,
      "ĠFoq": 3035,
      "ĠBuf": 3036,
      "ĠTay": 3037,
      "ĠHit": 3038,
      "ĠHal": 3039,
      "ĠDag": 3040,
      "ĠDom": 3041,
      "ĠNav": 3042,
      "ĠYem": 3043,
      "ĠWuj": 3044,
      "ĠWaz": 3045,
      "ĠVep": 3046,
      "505": 3047,
      "ĠSuy": 3048,
      "ĠQul": 3049,
      "ĠQuy": 3050,
      "ĠLam": 3051,
      "ĠLut": 3052,
      "ĠLip": 3053,
      "ĠCey": 3054,
      "ĠCel": 3055,
      "ĠCof": 3056,
      "ĠKub": 3057,
      "ĠKom": 3058,
      "ĠMun": 3059,
      "ĠJuv": 3060,
      "ĠFiw": 3061,
      "ĠBuy": 3062,
      "ĠTop": 3063,
      "ĠHuk": 3064,
      "ĠHoy": 3065,
      "ĠHof": 3066,
      "ĠHek": 3067,
      "ĠDiv": 3068,
      "ĠNez": 3069,
      "ĠNev": 3070,
      "ĠPan": 3071,
      "ĠPij": 3072,
      "ĠGaq": 3073,
      "ĠYet": 3074,
      "ĠVuy": 3075,
      "ĠVog": 3076,
      "ĠRan": 3077,
      "ĠRux": 3078,
      "ĠSaf": 3079,
      "ĠSug": 3080,
      "ĠSeg": 3081,
      "ĠZug": 3082,
      "ĠZip": 3083,
      "ĠXet": 3084,
      "ĠCaj": 3085,
      "ĠKok": 3086,
      "ĠJij": 3087,
      "ĠJem": 3088,
      "ĠBab": 3089,
      "ĠBuj": 3090,
      "ĠTob": 3091,
      "ĠHex": 3092,
      "ĠGaw": 3093,
      "ĠWob": 3094,
      "ĠWew": 3095,
      "ĠWeq": 3096,
      "ĠVut": 3097,
      "367": 3098,
      "ĠSup": 3099,
      "ĠZat": 3100,
      "ĠZoj": 3101,
      "ĠQaj": 3102,
      "ĠXul": 3103,
      "ĠXuw": 3104,
      "ĠLew": 3105,
      "ĠKod": 3106,
      "ĠMoy": 3107,
      "ĠFex": 3108,
      "ĠBuz": 3109,
      "ĠTes": 3110,
      "ĠHug": 3111,
      "ĠDiq": 3112,
      "ĠDog": 3113,
      "ĠPib": 3114,
      "ĠGuz": 3115,
      "ĠYuq": 3116,
      "ĠWog": 3117,
      "ĠVoj": 3118,
      "ĠVez": 3119,
      "182": 3120,
      "ĠRum": 3121,
      "ĠRul": 3122,
      "ĠRib": 3123,
      "ĠZos": 3124,
      "ĠQav": 3125,
      "ĠXas": 3126,
      "ĠXem": 3127,
      "ĠLig": 3128,
      "ĠLiq": 3129,
      "ĠKeb": 3130,
      "ĠJum": 3131,
      "ĠBij": 3132,
      "ĠTuy": 3133,
      "ĠDor": 3134,
      "ĠNug": 3135,
      "ĠPek": 3136,
      "ĠGur": 3137,
      "ĠGuv": 3138,
      "ĠGij": 3139,
      "ĠGef": 3140,
      "ĠVak": 3141,
      "558": 3142,
      "394": 3143,
      "ĠRap": 3144,
      "ĠZuz": 3145,
      "ĠZaf": 3146,
      "ĠQuz": 3147,
      "ĠQus": 3148,
      "ĠLit": 3149,
      "ĠLat": 3150,
      "ĠLal": 3151,
      "ĠCow": 3152,
      "ĠMes": 3153,
      "ĠMug": 3154,
      "ĠMoj": 3155,
      "ĠJaq": 3156,
      "ĠJik": 3157,
      "ĠJow": 3158,
      "ĠFap": 3159,
      "ĠBey": 3160,
      "ĠBaf": 3161,
      "ĠBaz": 3162,
      "ĠNuq": 3163,
      "ĠNiy": 3164,
      "ĠYas": 3165,
      "ĠWom": 3166,
      "ĠWet": 3167,
      "ĠViq": 3168,
      "ĠVen": 3169,
      "119": 3170,
      "174": 3171,
      "382": 3172,
      "ĠRoq": 3173,
      "ĠRow": 3174,
      "ĠZol": 3175,
      "ĠZir": 3176,
      "ĠQij": 3177,
      "ĠQeg": 3178,
      "ĠLol": 3179,
      "ĠCef": 3180,
      "ĠKig": 3181,
      "ĠKay": 3182,
      "ĠFat": 3183,
      "ĠFup": 3184,
      "ĠBok": 3185,
      "ĠHen": 3186,
      "ĠDal": 3187,
      "ĠDon": 3188,
      "ĠPev": 3189,
      "ĠGuf": 3190,
      "ĠYig": 3191,
      "ĠWam": 3192,
      "362": 3193,
      "749": 3194,
      "ĠRis": 3195,
      "ĠKuz": 3196,
      "ĠKuq": 3197,
      "ĠKiz": 3198,
      "ĠMaq": 3199,
      "ĠMew": 3200,
      "ĠFog": 3201,
      "ĠTol": 3202,
      "ĠHus": 3203,
      "ĠYij": 3204,
      "ĠWeg": 3205,
      "ĠVel": 3206,
      "ĠVib": 3207,
      "324": 3208,
      "ĠRaq": 3209,
      "ĠRuq": 3210,
      "ĠSot": 3211,
      "ĠZez": 3212,
      "ĠXey": 3213,
      "ĠLoz": 3214,
      "ĠLav": 3215,
      "ĠKuw": 3216,
      "ĠMup": 3217,
      "ĠMax": 3218,
      "ĠFij": 3219,
      "ĠBag": 3220,
      "ĠTik": 3221,
      "ĠHel": 3222,
      "ĠHez": 3223,
      "ĠDas": 3224,
      "ĠDot": 3225,
      "ĠPuf": 3226,
      "ĠGon": 3227,
      "ĠWim": 3228,
      "ĠWol": 3229,
      "132": 3230,
      "ĠRak": 3231,
      "ĠZuw": 3232,
      "ĠQak": 3233,
      "ĠQeq": 3234,
      "ĠKin": 3235,
      "ĠKaw": 3236,
      "ĠKux": 3237,
      "ĠKep": 3238,
      "ĠMay": 3239,
      "ĠMaw": 3240,
      "ĠJav": 3241,
      "ĠJuy": 3242,
      "ĠTof": 3243,
      "ĠHay": 3244,
      "ĠNax": 3245,
      "ĠGiq": 3246,
      "ĠGow": 3247,
      "ĠYis": 3248,
      "ĠYeb": 3249,
      "ĠVuw": 3250,
      "ĠVos": 3251,
      "506": 3252,
      "ĠRof": 3253,
      "ĠSum": 3254,
      "ĠSul": 3255,
      "ĠZes": 3256,
      "ĠZuk": 3257,
      "ĠQab": 3258,
      "ĠLaj": 3259,
      "ĠCuy": 3260,
      "ĠKib": 3261,
      "ĠKuy": 3262,
      "ĠFuj": 3263,
      "ĠTut": 3264,
      "ĠHuq": 3265,
      "ĠDuw": 3266,
      "ĠDof": 3267,
      "ĠGuq": 3268,
      "ĠGip": 3269,
      "ĠYuj": 3270,
      "ĠWiz": 3271,
      "ĠSis": 3272,
      "ĠZux": 3273,
      "ĠXuy": 3274,
      "ĠLin": 3275,
      "ĠLap": 3276,
      "ĠCep": 3277,
      "ĠCem": 3278,
      "ĠKag": 3279,
      "ĠMot": 3280,
      "ĠMem": 3281,
      "ĠJin": 3282,
      "ĠBig": 3283,
      "ĠHig": 3284,
      "ĠNes": 3285,
      "ĠNeb": 3286,
      "ĠGot": 3287,
      "ĠGuk": 3288,
      "ĠWon": 3289,
      "ĠVot": 3290,
      "554": 3291,
      "584": 3292,
      "pa": 3293,
      "ĠRol": 3294,
      "ĠRok": 3295,
      "ĠRef": 3296,
      "ĠSas": 3297,
      "ĠSeb": 3298,
      "ĠQof": 3299,
      "ĠQow": 3300,
      "ĠXaf": 3301,
      "ĠXog": 3302,
      "ĠLey": 3303,
      "ĠCev": 3304,
      "ĠKuj": 3305,
      "ĠTij": 3306,
      "ĠHap": 3307,
      "ĠDeb": 3308,
      "ĠNon": 3309,
      "ĠNaj": 3310,
      "ĠNik": 3311,
      "ĠPin": 3312,
      "ĠGep": 3313,
      "ĠGek": 3314,
      "ĠYaf": 3315,
      "ĠWoy": 3316,
      "ĠWij": 3317,
      "ĠVis": 3318,
      "102": 3319,
      "ĠRaw": 3320,
      "ĠSap": 3321,
      "ĠQin": 3322,
      "ĠXab": 3323,
      "ĠXun": 3324,
      "ĠCis": 3325,
      "ĠCiz": 3326,
      "ĠKum": 3327,
      "ĠMiq": 3328,
      "ĠFec": 3329,
      "ĠBak": 3330,
      "ĠTem": 3331,
      "ĠHiy": 3332,
      "ĠDaw": 3333,
      "ĠGag": 3334,
      "ĠGom": 3335,
      "ĠYax": 3336,
      "ĠYap": 3337,
      "ĠWit": 3338,
      "ĠVaq": 3339,
      "ĠVus": 3340,
      "534": 3341,
      "372": 3342,
      "379": 3343,
      "564": 3344,
      "ĠRiq": 3345,
      "ĠRog": 3346,
      "ĠSub": 3347,
      "ĠSof": 3348,
      "ĠXev": 3349,
      "ĠKal": 3350,
      "ĠFur": 3351,
      "ĠBod": 3352,
      "ĠHey": 3353,
      "ĠNun": 3354,
      "ĠPaz": 3355,
      "ĠGog": 3356,
      "ĠYos": 3357,
      "ĠWok": 3358,
      "ĠVeg": 3359,
      "504": 3360,
      "ĠRip": 3361,
      "ĠQos": 3362,
      "ĠLuk": 3363,
      "ĠLov": 3364,
      "ĠCux": 3365,
      "ĠKel": 3366,
      "ĠMok": 3367,
      "ĠJun": 3368,
      "ĠJez": 3369,
      "ĠBat": 3370,
      "ĠNit": 3371,
      "ĠNox": 3372,
      "ĠNoc": 3373,
      "ĠPuv": 3374,
      "ĠPet": 3375,
      "ĠGit": 3376,
      "ĠWun": 3377,
      "ĠWik": 3378,
      "ĠVim": 3379,
      "111": 3380,
      "594": 3381,
      "ĠRun": 3382,
      "ĠSon": 3383,
      "ĠSow": 3384,
      "ĠLon": 3385,
      "ĠLay": 3386,
      "ĠLep": 3387,
      "ĠCan": 3388,
      "ĠCap": 3389,
      "ĠCeg": 3390,
      "ĠFus": 3391,
      "ĠBoy": 3392,
      "ĠYez": 3393,
      "ĠWig": 3394,
      "ĠWay": 3395,
      "ĠWuf": 3396,
      "ĠVef": 3397,
      "ĠRaf": 3398,
      "ĠRej": 3399,
      "ĠZab": 3400,
      "ĠZaz": 3401,
      "ĠXip": 3402,
      "ĠLug": 3403,
      "ĠMoq": 3404,
      "ĠJoq": 3405,
      "ĠBan": 3406,
      "ĠHep": 3407,
      "ĠDip": 3408,
      "ĠNad": 3409,
      "ĠPag": 3410,
      "ĠPaq": 3411,
      "ĠPob": 3412,
      "ĠGaf": 3413,
      "ĠVuf": 3414,
      "514": 3415,
      "ĠRud": 3416,
      "ĠZeg": 3417,
      "ĠZew": 3418,
      "ĠQiv": 3419,
      "ĠQop": 3420,
      "ĠXup": 3421,
      "ĠXen": 3422,
      "ĠLum": 3423,
      "ĠLiv": 3424,
      "ĠLeq": 3425,
      "ĠCus": 3426,
      "ĠCoy": 3427,
      "ĠKug": 3428,
      "ĠFal": 3429,
      "ĠFoc": 3430,
      "ĠBip": 3431,
      "ĠBof": 3432,
      "ĠBox": 3433,
      "ĠTul": 3434,
      "ĠTok": 3435,
      "ĠTow": 3436,
      "ĠDim": 3437,
      "ĠNay": 3438,
      "ĠNos": 3439,
      "ĠNex": 3440,
      "ĠPop": 3441,
      "ĠVem": 3442,
      "ĠVev": 3443,
      "536": 3444,
      "307": 3445,
      "582": 3446,
      "ĠSat": 3447,
      "ĠSak": 3448,
      "ĠXap": 3449,
      "ĠLas": 3450,
      "ĠLuj": 3451,
      "ĠMus": 3452,
      "ĠFil": 3453,
      "ĠFab": 3454,
      "ĠFof": 3455,
      "ĠFeb": 3456,
      "ĠBiv": 3457,
      "ĠTin": 3458,
      "ĠToq": 3459,
      "ĠNuh": 3460,
      "ĠPaw": 3461,
      "ĠPad": 3462,
      "ĠGil": 3463,
      "ĠGox": 3464,
      "ĠWur": 3465,
      "ĠWow": 3466,
      "ĠSax": 3467,
      "ĠSos": 3468,
      "ĠSog": 3469,
      "ĠMog": 3470,
      "ĠTaj": 3471,
      "ĠTan": 3472,
      "ĠHak": 3473,
      "ĠDos": 3474,
      "ĠNuj": 3475,
      "ĠGin": 3476,
      "ĠYat": 3477,
      "ĠYip": 3478,
      "ĠWak": 3479,
      "157": 3480,
      "312": 3481,
      "ĠRew": 3482,
      "ĠZam": 3483,
      "ĠXub": 3484,
      "ĠLoy": 3485,
      "ĠCaz": 3486,
      "ĠJig": 3487,
      "ĠJiw": 3488,
      "ĠFub": 3489,
      "ĠBet": 3490,
      "ĠTat": 3491,
      "ĠHib": 3492,
      "ĠVox": 3493,
      "354": 3494,
      "ĠRaz": 3495,
      "ĠRox": 3496,
      "ĠSiw": 3497,
      "ĠZeq": 3498,
      "ĠLaw": 3499,
      "ĠCiy": 3500,
      "ĠBes": 3501,
      "ĠBub": 3502,
      "ĠTez": 3503,
      "ĠHav": 3504,
      "ĠDux": 3505,
      "ĠDiy": 3506,
      "ĠNak": 3507,
      "ĠNib": 3508,
      "ĠPiw": 3509,
      "ĠGam": 3510,
      "ĠGup": 3511,
      "ĠVil": 3512,
      "502": 3513,
      "149": 3514,
      "ĠRim": 3515,
      "ĠSey": 3516,
      "ĠSet": 3517,
      "ĠZup": 3518,
      "ĠLux": 3519,
      "ĠCej": 3520,
      "ĠKam": 3521,
      "ĠFis": 3522,
      "ĠTec": 3523,
      "ĠHux": 3524,
      "ĠHeq": 3525,
      "ĠYid": 3526,
      "ĠWef": 3527,
      "ĠVip": 3528,
      "134": 3529,
      "535": 3530,
      "339": 3531,
      "517": 3532,
      "ĠRob": 3533,
      "ĠLoj": 3534,
      "ĠLen": 3535,
      "ĠCil": 3536,
      "ĠKur": 3537,
      "ĠKij": 3538,
      "ĠJov": 3539,
      "ĠFih": 3540,
      "ĠBib": 3541,
      "ĠHad": 3542,
      "ĠDaf": 3543,
      "ĠNuw": 3544,
      "ĠVug": 3545,
      "332": 3546,
      "337": 3547,
      "ĠRuc": 3548,
      "ĠSif": 3549,
      "ĠQoh": 3550,
      "ĠMox": 3551,
      "ĠMeb": 3552,
      "ĠJey": 3553,
      "ĠJen": 3554,
      "ĠFan": 3555,
      "ĠBek": 3556,
      "ĠTor": 3557,
      "ĠTog": 3558,
      "ĠDut": 3559,
      "ĠNey": 3560,
      "ĠNuz": 3561,
      "ĠNew": 3562,
      "ĠPor": 3563,
      "ĠWip": 3564,
      "ĠVix": 3565,
      "538": 3566,
      "589": 3567,
      "ĠRez": 3568,
      "ĠSux": 3569,
      "ĠQuq": 3570,
      "ĠXan": 3571,
      "ĠXox": 3572,
      "ĠXuc": 3573,
      "ĠCif": 3574,
      "ĠMat": 3575,
      "ĠMif": 3576,
      "ĠFit": 3577,
      "ĠTab": 3578,
      "ĠDec": 3579,
      "ĠDax": 3580,
      "ĠNop": 3581,
      "ĠPoj": 3582,
      "ĠPox": 3583,
      "ĠYaj": 3584,
      "138": 3585,
      "156": 3586,
      "ĠQum": 3587,
      "ĠTim": 3588,
      "ĠDaz": 3589,
      "ĠNeq": 3590,
      "ĠPiq": 3591,
      "ĠWuh": 3592,
      "106": 3593,
      "152": 3594,
      "384": 3595,
      "ĠQex": 3596,
      "ĠCas": 3597,
      "ĠJus": 3598,
      "ĠJix": 3599,
      "ĠHas": 3600,
      "ĠHac": 3601,
      "ĠNix": 3602,
      "ĠPul": 3603,
      "ĠPux": 3604,
      "ĠPok": 3605,
      "ĠWoj": 3606,
      "104": 3607,
      "559": 3608,
      "164": 3609,
      "ĠRuk": 3610,
      "ĠQoz": 3611,
      "ĠLox": 3612,
      "ĠCec": 3613,
      "ĠKej": 3614,
      "ĠMas": 3615,
      "ĠMef": 3616,
      "ĠFon": 3617,
      "ĠBin": 3618,
      "ĠDat": 3619,
      "349": 3620,
      "524": 3621,
      "ĠRup": 3622,
      "ĠQun": 3623,
      "ĠLar": 3624,
      "ĠCam": 3625,
      "ĠKah": 3626,
      "ĠMuq": 3627,
      "ĠMuc": 3628,
      "ĠJud": 3629,
      "ĠTah": 3630,
      "ĠHec": 3631,
      "ĠHov": 3632,
      "ĠDam": 3633,
      "ĠNaf": 3634,
      "ĠGod": 3635,
      "ĠWov": 3636,
      "ĠWej": 3637,
      "ĠWir": 3638,
      "364": 3639,
      "ĠQaz": 3640,
      "ĠKoc": 3641,
      "ĠMol": 3642,
      "ĠJat": 3643,
      "ĠFux": 3644,
      "ĠTux": 3645,
      "ĠHiv": 3646,
      "ĠNif": 3647,
      "ĠYoj": 3648,
      "139": 3649,
      "107": 3650,
      "ĠRas": 3651,
      "ĠQas": 3652,
      "ĠQuc": 3653,
      "ĠXif": 3654,
      "ĠLif": 3655,
      "ĠJas": 3656,
      "ĠTuc": 3657,
      "ĠHij": 3658,
      "ĠNat": 3659,
      "ĠNel": 3660,
      "ĠGok": 3661,
      "ĠYut": 3662,
      "302": 3663,
      "512": 3664,
      "169": 3665,
      "jo": 3666,
      "ĠRac": 3667,
      "ĠZej": 3668,
      "ĠXax": 3669,
      "ĠLak": 3670,
      "ĠCid": 3671,
      "ĠKeh": 3672,
      "ĠMad": 3673,
      "ĠFoj": 3674,
      "ĠBec": 3675,
      "ĠWor": 3676,
      "ĠWap": 3677,
      "ĠWev": 3678,
      "109": 3679,
      "508": 3680,
      "336": 3681,
      "ĠRek": 3682,
      "ĠSuf": 3683,
      "ĠQoj": 3684,
      "ĠXid": 3685,
      "ĠLec": 3686,
      "ĠKox": 3687,
      "ĠJod": 3688,
      "ĠTed": 3689,
      "ĠHon": 3690,
      "ĠDod": 3691,
      "ĠWiw": 3692,
      "317": 3693,
      "zu": 3694,
      "ĠQux": 3695,
      "ĠXuk": 3696,
      "ĠLed": 3697,
      "ĠLuz": 3698,
      "ĠLij": 3699,
      "ĠKif": 3700,
      "ĠKil": 3701,
      "ĠJif": 3702,
      "ĠTil": 3703,
      "ĠTid": 3704,
      "ĠYan": 3705,
      "ĠWot": 3706,
      "ĠWus": 3707,
      "ĠVom": 3708,
      "179": 3709,
      "569": 3710,
      "ĠSen": 3711,
      "ĠQoc": 3712,
      "ĠLod": 3713,
      "ĠFas": 3714,
      "ĠFop": 3715,
      "ĠBas": 3716,
      "ĠBam": 3717,
      "ĠDit": 3718,
      "ĠDex": 3719,
      "ĠDej": 3720,
      "ĠPot": 3721,
      "ĠYuv": 3722,
      "ĠWek": 3723,
      "303": 3724,
      "374": 3725,
      "ĠSeh": 3726,
      "ĠZeh": 3727,
      "ĠJot": 3728,
      "ĠBum": 3729,
      "ĠHot": 3730,
      "ĠNir": 3731,
      "ĠPez": 3732,
      "ĠPir": 3733,
      "ĠYuz": 3734,
      "ĠYux": 3735,
      "ĠWin": 3736,
      "ĠVej": 3737,
      "za": 3738,
      "ĠZot": 3739,
      "ĠKaq": 3740,
      "ĠPur": 3741,
      "ĠPun": 3742,
      "ĠYab": 3743,
      "ĠYoh": 3744,
      "ĠWud": 3745,
      "ĠVoc": 3746,
      "118": 3747,
      "552": 3748,
      "555": 3749,
      "557": 3750,
      "ĠSoz": 3751,
      "ĠQid": 3752,
      "ĠLok": 3753,
      "ĠJor": 3754,
      "ĠJip": 3755,
      "ĠJom": 3756,
      "ĠHox": 3757,
      "ĠGop": 3758,
      "ĠVob": 3759,
      "136": 3760,
      "117": 3761,
      "wi": 3762,
      "ĠSor": 3763,
      "ĠCaf": 3764,
      "ĠJim": 3765,
      "ĠFam": 3766,
      "ĠFiy": 3767,
      "ĠFod": 3768,
      "ĠTod": 3769,
      "ĠPiz": 3770,
      "ĠGas": 3771,
      "ĠSoc": 3772,
      "ĠQay": 3773,
      "ĠXam": 3774,
      "ĠKed": 3775,
      "ĠKax": 3776,
      "ĠTev": 3777,
      "ĠHil": 3778,
      "ĠNed": 3779,
      "ĠPud": 3780,
      "ĠYik": 3781,
      "ĠCuw": 3782,
      "ĠCar": 3783,
      "ĠCuh": 3784,
      "ĠBim": 3785,
      "ĠNok": 3786,
      "ĠNeg": 3787,
      "ĠGec": 3788,
      "ĠYir": 3789,
      "ĠWes": 3790,
      "ĠVah": 3791,
      "556": 3792,
      "301": 3793,
      "304": 3794,
      "ĠKot": 3795,
      "ĠMud": 3796,
      "ĠJil": 3797,
      "ĠFud": 3798,
      "ĠBar": 3799,
      "ĠTot": 3800,
      "ĠDoc": 3801,
      "ĠNid": 3802,
      "ĠPec": 3803,
      "112": 3804,
      "158": 3805,
      "529": 3806,
      "ĠQad": 3807,
      "ĠKek": 3808,
      "ĠYof": 3809,
      "ĠWid": 3810,
      "ĠWah": 3811,
      "389": 3812,
      "ĠSal": 3813,
      "ĠSod": 3814,
      "ĠXeh": 3815,
      "ĠBel": 3816,
      "ĠDil": 3817,
      "ĠNil": 3818,
      "ĠGev": 3819,
      "ĠYil": 3820,
      "ĠYud": 3821,
      "ĠVam": 3822,
      "516": 3823,
      "358": 3824,
      "579": 3825,
      "ĠQor": 3826,
      "ĠXur": 3827,
      "ĠXot": 3828,
      "ĠCat": 3829,
      "ĠKad": 3830,
      "ĠJur": 3831,
      "ĠTac": 3832,
      "308": 3833,
      "be": 3834,
      "qi": 3835,
      "zi": 3836,
      "ĠRec": 3837,
      "ĠSam": 3838,
      "ĠQiw": 3839,
      "ĠXuh": 3840,
      "ĠMuv": 3841,
      "ĠJed": 3842,
      "ĠNec": 3843,
      "ĠGed": 3844,
      "ĠYor": 3845,
      "ĠVas": 3846,
      "ĠVat": 3847,
      "ĠVid": 3848,
      "154": 3849,
      "pu": 3850,
      "xi": 3851,
      "ĠRor": 3852,
      "ĠCur": 3853,
      "ĠBir": 3854,
      "ĠHed": 3855,
      "ĠNot": 3856,
      "532": 3857,
      "334": 3858,
      "309": 3859,
      "359": 3860,
      "189": 3861,
      "mi": 3862,
      "ĠZih": 3863,
      "ĠQil": 3864,
      "ĠKas": 3865,
      "ĠJar": 3866,
      "ĠFar": 3867,
      "ĠBot": 3868,
      "ĠHat": 3869,
      "ĠPuc": 3870,
      "ĠYod": 3871,
      "518": 3872,
      "fa": 3873,
      "zo": 3874,
      "ĠRil": 3875,
      "ĠZac": 3876,
      "ĠXud": 3877,
      "ĠCud": 3878,
      "ĠKih": 3879,
      "ĠHir": 3880,
      "ĠDid": 3881,
      "ĠPas": 3882,
      "ĠGor": 3883,
      "ĠYek": 3884,
      "nu": 3885,
      "ĠSad": 3886,
      "ĠZur": 3887,
      "ĠQac": 3888,
      "ĠKat": 3889,
      "ĠDah": 3890,
      "ĠNas": 3891,
      "ĠPuh": 3892,
      "ĠGiy": 3893,
      "ĠRuh": 3894,
      "ĠZas": 3895,
      "ĠLun": 3896,
      "ĠPar": 3897,
      "ĠVew": 3898,
      "ĠVoh": 3899,
      "116": 3900,
      "331": 3901,
      "ĠSur": 3902,
      "ĠZid": 3903,
      "ĠQif": 3904,
      "ĠQur": 3905,
      "ĠXor": 3906,
      "ĠFot": 3907,
      "ĠHah": 3908,
      "ĠHih": 3909,
      "ĠGat": 3910,
      "ĠWat": 3911,
      "ĠRed": 3912,
      "ĠSid": 3913,
      "ĠZad": 3914,
      "ĠCac": 3915,
      "ĠJuh": 3916,
      "ĠFuc": 3917,
      "ĠTam": 3918,
      "ĠNud": 3919,
      "ĠPed": 3920,
      "ĠPat": 3921,
      "ĠPog": 3922,
      "ĠVih": 3923,
      "184": 3924,
      "ĠSil": 3925,
      "ĠSir": 3926,
      "ĠZar": 3927,
      "ĠZoc": 3928,
      "ĠKac": 3929,
      "ĠBuc": 3930,
      "ĠYur": 3931,
      "ĠVod": 3932,
      "352": 3933,
      "ja": 3934,
      "qo": 3935,
      "ĠRah": 3936,
      "ĠSah": 3937,
      "ĠSoh": 3938,
      "ĠXac": 3939,
      "ĠLuh": 3940,
      "ĠMod": 3941,
      "ĠMeh": 3942,
      "ĠDad": 3943,
      "ĠNur": 3944,
      "ĠNod": 3945,
      "ĠPod": 3946,
      "ĠYah": 3947,
      "ĠVif": 3948,
      "bo": 3949,
      "ĠRoc": 3950,
      "ĠJid": 3951,
      "ĠFir": 3952,
      "ĠTur": 3953,
      "ĠPil": 3954,
      "ĠYar": 3955,
      "357": 3956,
      "549": 3957,
      "fi": 3958,
      "ji": 3959,
      "ĠRif": 3960,
      "ĠSec": 3961,
      "ĠQat": 3962,
      "ĠKar": 3963,
      "ĠFed": 3964,
      "ĠTas": 3965,
      "ĠGud": 3966,
      "ĠGir": 3967,
      "ĠGar": 3968,
      "ĠVuc": 3969,
      "qe": 3970,
      "ĠXed": 3971,
      "ĠXir": 3972,
      "ĠCah": 3973,
      "ĠKud": 3974,
      "ĠKuh": 3975,
      "ĠBif": 3976,
      "ĠBad": 3977,
      "ĠYif": 3978,
      "ĠYih": 3979,
      "ĠWas": 3980,
      "ĠWec": 3981,
      "129": 3982,
      "ko": 3983,
      "ne": 3984,
      "ĠZil": 3985,
      "ĠZuc": 3986,
      "ĠQeh": 3987,
      "ĠKor": 3988,
      "ĠKid": 3989,
      "ĠTad": 3990,
      "ĠHoh": 3991,
      "ĠDif": 3992,
      "ĠWar": 3993,
      "ĠVor": 3994,
      "318": 3995,
      "369": 3996,
      "mo": 3997,
      "ĠXad": 3998,
      "ĠLud": 3999,
      "ĠCod": 4000,
      "ĠCir": 4001,
      "ĠFac": 4002,
      "ĠBil": 4003,
      "ĠGah": 4004,
      "329": 4005,
      "hu": 4006,
      "ĠLot": 4007,
      "ĠLir": 4008,
      "ĠCuc": 4009,
      "ĠFid": 4010,
      "ĠBid": 4011,
      "ĠToc": 4012,
      "ĠDuc": 4013,
      "ĠYox": 4014,
      "ĠWod": 4015,
      "ĠWoc": 4016,
      "507": 4017,
      "ĠRoh": 4018,
      "ĠQed": 4019,
      "ĠLuc": 4020,
      "ĠMir": 4021,
      "ĠJeh": 4022,
      "ĠHur": 4023,
      "ĠVeh": 4024,
      "108": 4025,
      "305": 4026,
      "hi": 4027,
      "ĠLil": 4028,
      "ĠCoc": 4029,
      "ĠHif": 4030,
      "ĠHid": 4031,
      "ĠWad": 4032,
      "338": 4033,
      "ĠRot": 4034,
      "ĠRar": 4035,
      "ĠSuc": 4036,
      "ĠXil": 4037,
      "ĠBih": 4038,
      "ĠHud": 4039,
      "ĠDed": 4040,
      "ĠDac": 4041,
      "ĠGeh": 4042,
      "xo": 4043,
      "ĠRih": 4044,
      "ĠMec": 4045,
      "ĠMid": 4046,
      "ĠTih": 4047,
      "ĠYuc": 4048,
      "na": 4049,
      "ĠXih": 4050,
      "ĠMuw": 4051,
      "ĠHeh": 4052,
      "ĠPab": 4053,
      "ĠWed": 4054,
      "ĠRod": 4055,
      "ĠKoh": 4056,
      "ĠFeh": 4057,
      "ĠTuh": 4058,
      "ĠDuh": 4059,
      "ti": 4060,
      "ĠRir": 4061,
      "ĠZed": 4062,
      "ĠZah": 4063,
      "ĠMor": 4064,
      "ĠJec": 4065,
      "ĠTud": 4066,
      "ĠDih": 4067,
      "ĠPac": 4068,
      "ĠGoh": 4069,
      "137": 4070,
      "314": 4071,
      "ku": 4072,
      "ma": 4073,
      "qu": 4074,
      "ĠMuh": 4075,
      "ĠDur": 4076,
      "ĠPif": 4077,
      "ĠGac": 4078,
      "306": 4079,
      "159": 4080,
      "ze": 4081,
      "ĠSar": 4082,
      "ĠQud": 4083,
      "ĠQah": 4084,
      "ĠCih": 4085,
      "ĠNac": 4086,
      "ĠZif": 4087,
      "ĠLor": 4088,
      "ĠLeh": 4089,
      "ĠDar": 4090,
      "ĠGad": 4091,
      "ĠYoc": 4092,
      "ĠWac": 4093,
      "316": 4094,
      "fu": 4095,
      "ĠMac": 4096,
      "ĠJih": 4097,
      "ĠHoc": 4098,
      "ĠNam": 4099,
      "ĠGuc": 4100,
      "ĠYuh": 4101,
      "319": 4102,
      "wo": 4103,
      "ĠZor": 4104,
      "ĠZod": 4105,
      "ĠLih": 4106,
      "ĠJac": 4107,
      "ĠHuc": 4108,
      "ĠNuc": 4109,
      "ĠWoh": 4110,
      "519": 4111,
      "we": 4112,
      "xu": 4113,
      "ĠZoh": 4114,
      "ĠMoc": 4115,
      "ĠJoh": 4116,
      "ĠNeh": 4117,
      "ĠPoc": 4118,
      "ĠGid": 4119,
      "ha": 4120,
      "pe": 4121,
      "xa": 4122,
      "ĠSed": 4123,
      "ĠQod": 4124,
      "ĠCed": 4125,
      "ĠMur": 4126,
      "ba": 4127,
      "ĠZud": 4128,
      "ĠJad": 4129,
      "ju": 4130,
      "xe": 4131,
      "ĠQih": 4132,
      "ĠXat": 4133,
      "ĠLur": 4134,
      "ĠYad": 4135,
      "ĠYeh": 4136,
      "je": 4137,
      "ke": 4138,
      "to": 4139,
      "ĠMed": 4140,
      "ĠMex": 4141,
      "ĠJoc": 4142,
      "ĠTif": 4143,
      "ĠNoh": 4144,
      "ĠYer": 4145,
      "bi": 4146,
      "ho": 4147,
      "qa": 4148,
      "ĠQec": 4149,
      "ĠFif": 4150,
      "ĠBor": 4151,
      "ĠTar": 4152,
      "ĠVur": 4153,
      "fo": 4154,
      "no": 4155,
      "ĠRur": 4156,
      "ĠZic": 4157,
      "ĠQir": 4158,
      "ĠQar": 4159,
      "ĠXec": 4160,
      "ĠXod": 4161,
      "ĠMih": 4162,
      "ĠWif": 4163,
      "ĠVar": 4164,
      "go": 4165,
      "ki": 4166,
      "ĠLac": 4167,
      "ĠKir": 4168,
      "ĠBud": 4169,
      "ĠBoh": 4170,
      "ĠDeh": 4171,
      "ĠYed": 4172,
      "wa": 4173,
      "ĠCeh": 4174,
      "ĠMoh": 4175,
      "ĠBoc": 4176,
      "ĠToh": 4177,
      "ĠHar": 4178,
      "gu": 4179,
      "va": 4180,
      "ĠLid": 4181,
      "ĠLah": 4182,
      "ĠCor": 4183,
      "ĠJuc": 4184,
      "ĠFad": 4185,
      "ĠFoh": 4186,
      "ĠYac": 4187,
      "ĠVud": 4188,
      "ĠJah": 4189,
      "ĠVac": 4190,
      "ĠReh": 4191,
      "ĠSac": 4192,
      "356": 4193,
      "me": 4194,
      "mu": 4195,
      "wu": 4196,
      "ĠXoc": 4197,
      "ĠLoh": 4198,
      "ĠCot": 4199,
      "ĠDoh": 4200,
      "ĠJir": 4201,
      "ĠDir": 4202,
      "ĠQam": 4203,
      "ĠMah": 4204,
      "ĠHuh": 4205,
      "ĠPoh": 4206,
      "ĠWuc": 4207,
      "vi": 4208,
      "ĠXic": 4209,
      "ĠCoh": 4210,
      "ĠHer": 4211,
      "ĠHor": 4212,
      "ĠNah": 4213,
      "ĠPah": 4214,
      "ĠPeh": 4215,
      "ĠGuh": 4216,
      "ĠGoc": 4217,
      "ĠVed": 4218,
      "ĠVec": 4219,
      "fe": 4220,
      "vu": 4221,
      "ĠBer": 4222,
      "ĠTeh": 4223,
      "ĠYec": 4224,
      "ĠSic": 4225,
      "ĠFic": 4226,
      "ĠHic": 4227,
      "ka": 4228,
      "ĠGif": 4229,
      "po": 4230,
      "ĠLad": 4231,
      "ĠLoc": 4232,
      "ĠFuh": 4233,
      "ĠBur": 4234,
      "ĠPih": 4235,
      "ĠYam": 4236,
      "ĠVir": 4237,
      "ĠSih": 4238,
      "ĠHod": 4239,
      "ĠPid": 4240,
      "le": 4241,
      "ĠCer": 4242,
      "ĠBuh": 4243,
      "ĠVic": 4244,
      "ta": 4245,
      "ĠTir": 4246,
      "ĠNar": 4247,
      "tu": 4248,
      "ve": 4249,
      "ĠSud": 4250,
      "ĠQuh": 4251,
      "ĠCad": 4252,
      "ĠCic": 4253,
      "ĠTer": 4254,
      "ĠDud": 4255,
      "ĠRid": 4256,
      "ĠXah": 4257,
      "ĠKec": 4258,
      "ĠFah": 4259,
      "ĠBed": 4260,
      "ĠBeh": 4261,
      "ĠNor": 4262,
      "ĠWih": 4263,
      "yo": 4264,
      "ĠGer": 4265,
      "ĠVad": 4266,
      "bu": 4267,
      "vo": 4268,
      "ĠVuh": 4269,
      "ĠZuh": 4270,
      "ĠXoh": 4271,
      "ĠMar": 4272,
      "ĠBac": 4273,
      "ga": 4274,
      "ĠSuh": 4275,
      "li": 4276,
      "lu": 4277,
      "ĠXar": 4278,
      "ge": 4279,
      "ĠZer": 4280,
      "ĠKic": 4281,
      "ĠWeh": 4282,
      "ĠVer": 4283,
      "cu": 4284,
      "la": 4285,
      "yu": 4286,
      "ĠRic": 4287,
      "ĠJic": 4288,
      "ĠMer": 4289,
      "ĠNic": 4290,
      "ĠMic": 4291,
      "ĠBah": 4292,
      "ĠLer": 4293,
      "ĠDer": 4294,
      "so": 4295,
      "ĠGic": 4296,
      "ĠGih": 4297,
      "ya": 4298,
      "ĠRad": 4299,
      "ĠNih": 4300,
      "ĠQic": 4301,
      "ni": 4302,
      "ĠKer": 4303,
      "ĠWic": 4304,
      "ĠZec": 4305,
      "ĠJer": 4306,
      "ye": 4307,
      "ĠYic": 4308,
      "ce": 4309,
      "ĠTic": 4310,
      "ĠNer": 4311,
      "ĠSer": 4312,
      "lo": 4313,
      "su": 4314,
      "ĠRer": 4315,
      "ĠBic": 4316,
      "da": 4317,
      "gi": 4318,
      "te": 4319,
      "ĠPer": 4320,
      "se": 4321,
      "si": 4322,
      "ĠPic": 4323,
      "du": 4324,
      "ĠQer": 4325,
      "ĠDic": 4326,
      "ĠLic": 4327,
      "ca": 4328,
      "ra": 4329,
      "yi": 4330,
      "ĠWer": 4331,
      "di": 4332,
      "do": 4333,
      "ĠXer": 4334,
      "ri": 4335,
      "ĠFer": 4336,
      "ru": 4337,
      "ci": 4338,
      "sa": 4339,
      "ro": 4340,
      "ĠHuhe": 4341,
      "ĠDahe": 4342,
      "000": 4343,
      "008": 4344,
      "ĠQere": 4345,
      "ĠJere": 4346,
      "ĠDide": 4347,
      "002": 4348,
      "007": 4349,
      "ĠZihe": 4350,
      "ĠLohe": 4351,
      "ĠNohe": 4352,
      "ĠZuco": 4353,
      "ĠXahe": 4354,
      "ĠLere": 4355,
      "ĠQude": 4356,
      "ĠNaco": 4357,
      "009": 4358,
      "ĠQore": 4359,
      "ĠBuhe": 4360,
      "ĠLure": 4361,
      "ĠTehe": 4362,
      "ĠVare": 4363,
      "ĠBure": 4364,
      "ĠQare": 4365,
      "ĠGico": 4366,
      "ĠYere": 4367,
      "ĠRihe": 4368,
      "ĠZuhe": 4369,
      "ĠQehe": 4370,
      "ĠRare": 4371,
      "ĠMore": 4372,
      "ĠBere": 4373,
      "ĠBeri": 4374,
      "ĠTide": 4375,
      "ĠVehe": 4376,
      "ĠZico": 4377,
      "ĠCihe": 4378,
      "ĠKame": 4379,
      "ĠJuhe": 4380,
      "ĠJore": 4381,
      "ĠHure": 4382,
      "ĠDuco": 4383,
      "ĠXeco": 4384,
      "ĠFeri": 4385,
      "ĠFuhe": 4386,
      "ĠTeri": 4387,
      "ĠYure": 4388,
      "ĠSode": 4389,
      "ĠZohe": 4390,
      "ĠJehe": 4391,
      "ĠBico": 4392,
      "ĠDehe": 4393,
      "ĠGuhe": 4394,
      "ĠWoco": 4395,
      "ĠRuhe": 4396,
      "ĠXihe": 4397,
      "ĠToco": 4398,
      "006": 4399,
      "ĠLore": 4400,
      "ĠCohe": 4401,
      "ĠJire": 4402,
      "ĠNare": 4403,
      "003": 4404,
      "ĠRore": 4405,
      "ĠMeri": 4406,
      "ĠFoco": 4407,
      "ĠHuco": 4408,
      "ĠNure": 4409,
      "ĠPihe": 4410,
      "ĠYide": 4411,
      "ĠRede": 4412,
      "ĠXure": 4413,
      "ĠLaco": 4414,
      "ĠCere": 4415,
      "ĠJihe": 4416,
      "ĠDico": 4417,
      "ĠDire": 4418,
      "ĠGoco": 4419,
      "ĠYuhe": 4420,
      "001": 4421,
      "ĠZaco": 4422,
      "ĠQire": 4423,
      "ĠMide": 4424,
      "ĠJure": 4425,
      "ĠJade": 4426,
      "ĠXico": 4427,
      "ĠKohe": 4428,
      "ĠKeco": 4429,
      "ĠMihe": 4430,
      "ĠHohe": 4431,
      "ĠHire": 4432,
      "ĠGeco": 4433,
      "ĠYuco": 4434,
      "004": 4435,
      "005": 4436,
      "ĠKire": 4437,
      "ĠFeco": 4438,
      "ĠBihe": 4439,
      "ĠDade": 4440,
      "ĠNire": 4441,
      "ĠGeri": 4442,
      "ĠGode": 4443,
      "ĠRote": 4444,
      "ĠZehe": 4445,
      "ĠQuco": 4446,
      "ĠXire": 4447,
      "ĠJice": 4448,
      "ĠFohe": 4449,
      "ĠHore": 4450,
      "ĠHede": 4451,
      "ĠGahe": 4452,
      "ĠWade": 4453,
      "ĠVohe": 4454,
      "ĠKode": 4455,
      "ĠMico": 4456,
      "ĠMire": 4457,
      "ĠTase": 4458,
      "ĠHere": 4459,
      "ĠPere": 4460,
      "ĠWuhe": 4461,
      "ĠSico": 4462,
      "ĠMeco": 4463,
      "ĠJohe": 4464,
      "ĠHoco": 4465,
      "ĠWifi": 4466,
      "ĠWuco": 4467,
      "ĠWode": 4468,
      "ĠZade": 4469,
      "ĠQede": 4470,
      "ĠLire": 4471,
      "ĠJahe": 4472,
      "ĠFire": 4473,
      "ĠFehe": 4474,
      "ĠTure": 4475,
      "ĠTohe": 4476,
      "ĠTahe": 4477,
      "ĠHehe": 4478,
      "ĠYihe": 4479,
      "ĠYode": 4480,
      "ĠXede": 4481,
      "ĠKure": 4482,
      "ĠKude": 4483,
      "ĠNihe": 4484,
      "ĠPuco": 4485,
      "ĠSide": 4486,
      "ĠZahe": 4487,
      "ĠLahe": 4488,
      "ĠCahe": 4489,
      "ĠKide": 4490,
      "ĠKihe": 4491,
      "ĠMohe": 4492,
      "ĠJote": 4493,
      "ĠBede": 4494,
      "ĠTuhe": 4495,
      "ĠTore": 4496,
      "ĠRaco": 4497,
      "ĠRoco": 4498,
      "ĠSase": 4499,
      "ĠSohe": 4500,
      "ĠQico": 4501,
      "ĠQoco": 4502,
      "ĠCade": 4503,
      "ĠCude": 4504,
      "ĠMuhe": 4505,
      "ĠFore": 4506,
      "ĠFaco": 4507,
      "ĠBide": 4508,
      "ĠBohe": 4509,
      "ĠDore": 4510,
      "ĠNere": 4511,
      "ĠYire": 4512,
      "ĠWeco": 4513,
      "ĠVahe": 4514,
      "ĠXohe": 4515,
      "ĠMure": 4516,
      "ĠBuco": 4517,
      "ĠBode": 4518,
      "ĠTice": 4519,
      "ĠHice": 4520,
      "ĠHile": 4521,
      "ĠNice": 4522,
      "ĠNuhe": 4523,
      "ĠPati": 4524,
      "ĠPice": 4525,
      "ĠPaco": 4526,
      "ĠVode": 4527,
      "ĠSade": 4528,
      "ĠSehe": 4529,
      "ĠLihe": 4530,
      "ĠLare": 4531,
      "ĠCeri": 4532,
      "ĠMase": 4533,
      "ĠJode": 4534,
      "ĠJoco": 4535,
      "ĠFuco": 4536,
      "ĠBore": 4537,
      "ĠNide": 4538,
      "ĠName": 4539,
      "ĠPare": 4540,
      "ĠRahe": 4541,
      "ĠZide": 4542,
      "ĠQode": 4543,
      "ĠLuco": 4544,
      "ĠLude": 4545,
      "ĠCide": 4546,
      "ĠKare": 4547,
      "ĠTare": 4548,
      "ĠNeri": 4549,
      "ĠNode": 4550,
      "ĠGure": 4551,
      "ĠVati": 4552,
      "ĠRohe": 4553,
      "ĠQahe": 4554,
      "ĠCore": 4555,
      "ĠCoco": 4556,
      "ĠJeco": 4557,
      "ĠFice": 4558,
      "ĠFahe": 4559,
      "ĠDohe": 4560,
      "ĠPohe": 4561,
      "ĠWare": 4562,
      "ĠRade": 4563,
      "ĠRude": 4564,
      "ĠSihe": 4565,
      "ĠSire": 4566,
      "ĠQuhe": 4567,
      "ĠCure": 4568,
      "ĠCeco": 4569,
      "ĠMahe": 4570,
      "ĠTihe": 4571,
      "ĠDaco": 4572,
      "ĠDeco": 4573,
      "ĠNahe": 4574,
      "ĠNehe": 4575,
      "ĠNede": 4576,
      "ĠPore": 4577,
      "ĠGude": 4578,
      "ĠWico": 4579,
      "ĠSore": 4580,
      "ĠZude": 4581,
      "ĠQifi": 4582,
      "ĠLide": 4583,
      "ĠKore": 4584,
      "ĠMude": 4585,
      "ĠBade": 4586,
      "ĠBude": 4587,
      "ĠTuco": 4588,
      "ĠDuhe": 4589,
      "ĠGide": 4590,
      "ĠYeri": 4591,
      "ĠYore": 4592,
      "ĠZeri": 4593,
      "ĠZure": 4594,
      "ĠLade": 4595,
      "ĠCare": 4596,
      "ĠCede": 4597,
      "ĠJare": 4598,
      "ĠFico": 4599,
      "ĠTile": 4600,
      "ĠHaco": 4601,
      "ĠPade": 4602,
      "ĠGaco": 4603,
      "ĠYahe": 4604,
      "ĠWide": 4605,
      "ĠWihe": 4606,
      "ĠRico": 4607,
      "ĠSice": 4608,
      "ĠQile": 4609,
      "ĠMuco": 4610,
      "ĠMoco": 4611,
      "ĠMehe": 4612,
      "ĠJico": 4613,
      "ĠFide": 4614,
      "ĠBaco": 4615,
      "ĠBoco": 4616,
      "ĠTude": 4617,
      "ĠDere": 4618,
      "ĠGifi": 4619,
      "ĠYaco": 4620,
      "ĠVere": 4621,
      "ukey": 4622,
      "ĠSare": 4623,
      "ĠSede": 4624,
      "ĠZeco": 4625,
      "ĠQide": 4626,
      "ĠXere": 4627,
      "ĠCote": 4628,
      "ĠCire": 4629,
      "ĠKuco": 4630,
      "ĠMode": 4631,
      "ĠFase": 4632,
      "ĠTaco": 4633,
      "ĠNuco": 4634,
      "ĠNico": 4635,
      "ĠNoco": 4636,
      "ĠPehe": 4637,
      "ĠYeco": 4638,
      "ĠWase": 4639,
      "ĠWore": 4640,
      "ĠZode": 4641,
      "ĠZare": 4642,
      "ĠXade": 4643,
      "ĠLeri": 4644,
      "ĠLati": 4645,
      "ĠCode": 4646,
      "ĠMote": 4647,
      "ĠJide": 4648,
      "ĠGade": 4649,
      "ĠYare": 4650,
      "ĠYoco": 4651,
      "ĠYehe": 4652,
      "ĠVaco": 4653,
      "ĠVade": 4654,
      "ĠRide": 4655,
      "ĠRode": 4656,
      "ĠSuhe": 4657,
      "ĠZase": 4658,
      "ĠQure": 4659,
      "ĠQohe": 4660,
      "ĠXore": 4661,
      "ĠLame": 4662,
      "ĠJede": 4663,
      "ĠFede": 4664,
      "ĠBote": 4665,
      "ĠHare": 4666,
      "ĠPude": 4667,
      "ĠPede": 4668,
      "ĠGile": 4669,
      "ĠWere": 4670,
      "ĠWeri": 4671,
      "ĠWehe": 4672,
      "ĠSahe": 4673,
      "ĠSoco": 4674,
      "ĠZore": 4675,
      "ĠKahe": 4676,
      "ĠBile": 4677,
      "ĠHeri": 4678,
      "ĠHude": 4679,
      "ĠDude": 4680,
      "ĠPoco": 4681,
      "ĠVuco": 4682,
      "onit": 4683,
      "ĠRere": 4684,
      "ĠRehe": 4685,
      "ĠReco": 4686,
      "ĠSude": 4687,
      "ĠZoco": 4688,
      "ĠQaco": 4689,
      "ĠXaco": 4690,
      "ĠLehe": 4691,
      "ĠKaco": 4692,
      "ĠKede": 4693,
      "ĠMaco": 4694,
      "ĠBare": 4695,
      "ĠDede": 4696,
      "ĠPico": 4697,
      "ĠPeco": 4698,
      "ĠGire": 4699,
      "ĠGede": 4700,
      "ĠVico": 4701,
      "ĠRire": 4702,
      "ĠXuhe": 4703,
      "ĠLase": 4704,
      "ĠLuhe": 4705,
      "ĠMile": 4706,
      "ĠTere": 4707,
      "ĠVide": 4708,
      "ĠSote": 4709,
      "ĠXice": 4710,
      "ĠLico": 4711,
      "ĠJifi": 4712,
      "ĠJame": 4713,
      "ĠDoco": 4714,
      "ĠPile": 4715,
      "ĠYile": 4716,
      "ĠYude": 4717,
      "ĠVile": 4718,
      "ĠVure": 4719,
      "akey": 4720,
      "ĠSaco": 4721,
      "ĠQeco": 4722,
      "ĠXuco": 4723,
      "ĠXehe": 4724,
      "ĠLode": 4725,
      "ĠFati": 4726,
      "ĠFure": 4727,
      "ĠNore": 4728,
      "ĠVire": 4729,
      "4500": 4730,
      "ĠSame": 4731,
      "ĠSeco": 4732,
      "ĠXide": 4733,
      "ĠCehe": 4734,
      "ĠKere": 4735,
      "ĠJati": 4736,
      "ĠFere": 4737,
      "ĠTico": 4738,
      "ĠTade": 4739,
      "ĠHide": 4740,
      "ĠDode": 4741,
      "ĠNude": 4742,
      "ĠWice": 4743,
      "ĠVore": 4744,
      "ĠRure": 4745,
      "ĠSifi": 4746,
      "ĠSuco": 4747,
      "ĠZire": 4748,
      "ĠXote": 4749,
      "ĠKico": 4750,
      "ĠMere": 4751,
      "ĠFile": 4752,
      "ĠFote": 4753,
      "ĠFihe": 4754,
      "ĠBame": 4755,
      "ĠHifi": 4756,
      "ĠNeco": 4757,
      "ĠPote": 4758,
      "ĠWati": 4759,
      "7053": 4760,
      "ĠQeri": 4761,
      "ĠXame": 4762,
      "ĠCile": 4763,
      "ĠCaco": 4764,
      "ĠKice": 4765,
      "ĠKile": 4766,
      "ĠMede": 4767,
      "ĠFade": 4768,
      "ĠBahe": 4769,
      "ĠTati": 4770,
      "ĠDote": 4771,
      "ĠGere": 4772,
      "ĠGohe": 4773,
      "ĠYice": 4774,
      "ĠWohe": 4775,
      "ĠVeco": 4776,
      "ohat": 4777,
      "ĠSeri": 4778,
      "ĠZere": 4779,
      "ĠXoco": 4780,
      "ĠKifi": 4781,
      "ĠMati": 4782,
      "ĠJaco": 4783,
      "ĠFare": 4784,
      "ĠFude": 4785,
      "ĠBice": 4786,
      "ĠHode": 4787,
      "ĠHeco": 4788,
      "ĠDice": 4789,
      "ĠPeri": 4790,
      "ĠGice": 4791,
      "ĠGore": 4792,
      "ĠYade": 4793,
      "ĠWahe": 4794,
      "ĠVuhe": 4795,
      "ĠVede": 4796,
      "2085": 4797,
      "ahas": 4798,
      "ĠRuco": 4799,
      "ĠQade": 4800,
      "ĠCice": 4801,
      "ĠBase": 4802,
      "ĠHote": 4803,
      "ĠHahe": 4804,
      "ĠDame": 4805,
      "ĠPuhe": 4806,
      "ĠWaco": 4807,
      "ĠVice": 4808,
      "ahat": 4809,
      "adev": 4810,
      "ĠZice": 4811,
      "ĠXifi": 4812,
      "ĠKase": 4813,
      "ĠKoco": 4814,
      "ĠMare": 4815,
      "ĠTifi": 4816,
      "ĠHico": 4817,
      "ĠPahe": 4818,
      "4041": 4819,
      "4399": 4820,
      "2385": 4821,
      "2683": 4822,
      "4780": 4823,
      "uhic": 4824,
      "ĠSere": 4825,
      "ĠQati": 4826,
      "ĠXode": 4827,
      "ĠCati": 4828,
      "ĠFifi": 4829,
      "ĠBati": 4830,
      "ĠDare": 4831,
      "ĠPame": 4832,
      "ĠPure": 4833,
      "ĠPode": 4834,
      "ĠGase": 4835,
      "ĠGuco": 4836,
      "ĠGehe": 4837,
      "ĠVude": 4838,
      "6045": 4839,
      "4090": 4840,
      "4673": 4841,
      "anit": 4842,
      "acor": 4843,
      "ekey": 4844,
      "oses": 4845,
      "ĠZati": 4846,
      "ĠZame": 4847,
      "ĠLede": 4848,
      "ĠKade": 4849,
      "ĠBifi": 4850,
      "ĠBire": 4851,
      "ĠTeco": 4852,
      "ĠPide": 4853,
      "ĠPire": 4854,
      "ĠGihe": 4855,
      "ĠYohe": 4856,
      "ĠWire": 4857,
      "ĠVase": 4858,
      "7013": 4859,
      "8183": 4860,
      "4443": 4861,
      "ĠSile": 4862,
      "ĠQihe": 4863,
      "ĠKati": 4864,
      "ĠTede": 4865,
      "ĠDeri": 4866,
      "ĠNase": 4867,
      "ĠGare": 4868,
      "ĠVifi": 4869,
      "2550": 4870,
      "2199": 4871,
      "9573": 4872,
      "9685": 4873,
      "4821": 4874,
      "ehas": 4875,
      "ĠMice": 4876,
      "ĠMade": 4877,
      "ĠHade": 4878,
      "7060": 4879,
      "4000": 4880,
      "4391": 4881,
      "4463": 4882,
      "4491": 4883,
      "ihat": 4884,
      "osig": 4885,
      "ĠZote": 4886,
      "ĠKehe": 4887,
      "ĠFame": 4888,
      "ĠTode": 4889,
      "ĠHihe": 4890,
      "ĠYico": 4891,
      "ĠWure": 4892,
      "ĠVeri": 4893,
      "ĠVame": 4894,
      "4199": 4895,
      "8091": 4896,
      "7173": 4897,
      "4583": 4898,
      "udev": 4899,
      "ĠXare": 4900,
      "ĠJeri": 4901,
      "ĠDihe": 4902,
      "ĠWile": 4903,
      "ĠVote": 4904,
      "ĠVoco": 4905,
      "8573": 4906,
      "6021": 4907,
      "4140": 4908,
      "8025": 4909,
      "8063": 4910,
      "7178": 4911,
      "4553": 4912,
      "9075": 4913,
      "7270": 4914,
      "ohas": 4915,
      "ĠReri": 4916,
      "ĠCuhe": 4917,
      "ĠYame": 4918,
      "2100": 4919,
      "4195": 4920,
      "4191": 4921,
      "7123": 4922,
      "6121": 4923,
      "9163": 4924,
      "7880": 4925,
      "7823": 4926,
      "4791": 4927,
      "4793": 4928,
      "4925": 4929,
      "ahiv": 4930,
      "ined": 4931,
      "ĠSure": 4932,
      "ĠXude": 4933,
      "ĠKeri": 4934,
      "ĠKuhe": 4935,
      "ĠMame": 4936,
      "ĠNile": 4937,
      "ĠNade": 4938,
      "ĠWote": 4939,
      "ĠWude": 4940,
      "9926": 4941,
      "6130": 4942,
      "4333": 4943,
      "4541": 4944,
      "2675": 4945,
      "9620": 4946,
      "9693": 4947,
      "9293": 4948,
      "4975": 4949,
      "ocor": 4950,
      "oned": 4951,
      "usig": 4952,
      "ĠZede": 4953,
      "ĠQame": 4954,
      "ĠLice": 4955,
      "ĠJase": 4956,
      "ĠJuco": 4957,
      "ĠJude": 4958,
      "ĠHati": 4959,
      "ĠYase": 4960,
      "7020": 4961,
      "6310": 4962,
      "8040": 4963,
      "8033": 4964,
      "2080": 4965,
      "8383": 4966,
      "8311": 4967,
      "6123": 4968,
      "7575": 4969,
      "7863": 4970,
      "9281": 4971,
      "9276": 4972,
      "okey": 4973,
      "ĠQase": 4974,
      "ĠLeco": 4975,
      "ĠDile": 4976,
      "ĠVihe": 4977,
      "8511": 4978,
      "2153": 4979,
      "8000": 4980,
      "8150": 4981,
      "7130": 4982,
      "6128": 4983,
      "4380": 4984,
      "2341": 4985,
      "9523": 4986,
      "7860": 4987,
      "2691": 4988,
      "9625": 4989,
      "4799": 4990,
      "9475": 4991,
      "7291": 4992,
      "4985": 4993,
      "ĠRifi": 4994,
      "ĠRame": 4995,
      "ĠLile": 4996,
      "ĠCico": 4997,
      "ĠTire": 4998,
      "2591": 4999,
      "2500": 5000,
      "2150": 5001,
      "6085": 5002,
      "6025": 5003,
      "6065": 5004,
      "6000": 5005,
      "4061": 5006,
      "4056": 5007,
      "8080": 5008,
      "6180": 5009,
      "4373": 5010,
      "6553": 5011,
      "9380": 5012,
      "2861": 5013,
      "9699": 5014,
      "9295": 5015,
      "9763": 5016,
      "2785": 5017,
      "6499": 5018,
      "7985": 5019,
      "ĠRile": 5020,
      "ĠZile": 5021,
      "ĠXati": 5022,
      "ĠCame": 5023,
      "ĠMifi": 5024,
      "ĠTote": 5025,
      "ĠTame": 5026,
      "ĠHase": 5027,
      "ĠNati": 5028,
      "9990": 5029,
      "7043": 5030,
      "7000": 5031,
      "2513": 5032,
      "6030": 5033,
      "4141": 5034,
      "6390": 5035,
      "2081": 5036,
      "2091": 5037,
      "2013": 5038,
      "2033": 5039,
      "8181": 5040,
      "8175": 5041,
      "7183": 5042,
      "7175": 5043,
      "7150": 5044,
      "7111": 5045,
      "7168": 5046,
      "4525": 5047,
      "4561": 5048,
      "9023": 5049,
      "9010": 5050,
      "9399": 5051,
      "9373": 5052,
      "7873": 5053,
      "7821": 5054,
      "2623": 5055,
      "4765": 5056,
      "4776": 5057,
      "9743": 5058,
      "5583": 5059,
      "2970": 5060,
      "2980": 5061,
      "ecor": 5062,
      "edev": 5063,
      "icor": 5064,
      "ĠLote": 5065,
      "ĠBehe": 5066,
      "ĠNifi": 5067,
      "ĠNote": 5068,
      "8593": 5069,
      "2575": 5070,
      "7385": 5071,
      "2125": 5072,
      "2121": 5073,
      "6063": 5074,
      "4121": 5075,
      "4193": 5076,
      "6343": 5077,
      "6313": 5078,
      "6353": 5079,
      "8121": 5080,
      "9180": 5081,
      "7899": 5082,
      "2893": 5083,
      "4425": 5084,
      "7690": 5085,
      "5345": 5086,
      "1000": 5087,
      "4223": 5088,
      "6773": 5089,
      "2921": 5090,
      "Quf": 5091,
      "Viw": 5092,
      "init": 5093,
      "ĠRati": 5094,
      "ĠRase": 5095,
      "ĠSati": 5096,
      "ĠZifi": 5097,
      "ĠQice": 5098,
      "ĠFode": 5099,
      "ĠDure": 5100,
      "ĠGame": 5101,
      "7095": 5102,
      "7086": 5103,
      "2533": 5104,
      "4080": 5105,
      "4030": 5106,
      "6323": 5107,
      "2043": 5108,
      "7165": 5109,
      "6173": 5110,
      "6193": 5111,
      "2333": 5112,
      "7573": 5113,
      "4588": 5114,
      "9099": 5115,
      "9030": 5116,
      "9360": 5117,
      "9300": 5118,
      "7891": 5119,
      "2880": 5120,
      "4485": 5121,
      "2673": 5122,
      "2665": 5123,
      "9671": 5124,
      "9683": 5125,
      "9821": 5126,
      "9823": 5127,
      "7790": 5128,
      "9781": 5129,
      "4960": 5130,
      "4961": 5131,
      "4965": 5132,
      "6760": 5133,
      "ikey": 5134,
      "ĠXile": 5135,
      "ĠCuco": 5136,
      "ĠHame": 5137,
      "ĠDase": 5138,
      "9940": 5139,
      "9953": 5140,
      "2180": 5141,
      "4161": 5142,
      "6385": 5143,
      "8070": 5144,
      "8373": 5145,
      "8333": 5146,
      "8300": 5147,
      "2310": 5148,
      "2330": 5149,
      "7595": 5150,
      "4570": 5151,
      "4530": 5152,
      "9021": 5153,
      "9591": 5154,
      "9171": 5155,
      "7895": 5156,
      "2840": 5157,
      "2895": 5158,
      "2646": 5159,
      "9627": 5160,
      "4675": 5161,
      "9863": 5162,
      "2271": 5163,
      "7721": 5164,
      "7740": 5165,
      "9271": 5166,
      "4263": 5167,
      "9760": 5168,
      "9470": 5169,
      "8785": 5170,
      "7491": 5171,
      "1923": 5172,
      "enit": 5173,
      "ohiv": 5174,
      "uces": 5175,
      "ĠLifi": 5176,
      "8571": 5177,
      "7055": 5178,
      "2599": 5179,
      "7313": 5180,
      "6031": 5181,
      "4065": 5182,
      "8065": 5183,
      "8148": 5184,
      "8363": 5185,
      "2353": 5186,
      "7533": 5187,
      "9025": 5188,
      "9385": 5189,
      "9330": 5190,
      "2695": 5191,
      "7699": 5192,
      "9663": 5193,
      "9695": 5194,
      "2273": 5195,
      "4273": 5196,
      "4221": 5197,
      "4220": 5198,
      "4265": 5199,
      "9425": 5200,
      "9421": 5201,
      "9443": 5202,
      "5175": 5203,
      "5195": 5204,
      "6721": 5205,
      "8295": 5206,
      "5823": 5207,
      "ĠXeri": 5208,
      "ĠCifi": 5209,
      "ĠGati": 5210,
      "ĠYati": 5211,
      "ĠYede": 5212,
      "7073": 5213,
      "7097": 5214,
      "7365": 5215,
      "2111": 5216,
      "4180": 5217,
      "4155": 5218,
      "2021": 5219,
      "8155": 5220,
      "8130": 5221,
      "8315": 5222,
      "4375": 5223,
      "7563": 5224,
      "4599": 5225,
      "9581": 5226,
      "9113": 5227,
      "9153": 5228,
      "9110": 5229,
      "9365": 5230,
      "9395": 5231,
      "7841": 5232,
      "7861": 5233,
      "7865": 5234,
      "7890": 5235,
      "2875": 5236,
      "4460": 5237,
      "7670": 5238,
      "7691": 5239,
      "9675": 5240,
      "9665": 5241,
      "4621": 5242,
      "4671": 5243,
      "4861": 5244,
      "2275": 5245,
      "9273": 5246,
      "4241": 5247,
      "4771": 5248,
      "2763": 5249,
      "9473": 5250,
      "9480": 5251,
      "2943": 5252,
      "8285": 5253,
      "7960": 5254,
      "ucor": 5255,
      "uses": 5256,
      "uhas": 5257,
      "ĠQote": 5258,
      "ĠLoco": 5259,
      "ĠDati": 5260,
      "ĠDifi": 5261,
      "ĠPase": 5262,
      "7021": 5263,
      "7080": 5264,
      "7010": 5265,
      "2560": 5266,
      "2565": 5267,
      "2160": 5268,
      "6050": 5269,
      "4110": 5270,
      "4013": 5271,
      "6333": 5272,
      "8085": 5273,
      "8133": 5274,
      "8100": 5275,
      "7185": 5276,
      "7135": 5277,
      "8325": 5278,
      "8321": 5279,
      "2365": 5280,
      "2391": 5281,
      "7543": 5282,
      "4513": 5283,
      "4533": 5284,
      "9353": 5285,
      "2881": 5286,
      "2640": 5287,
      "4620": 5288,
      "4844": 5289,
      "4868": 5290,
      "9895": 5291,
      "9240": 5292,
      "4721": 5293,
      "6795": 5294,
      "2490": 5295,
      "7421": 5296,
      "8475": 5297,
      "Yag": 5298,
      "ĠNili": 5299,
      "ĠPefa": 5300,
      "9995": 5301,
      "9933": 5302,
      "9915": 5303,
      "7025": 5304,
      "6013": 5305,
      "4120": 5306,
      "4100": 5307,
      "6357": 5308,
      "8182": 5309,
      "7140": 5310,
      "8395": 5311,
      "8355": 5312,
      "6125": 5313,
      "6175": 5314,
      "4365": 5315,
      "7525": 5316,
      "7560": 5317,
      "7553": 5318,
      "6590": 5319,
      "6510": 5320,
      "9073": 5321,
      "4426": 5322,
      "2680": 5323,
      "2690": 5324,
      "7640": 5325,
      "7695": 5326,
      "9673": 5327,
      "4623": 5328,
      "4691": 5329,
      "2270": 5330,
      "1348": 5331,
      "4283": 5332,
      "4740": 5333,
      "5553": 5334,
      "9420": 5335,
      "6840": 5336,
      "4976": 5337,
      "3190": 5338,
      "6744": 5339,
      "8770": 5340,
      "2983": 5341,
      "8241": 5342,
      "8290": 5343,
      "6421": 5344,
      "8923": 5345,
      "uhat": 5346,
      "uhiv": 5347,
      "ĠXase": 5348,
      "ĠJile": 5349,
      "ĠBeco": 5350,
      "ĠYote": 5351,
      "8545": 5352,
      "8576": 5353,
      "8588": 5354,
      "8500": 5355,
      "8503": 5356,
      "7081": 5357,
      "7050": 5358,
      "7072": 5359,
      "2583": 5360,
      "2145": 5361,
      "6080": 5362,
      "4101": 5363,
      "6383": 5364,
      "8023": 5365,
      "2040": 5366,
      "2010": 5367,
      "2051": 5368,
      "7181": 5369,
      "8399": 5370,
      "8305": 5371,
      "6161": 5372,
      "6595": 5373,
      "4510": 5374,
      "9553": 5375,
      "9173": 5376,
      "9100": 5377,
      "9321": 5378,
      "2860": 5379,
      "2676": 5380,
      "7623": 5381,
      "9680": 5382,
      "9691": 5383,
      "4699": 5384,
      "9873": 5385,
      "9881": 5386,
      "2225": 5387,
      "2243": 5388,
      "1330": 5389,
      "9221": 5390,
      "4775": 5391,
      "9761": 5392,
      "1153": 5393,
      "5565": 5394,
      "3085": 5395,
      "2793": 5396,
      "8671": 5397,
      "4944": 5398,
      "2491": 5399,
      "8725": 5400,
      "6283": 5401,
      "8223": 5402,
      "6423": 5403,
      "5499": 5404,
      "7210": 5405,
      "Kiv": 5406,
      "Roz": 5407,
      "unit": 5408,
      "uned": 5409,
      "ĠRuwa": 5410,
      "ĠXaga": 5411,
      "ĠCoje": 5412,
      "ĠYifi": 5413,
      "7091": 5414,
      "7011": 5415,
      "7381": 5416,
      "7350": 5417,
      "6053": 5418,
      "4183": 5419,
      "4190": 5420,
      "6350": 5421,
      "8095": 5422,
      "2003": 5423,
      "7125": 5424,
      "6163": 5425,
      "6115": 5426,
      "6103": 5427,
      "4343": 5428,
      "2311": 5429,
      "7555": 5430,
      "4590": 5431,
      "9091": 5432,
      "7840": 5433,
      "2870": 5434,
      "4499": 5435,
      "4498": 5436,
      "2681": 5437,
      "2671": 5438,
      "9640": 5439,
      "4665": 5440,
      "4891": 5441,
      "9840": 5442,
      "2240": 5443,
      "2281": 5444,
      "2283": 5445,
      "2295": 5446,
      "9299": 5447,
      "4785": 5448,
      "4773": 5449,
      "4723": 5450,
      "8899": 5451,
      "8875": 5452,
      "6665": 5453,
      "2725": 5454,
      "2723": 5455,
      "9499": 5456,
      "9491": 5457,
      "9476": 5458,
      "1510": 5459,
      "7265": 5460,
      "4980": 5461,
      "6791": 5462,
      "8775": 5463,
      "7443": 5464,
      "7423": 5465,
      "6243": 5466,
      "8270": 5467,
      "8225": 5468,
      "8273": 5469,
      "7944": 5470,
      "8495": 5471,
      "3899": 5472,
      "3799": 5473,
      "Len": 5474,
      "Pap": 5475,
      "Qel": 5476,
      "Vem": 5477,
      "aber": 5478,
      "ĠKote": 5479,
      "ĠMopa": 5480,
      "ĠDilo": 5481,
      "ĠNike": 5482,
      "8577": 5483,
      "8555": 5484,
      "2572": 5485,
      "7399": 5486,
      "7323": 5487,
      "7388": 5488,
      "2133": 5489,
      "2135": 5490,
      "6033": 5491,
      "6051": 5492,
      "4143": 5493,
      "4115": 5494,
      "6381": 5495,
      "6371": 5496,
      "6312": 5497,
      "8031": 5498,
      "2099": 5499,
      "8180": 5500,
      "7199": 5501,
      "7110": 5502,
      "7192": 5503,
      "6145": 5504,
      "6105": 5505,
      "4361": 5506,
      "2300": 5507,
      "6520": 5508,
      "9040": 5509,
      "9083": 5510,
      "9053": 5511,
      "7866": 5512,
      "2661": 5513,
      "9643": 5514,
      "4640": 5515,
      "4878": 5516,
      "9884": 5517,
      "2223": 5518,
      "2293": 5519,
      "7775": 5520,
      "7778": 5521,
      "4243": 5522,
      "8840": 5523,
      "5540": 5524,
      "9495": 5525,
      "6860": 5526,
      "1580": 5527,
      "1520": 5528,
      "8683": 5529,
      "4921": 5530,
      "4941": 5531,
      "8771": 5532,
      "7490": 5533,
      "Dum": 5534,
      "Toz": 5535,
      "Wum": 5536,
      "Won": 5537,
      "ĠRuxa": 5538,
      "ĠSoyu": 5539,
      "ĠZabi": 5540,
      "ĠZebe": 5541,
      "ĠQigi": 5542,
      "ĠLumu": 5543,
      "ĠCafe": 5544,
      "ĠMono": 5545,
      "ĠGote": 5546,
      "ĠWeci": 5547,
      "9913": 5548,
      "7035": 5549,
      "7360": 5550,
      "7331": 5551,
      "6071": 5552,
      "6091": 5553,
      "4145": 5554,
      "6395": 5555,
      "8020": 5556,
      "8141": 5557,
      "8165": 5558,
      "8195": 5559,
      "7180": 5560,
      "8342": 5561,
      "6111": 5562,
      "4341": 5563,
      "4396": 5564,
      "4350": 5565,
      "2380": 5566,
      "2381": 5567,
      "6511": 5568,
      "9013": 5569,
      "9393": 5570,
      "7883": 5571,
      "2821": 5572,
      "2865": 5573,
      "2844": 5574,
      "4490": 5575,
      "4495": 5576,
      "7677": 5577,
      "4683": 5578,
      "2291": 5579,
      "7773": 5580,
      "7723": 5581,
      "1355": 5582,
      "1081": 5583,
      "1053": 5584,
      "9270": 5585,
      "9261": 5586,
      "9297": 5587,
      "4225": 5588,
      "4240": 5589,
      "4228": 5590,
      "4248": 5591,
      "9785": 5592,
      "2775": 5593,
      "6825": 5594,
      "4973": 5595,
      "5165": 5596,
      "6723": 5597,
      "2425": 5598,
      "2493": 5599,
      "8761": 5600,
      "8745": 5601,
      "2923": 5602,
      "7499": 5603,
      "6223": 5604,
      "7970": 5605,
      "8473": 5606,
      "8465": 5607,
      "8983": 5608,
      "3675": 5609,
      "3920": 5610,
      "Hek": 5611,
      "Reg": 5612,
      "Sov": 5613,
      "Wil": 5614,
      "Xiz": 5615,
      "ĠZuza": 5616,
      "ĠZovu": 5617,
      "ĠTite": 5618,
      "ĠHuxu": 5619,
      "ĠPifi": 5620,
      "ĠWada": 5621,
      "ĠVabi": 5622,
      "8575": 5623,
      "9903": 5624,
      "9901": 5625,
      "7063": 5626,
      "7042": 5627,
      "2571": 5628,
      "7383": 5629,
      "7333": 5630,
      "6099": 5631,
      "6090": 5632,
      "6095": 5633,
      "6093": 5634,
      "4130": 5635,
      "4085": 5636,
      "4091": 5637,
      "4076": 5638,
      "4053": 5639,
      "6330": 5640,
      "8013": 5641,
      "8010": 5642,
      "2070": 5643,
      "2045": 5644,
      "8135": 5645,
      "7131": 5646,
      "6120": 5647,
      "6179": 5648,
      "4300": 5649,
      "4303": 5650,
      "7523": 5651,
      "7550": 5652,
      "6521": 5653,
      "6593": 5654,
      "4520": 5655,
      "9533": 5656,
      "9530": 5657,
      "9150": 5658,
      "9127": 5659,
      "9383": 5660,
      "9313": 5661,
      "7885": 5662,
      "7825": 5663,
      "2828": 5664,
      "7668": 5665,
      "9628": 5666,
      "9841": 5667,
      "7741": 5668,
      "7783": 5669,
      "7795": 5670,
      "9283": 5671,
      "9223": 5672,
      "9244": 5673,
      "4720": 5674,
      "9725": 5675,
      "9741": 5676,
      "8885": 5677,
      "8883": 5678,
      "1191": 5679,
      "1113": 5680,
      "3040": 5681,
      "8625": 5682,
      "8621": 5683,
      "3143": 5684,
      "6781": 5685,
      "2471": 5686,
      "6225": 5687,
      "6280": 5688,
      "7921": 5689,
      "8963": 5690,
      "8980": 5691,
      "1763": 5692,
      "5780": 5693,
      "5723": 5694,
      "3221": 5695,
      "3980": 5696,
      "Cap": 5697,
      "Map": 5698,
      "Mip": 5699,
      "Naf": 5700,
      "Wiv": 5701,
      "Wex": 5702,
      "Xez": 5703,
      "Yog": 5704,
      "ehiv": 5705,
      "ĠMese": 5706,
      "ĠTeya": 5707,
      "ĠVejo": 5708,
      "8580": 5709,
      "7311": 5710,
      "6023": 5711,
      "4173": 5712,
      "4181": 5713,
      "4197": 5714,
      "4073": 5715,
      "4033": 5716,
      "6399": 5717,
      "2073": 5718,
      "7196": 5719,
      "7158": 5720,
      "6100": 5721,
      "6571": 5722,
      "9070": 5723,
      "9033": 5724,
      "9035": 5725,
      "9571": 5726,
      "9371": 5727,
      "9351": 5728,
      "7881": 5729,
      "2823": 5730,
      "4468": 5731,
      "9660": 5732,
      "4645": 5733,
      "4698": 5734,
      "4895": 5735,
      "9870": 5736,
      "9864": 5737,
      "2263": 5738,
      "7763": 5739,
      "7771": 5740,
      "7776": 5741,
      "1075": 5742,
      "9280": 5743,
      "4285": 5744,
      "4226": 5745,
      "4292": 5746,
      "4763": 5747,
      "4745": 5748,
      "4790": 5749,
      "4778": 5750,
      "9721": 5751,
      "6681": 5752,
      "1111": 5753,
      "3083": 5754,
      "9440": 5755,
      "9428": 5756,
      "6899": 5757,
      "1591": 5758,
      "7273": 5759,
      "4926": 5760,
      "3113": 5761,
      "3513": 5762,
      "8960": 5763,
      "1673": 5764,
      "5490": 5765,
      "4710": 5766,
      "Bux": 5767,
      "Pey": 5768,
      "Pum": 5769,
      "Pan": 5770,
      "Zag": 5771,
      "ĠRuce": 5772,
      "ĠZuri": 5773,
      "ĠZebi": 5774,
      "ĠQayi": 5775,
      "ĠLoma": 5776,
      "ĠDivo": 5777,
      "ĠGizi": 5778,
      "ĠWede": 5779,
      "ĠWica": 5780,
      "9983": 5781,
      "2521": 5782,
      "2596": 5783,
      "2510": 5784,
      "7370": 5785,
      "7391": 5786,
      "2170": 5787,
      "2126": 5788,
      "2166": 5789,
      "6083": 5790,
      "6010": 5791,
      "4198": 5792,
      "4075": 5793,
      "6361": 5794,
      "6393": 5795,
      "6315": 5796,
      "6317": 5797,
      "2025": 5798,
      "8120": 5799,
      "8161": 5800,
      "6170": 5801,
      "6191": 5802,
      "6153": 5803,
      "4360": 5804,
      "7593": 5805,
      "6573": 5806,
      "6591": 5807,
      "4540": 5808,
      "4563": 5809,
      "4550": 5810,
      "9513": 5811,
      "9195": 5812,
      "9391": 5813,
      "9304": 5814,
      "7820": 5815,
      "7843": 5816,
      "7864": 5817,
      "2890": 5818,
      "2620": 5819,
      "7660": 5820,
      "7680": 5821,
      "7620": 5822,
      "4670": 5823,
      "4820": 5824,
      "2227": 5825,
      "7781": 5826,
      "7743": 5827,
      "9263": 5828,
      "9220": 5829,
      "4795": 5830,
      "9775": 5831,
      "9790": 5832,
      "8823": 5833,
      "9490": 5834,
      "1513": 5835,
      "8665": 5836,
      "2441": 5837,
      "8741": 5838,
      "7473": 5839,
      "7461": 5840,
      "7465": 5841,
      "7496": 5842,
      "6281": 5843,
      "6265": 5844,
      "8226": 5845,
      "8965": 5846,
      "8944": 5847,
      "5885": 5848,
      "1723": 5849,
      "5799": 5850,
      "3445": 5851,
      "5973": 5852,
      "Huz": 5853,
      "Jex": 5854,
      "Kul": 5855,
      "Muk": 5856,
      "Mol": 5857,
      "Pem": 5858,
      "Saq": 5859,
      "Tut": 5860,
      "Vop": 5861,
      "Vew": 5862,
      "Yij": 5863,
      "ihas": 5864,
      "ober": 5865,
      "ĠKeqi": 5866,
      "ĠMine": 5867,
      "ĠTaci": 5868,
      "ĠHeka": 5869,
      "ĠHemo": 5870,
      "ĠNila": 5871,
      "ĠPiya": 5872,
      "ĠPofo": 5873,
      "ĠYoni": 5874,
      "ĠWame": 5875,
      "8585": 5876,
      "8563": 5877,
      "8533": 5878,
      "8530": 5879,
      "9980": 5880,
      "7099": 5881,
      "7041": 5882,
      "7040": 5883,
      "7380": 5884,
      "7375": 5885,
      "7393": 5886,
      "2173": 5887,
      "2128": 5888,
      "2110": 5889,
      "2155": 5890,
      "2131": 5891,
      "6073": 5892,
      "6020": 5893,
      "4137": 5894,
      "4050": 5895,
      "6320": 5896,
      "8099": 5897,
      "8093": 5898,
      "7170": 5899,
      "8391": 5900,
      "8328": 5901,
      "8310": 5902,
      "6148": 5903,
      "6150": 5904,
      "4323": 5905,
      "4351": 5906,
      "2350": 5907,
      "7530": 5908,
      "6543": 5909,
      "4571": 5910,
      "9081": 5911,
      "9042": 5912,
      "9011": 5913,
      "9027": 5914,
      "9535": 5915,
      "9335": 5916,
      "7898": 5917,
      "9661": 5918,
      "4881": 5919,
      "4843": 5920,
      "9885": 5921,
      "9883": 5922,
      "2247": 5923,
      "7761": 5924,
      "7796": 5925,
      "1021": 5926,
      "5013": 5927,
      "5000": 5928,
      "4261": 5929,
      "4743": 5930,
      "9795": 5931,
      "6671": 5932,
      "2773": 5933,
      "2720": 5934,
      "9441": 5935,
      "8623": 5936,
      "4981": 5937,
      "4943": 5938,
      "4923": 5939,
      "5110": 5940,
      "3510": 5941,
      "2960": 5942,
      "7425": 5943,
      "8245": 5944,
      "8491": 5945,
      "6923": 5946,
      "6965": 5947,
      "1625": 5948,
      "1285": 5949,
      "1925": 5950,
      "1980": 5951,
      "7710": 5952,
      "8415": 5953,
      "Biy": 5954,
      "Ciy": 5955,
      "Hen": 5956,
      "Kuq": 5957,
      "Lit": 5958,
      "Nef": 5959,
      "Pox": 5960,
      "Qib": 5961,
      "Rab": 5962,
      "Wel": 5963,
      "Xaq": 5964,
      "Xuf": 5965,
      "Xoy": 5966,
      "Zol": 5967,
      "ĠZoxo": 5968,
      "ĠXelu": 5969,
      "ĠCuhu": 5970,
      "ĠKetu": 5971,
      "ĠJuki": 5972,
      "ĠHubu": 5973,
      "ĠNoce": 5974,
      "ĠPaci": 5975,
      "ĠYuti": 5976,
      "ĠVeku": 5977,
      "8570": 5978,
      "8566": 5979,
      "8508": 5980,
      "9921": 5981,
      "9965": 5982,
      "9993": 5983,
      "2523": 5984,
      "2530": 5985,
      "7390": 5986,
      "7335": 5987,
      "6066": 5988,
      "4150": 5989,
      "4045": 5990,
      "4064": 5991,
      "6370": 5992,
      "6355": 5993,
      "6303": 5994,
      "2063": 5995,
      "8191": 5996,
      "8167": 5997,
      "7163": 5998,
      "7153": 5999,
      "6140": 6000,
      "4313": 6001,
      "4306": 6002,
      "7580": 6003,
      "6533": 6004,
      "6531": 6005,
      "4591": 6006,
      "9020": 6007,
      "9061": 6008,
      "9095": 6009,
      "9076": 6010,
      "9595": 6011,
      "9510": 6012,
      "9346": 6013,
      "2872": 6014,
      "2886": 6015,
      "2887": 6016,
      "4475": 6017,
      "2663": 6018,
      "2648": 6019,
      "7625": 6020,
      "4823": 6021,
      "2220": 6022,
      "2246": 6023,
      "7720": 6024,
      "5310": 6025,
      "5330": 6026,
      "4278": 6027,
      "9770": 6028,
      "9723": 6029,
      "8821": 6030,
      "8861": 6031,
      "8890": 6032,
      "5541": 6033,
      "2740": 6034,
      "9465": 6035,
      "6843": 6036,
      "1511": 6037,
      "3525": 6038,
      "7441": 6039,
      "7498": 6040,
      "8299": 6041,
      "8265": 6042,
      "6461": 6043,
      "7971": 6044,
      "7923": 6045,
      "7928": 6046,
      "8471": 6047,
      "1691": 6048,
      "5875": 6049,
      "3673": 6050,
      "5280": 6051,
      "6405": 6052,
      "9700": 6053,
      "Bup": 6054,
      "Beb": 6055,
      "Cop": 6056,
      "Haw": 6057,
      "Jaz": 6058,
      "Puq": 6059,
      "Ros": 6060,
      "aned": 6061,
      "ahic": 6062,
      "ihiv": 6063,
      "ĠRoqi": 6064,
      "ĠReje": 6065,
      "ĠSuca": 6066,
      "ĠSavo": 6067,
      "ĠLomi": 6068,
      "ĠMoka": 6069,
      "ĠMupi": 6070,
      "ĠMuto": 6071,
      "ĠJele": 6072,
      "ĠFife": 6073,
      "ĠFeki": 6074,
      "ĠTari": 6075,
      "ĠNebo": 6076,
      "ĠPosa": 6077,
      "ĠPive": 6078,
      "ĠGunu": 6079,
      "ĠGotu": 6080,
      "ĠYeto": 6081,
      "8599": 6082,
      "8540": 6083,
      "8590": 6084,
      "9973": 6085,
      "9975": 6086,
      "9946": 6087,
      "2590": 6088,
      "7343": 6089,
      "7345": 6090,
      "2123": 6091,
      "2165": 6092,
      "6061": 6093,
      "6035": 6094,
      "4070": 6095,
      "4040": 6096,
      "4095": 6097,
      "4055": 6098,
      "6351": 6099,
      "8015": 6100,
      "8145": 6101,
      "8132": 6102,
      "7120": 6103,
      "7156": 6104,
      "6195": 6105,
      "7515": 6106,
      "4515": 6107,
      "4503": 6108,
      "9550": 6109,
      "7878": 6110,
      "2878": 6111,
      "9641": 6112,
      "4697": 6113,
      "4840": 6114,
      "4897": 6115,
      "9871": 6116,
      "2280": 6117,
      "2261": 6118,
      "2290": 6119,
      "2248": 6120,
      "7760": 6121,
      "1310": 6122,
      "5391": 6123,
      "1013": 6124,
      "9265": 6125,
      "9245": 6126,
      "4270": 6127,
      "4280": 6128,
      "4275": 6129,
      "4245": 6130,
      "6621": 6131,
      "1193": 6132,
      "5599": 6133,
      "5595": 6134,
      "2780": 6135,
      "2795": 6136,
      "9460": 6137,
      "6873": 6138,
      "6823": 6139,
      "6891": 6140,
      "7225": 6141,
      "7221": 6142,
      "7263": 6143,
      "7283": 6144,
      "7295": 6145,
      "3121": 6146,
      "3523": 6147,
      "3591": 6148,
      "6720": 6149,
      "6771": 6150,
      "6775": 6151,
      "2421": 6152,
      "8783": 6153,
      "2940": 6154,
      "7440": 6155,
      "6240": 6156,
      "8481": 6157,
      "1885": 6158,
      "1899": 6159,
      "3693": 6160,
      "1243": 6161,
      "1481": 6162,
      "4910": 6163,
      "4930": 6164,
      "2900": 6165,
      "4831": 6166,
      "Boz": 6167,
      "Bop": 6168,
      "Dod": 6169,
      "Gis": 6170,
      "Gaj": 6171,
      "Hit": 6172,
      "Hut": 6173,
      "Jay": 6174,
      "Kex": 6175,
      "Nal": 6176,
      "Nup": 6177,
      "Nij": 6178,
      "Piy": 6179,
      "Rag": 6180,
      "Rol": 6181,
      "Siw": 6182,
      "Set": 6183,
      "Tes": 6184,
      "Tew": 6185,
      "Vug": 6186,
      "Xon": 6187,
      "Yus": 6188,
      "Yek": 6189,
      "Zaj": 6190,
      "Zex": 6191,
      "ened": 6192,
      "ĠSoxu": 6193,
      "ĠQalo": 6194,
      "ĠXadu": 6195,
      "ĠCoza": 6196,
      "ĠMami": 6197,
      "ĠJemi": 6198,
      "ĠFosu": 6199,
      "ĠFoze": 6200,
      "ĠBeti": 6201,
      "ĠBesi": 6202,
      "ĠTofe": 6203,
      "ĠHuya": 6204,
      "ĠHeho": 6205,
      "ĠDagi": 6206,
      "ĠNunu": 6207,
      "ĠNufo": 6208,
      "ĠGuya": 6209,
      "ĠWima": 6210,
      "ĠVoxo": 6211,
      "ĠVewo": 6212,
      "8591": 6213,
      "9920": 6214,
      "9988": 6215,
      "2525": 6216,
      "2520": 6217,
      "2187": 6218,
      "6003": 6219,
      "4060": 6220,
      "6300": 6221,
      "2055": 6222,
      "8125": 6223,
      "8113": 6224,
      "7190": 6225,
      "7195": 6226,
      "7115": 6227,
      "8320": 6228,
      "8371": 6229,
      "8303": 6230,
      "6199": 6231,
      "6110": 6232,
      "6166": 6233,
      "6155": 6234,
      "6131": 6235,
      "7581": 6236,
      "6580": 6237,
      "6565": 6238,
      "6544": 6239,
      "6550": 6240,
      "6527": 6241,
      "4523": 6242,
      "4551": 6243,
      "4535": 6244,
      "9036": 6245,
      "9000": 6246,
      "9185": 6247,
      "9130": 6248,
      "9355": 6249,
      "7870": 6250,
      "7887": 6251,
      "2873": 6252,
      "2625": 6253,
      "7621": 6254,
      "7663": 6255,
      "7643": 6256,
      "4660": 6257,
      "4663": 6258,
      "4681": 6259,
      "4873": 6260,
      "9843": 6261,
      "9875": 6262,
      "9893": 6263,
      "9892": 6264,
      "7785": 6265,
      "5353": 6266,
      "5075": 6267,
      "9241": 6268,
      "4722": 6269,
      "9771": 6270,
      "9791": 6271,
      "8873": 6272,
      "8865": 6273,
      "6625": 6274,
      "6673": 6275,
      "6675": 6276,
      "3395": 6277,
      "3353": 6278,
      "3093": 6279,
      "2781": 6280,
      "9426": 6281,
      "1585": 6282,
      "7223": 6283,
      "8640": 6284,
      "8695": 6285,
      "8691": 6286,
      "4977": 6287,
      "6785": 6288,
      "6763": 6289,
      "6780": 6290,
      "2443": 6291,
      "7475": 6292,
      "6273": 6293,
      "6291": 6294,
      "8293": 6295,
      "6480": 6296,
      "7943": 6297,
      "6940": 6298,
      "8975": 6299,
      "5821": 6300,
      "5680": 6301,
      "5620": 6302,
      "3893": 6303,
      "1281": 6304,
      "3780": 6305,
      "1971": 6306,
      "1943": 6307,
      "5983": 6308,
      "3965": 6309,
      "Cuw": 6310,
      "Duz": 6311,
      "Dom": 6312,
      "Def": 6313,
      "Det": 6314,
      "Haz": 6315,
      "Jop": 6316,
      "Kav": 6317,
      "Lak": 6318,
      "Mex": 6319,
      "Nor": 6320,
      "Nik": 6321,
      "Puj": 6322,
      "Puy": 6323,
      "Qaj": 6324,
      "Qik": 6325,
      "Ruv": 6326,
      "Sun": 6327,
      "Sip": 6328,
      "Seg": 6329,
      "Taw": 6330,
      "Tuw": 6331,
      "Tox": 6332,
      "Tek": 6333,
      "Tex": 6334,
      "Waw": 6335,
      "Wuq": 6336,
      "Xaj": 6337,
      "Yoz": 6338,
      "Yen": 6339,
      "Zum": 6340,
      "Zuj": 6341,
      "Zov": 6342,
      "ĠRaku": 6343,
      "ĠReqe": 6344,
      "ĠSuxa": 6345,
      "ĠSapa": 6346,
      "ĠSeje": 6347,
      "ĠZapu": 6348,
      "ĠZogu": 6349,
      "ĠQusi": 6350,
      "ĠQufo": 6351,
      "ĠXuzo": 6352,
      "ĠXoso": 6353,
      "ĠLuzi": 6354,
      "ĠLazi": 6355,
      "ĠLezu": 6356,
      "ĠCuce": 6357,
      "ĠCuke": 6358,
      "ĠCaza": 6359,
      "ĠCiye": 6360,
      "ĠCova": 6361,
      "ĠKuzo": 6362,
      "ĠKiyo": 6363,
      "ĠMafu": 6364,
      "ĠMexi": 6365,
      "ĠJosu": 6366,
      "ĠJiju": 6367,
      "ĠJasi": 6368,
      "ĠJeca": 6369,
      "ĠFozo": 6370,
      "ĠFifo": 6371,
      "ĠToje": 6372,
      "ĠDose": 6373,
      "ĠNiru": 6374,
      "ĠYacu": 6375,
      "ĠWumo": 6376,
      "ĠVohi": 6377,
      "ĠVewu": 6378,
      "8553": 6379,
      "9916": 6380,
      "7023": 6381,
      "7012": 6382,
      "2595": 6383,
      "2515": 6384,
      "2538": 6385,
      "2507": 6386,
      "2185": 6387,
      "2138": 6388,
      "6070": 6389,
      "4185": 6390,
      "4146": 6391,
      "4133": 6392,
      "4098": 6393,
      "6360": 6394,
      "6391": 6395,
      "6372": 6396,
      "6302": 6397,
      "2053": 6398,
      "2015": 6399,
      "8171": 6400,
      "8147": 6401,
      "8314": 6402,
      "4395": 6403,
      "4393": 6404,
      "4353": 6405,
      "2320": 6406,
      "6540": 6407,
      "4581": 6408,
      "9085": 6409,
      "9580": 6410,
      "9583": 6411,
      "9544": 6412,
      "7868": 6413,
      "2826": 6414,
      "4440": 6415,
      "2679": 6416,
      "4685": 6417,
      "4690": 6418,
      "4686": 6419,
      "9825": 6420,
      "1350": 6421,
      "5061": 6422,
      "5010": 6423,
      "5033": 6424,
      "9291": 6425,
      "9228": 6426,
      "4244": 6427,
      "4770": 6428,
      "9778": 6429,
      "8871": 6430,
      "5560": 6431,
      "5510": 6432,
      "3315": 6433,
      "3073": 6434,
      "2728": 6435,
      "2744": 6436,
      "8648": 6437,
      "4942": 6438,
      "3550": 6439,
      "6722": 6440,
      "2465": 6441,
      "2495": 6442,
      "8773": 6443,
      "8763": 6444,
      "8793": 6445,
      "7480": 6446,
      "6473": 6447,
      "6475": 6448,
      "7975": 6449,
      "8499": 6450,
      "6973": 6451,
      "6921": 6452,
      "8978": 6453,
      "5845": 6454,
      "5681": 6455,
      "1771": 6456,
      "1261": 6457,
      "5281": 6458,
      "3793": 6459,
      "1480": 6460,
      "1423": 6461,
      "1493": 6462,
      "5471": 6463,
      "3473": 6464,
      "1965": 6465,
      "7990": 6466,
      "3850": 6467,
      "Bin": 6468,
      "Baq": 6469,
      "Bap": 6470,
      "Des": 6471,
      "Fob": 6472,
      "Fol": 6473,
      "Fop": 6474,
      "Fom": 6475,
      "Foq": 6476,
      "Fez": 6477,
      "Haq": 6478,
      "Jiw": 6479,
      "Kes": 6480,
      "Kaw": 6481,
      "Kij": 6482,
      "Kew": 6483,
      "Lal": 6484,
      "Loy": 6485,
      "Muq": 6486,
      "Neg": 6487,
      "Pav": 6488,
      "Pix": 6489,
      "Pip": 6490,
      "Qub": 6491,
      "Qop": 6492,
      "Qof": 6493,
      "Son": 6494,
      "Soy": 6495,
      "Sox": 6496,
      "Vas": 6497,
      "Vut": 6498,
      "Vez": 6499,
      "Wux": 6500,
      "Wik": 6501,
      "Xoq": 6502,
      "Yay": 6503,
      "ĠRice": 6504,
      "ĠRewa": 6505,
      "ĠSozi": 6506,
      "ĠSuqu": 6507,
      "ĠSena": 6508,
      "ĠZopi": 6509,
      "ĠQuci": 6510,
      "ĠXuce": 6511,
      "ĠXoyu": 6512,
      "ĠLizi": 6513,
      "ĠKewi": 6514,
      "ĠMayi": 6515,
      "ĠJutu": 6516,
      "ĠJaza": 6517,
      "ĠFimi": 6518,
      "ĠFawo": 6519,
      "ĠFiwe": 6520,
      "ĠBobe": 6521,
      "ĠTane": 6522,
      "ĠTise": 6523,
      "ĠTuku": 6524,
      "ĠDepa": 6525,
      "ĠDewe": 6526,
      "ĠNivu": 6527,
      "ĠPaji": 6528,
      "ĠPado": 6529,
      "ĠYazo": 6530,
      "ĠYiye": 6531,
      "ĠWusu": 6532,
      "ĠWewi": 6533,
      "ĠWedi": 6534,
      "8561": 6535,
      "8510": 6536,
      "9999": 6537,
      "7071": 6538,
      "7045": 6539,
      "7044": 6540,
      "7033": 6541,
      "7059": 6542,
      "7005": 6543,
      "7008": 6544,
      "2566": 6545,
      "7330": 6546,
      "6040": 6547,
      "4160": 6548,
      "4175": 6549,
      "4113": 6550,
      "4153": 6551,
      "4149": 6552,
      "4135": 6553,
      "4106": 6554,
      "6373": 6555,
      "6321": 6556,
      "6340": 6557,
      "6322": 6558,
      "6388": 6559,
      "8143": 6560,
      "8343": 6561,
      "8357": 6562,
      "8308": 6563,
      "6188": 6564,
      "4385": 6565,
      "4377": 6566,
      "4309": 6567,
      "2323": 6568,
      "2305": 6569,
      "6541": 6570,
      "6555": 6571,
      "6500": 6572,
      "9015": 6573,
      "7871": 6574,
      "7884": 6575,
      "2644": 6576,
      "7683": 6577,
      "7697": 6578,
      "9623": 6579,
      "4676": 6580,
      "4875": 6581,
      "4846": 6582,
      "4866": 6583,
      "9899": 6584,
      "9865": 6585,
      "9876": 6586,
      "2226": 6587,
      "7745": 6588,
      "7793": 6589,
      "1320": 6590,
      "1361": 6591,
      "4299": 6592,
      "4271": 6593,
      "4296": 6594,
      "4761": 6595,
      "8891": 6596,
      "6691": 6597,
      "1175": 6598,
      "1190": 6599,
      "9493": 6600,
      "9477": 6601,
      "8680": 6602,
      "8690": 6603,
      "4920": 6604,
      "4928": 6605,
      "5190": 6606,
      "3599": 6607,
      "3521": 6608,
      "6741": 6609,
      "2478": 6610,
      "2961": 6611,
      "2945": 6612,
      "7420": 6613,
      "7471": 6614,
      "6471": 6615,
      "8440": 6616,
      "8493": 6617,
      "6971": 6618,
      "6983": 6619,
      "1643": 6620,
      "5871": 6621,
      "5645": 6622,
      "3890": 6623,
      "1741": 6624,
      "1796": 6625,
      "1293": 6626,
      "1483": 6627,
      "3220": 6628,
      "3291": 6629,
      "1983": 6630,
      "5985": 6631,
      "5975": 6632,
      "4200": 6633,
      "8650": 6634,
      "Bax": 6635,
      "Bay": 6636,
      "Cij": 6637,
      "Cof": 6638,
      "Cox": 6639,
      "Cef": 6640,
      "Dub": 6641,
      "Dox": 6642,
      "Fil": 6643,
      "Gak": 6644,
      "Guv": 6645,
      "Gav": 6646,
      "Gos": 6647,
      "Hus": 6648,
      "Jib": 6649,
      "Jar": 6650,
      "Kos": 6651,
      "Mow": 6652,
      "Num": 6653,
      "Nus": 6654,
      "Nem": 6655,
      "Qiz": 6656,
      "Qow": 6657,
      "Rij": 6658,
      "Suz": 6659,
      "Siy": 6660,
      "Sex": 6661,
      "Tax": 6662,
      "Tug": 6663,
      "Vaq": 6664,
      "Voj": 6665,
      "Weg": 6666,
      "Web": 6667,
      "Xut": 6668,
      "Xug": 6669,
      "Xub": 6670,
      "Xeq": 6671,
      "Xih": 6672,
      "Yif": 6673,
      "Yip": 6674,
      "Zuf": 6675,
      "Zuy": 6676,
      "Zos": 6677,
      "ehat": 6678,
      "ehic": 6679,
      "odev": 6680,
      "uber": 6681,
      "ĠRawa": 6682,
      "ĠRuri": 6683,
      "ĠReka": 6684,
      "ĠSiza": 6685,
      "ĠSuba": 6686,
      "ĠSeve": 6687,
      "ĠZoke": 6688,
      "ĠZuti": 6689,
      "ĠZavo": 6690,
      "ĠZeci": 6691,
      "ĠZolo": 6692,
      "ĠZexo": 6693,
      "ĠZesa": 6694,
      "ĠQagu": 6695,
      "ĠQoka": 6696,
      "ĠQixe": 6697,
      "ĠXujo": 6698,
      "ĠXuma": 6699,
      "ĠXije": 6700,
      "ĠXone": 6701,
      "ĠXepi": 6702,
      "ĠLaga": 6703,
      "ĠLiti": 6704,
      "ĠLesa": 6705,
      "ĠCaga": 6706,
      "ĠCipe": 6707,
      "ĠKaku": 6708,
      "ĠKovu": 6709,
      "ĠKena": 6710,
      "ĠMaha": 6711,
      "ĠMima": 6712,
      "ĠJoxu": 6713,
      "ĠBivi": 6714,
      "ĠBuqe": 6715,
      "ĠBuki": 6716,
      "ĠBeho": 6717,
      "ĠTage": 6718,
      "ĠTuqu": 6719,
      "ĠHoki": 6720,
      "ĠHulu": 6721,
      "ĠHipo": 6722,
      "ĠHeja": 6723,
      "ĠDega": 6724,
      "ĠDefu": 6725,
      "ĠNaxo": 6726,
      "ĠNalo": 6727,
      "ĠNaxu": 6728,
      "ĠPoba": 6729,
      "ĠPiwu": 6730,
      "ĠPedu": 6731,
      "ĠPixe": 6732,
      "ĠPefe": 6733,
      "ĠGime": 6734,
      "ĠGeya": 6735,
      "ĠWoze": 6736,
      "ĠWija": 6737,
      "ĠVega": 6738,
      "ĠVequ": 6739,
      "9923": 6740,
      "9918": 6741,
      "7070": 6742,
      "7030": 6743,
      "2576": 6744,
      "2553": 6745,
      "2588": 6746,
      "2516": 6747,
      "6044": 6748,
      "4188": 6749,
      "4108": 6750,
      "4099": 6751,
      "4051": 6752,
      "6346": 6753,
      "6356": 6754,
      "8003": 6755,
      "2044": 6756,
      "8193": 6757,
      "6146": 6758,
      "6113": 6759,
      "4345": 6760,
      "4315": 6761,
      "4367": 6762,
      "4521": 6763,
      "4527": 6764,
      "4568": 6765,
      "9088": 6766,
      "9507": 6767,
      "9133": 6768,
      "9105": 6769,
      "7828": 6770,
      "7844": 6771,
      "2820": 6772,
      "2891": 6773,
      "2866": 6774,
      "4473": 6775,
      "2621": 6776,
      "7626": 6777,
      "4892": 6778,
      "9896": 6779,
      "7748": 6780,
      "1313": 6781,
      "5323": 6782,
      "1030": 6783,
      "1031": 6784,
      "5073": 6785,
      "9290": 6786,
      "4291": 6787,
      "4246": 6788,
      "9765": 6789,
      "9744": 6790,
      "8893": 6791,
      "8878": 6792,
      "3330": 6793,
      "3025": 6794,
      "2721": 6795,
      "6885": 6796,
      "6881": 6797,
      "6845": 6798,
      "6895": 6799,
      "7220": 6800,
      "7293": 6801,
      "8681": 6802,
      "8693": 6803,
      "4978": 6804,
      "3195": 6805,
      "6783": 6806,
      "6776": 6807,
      "2496": 6808,
      "2497": 6809,
      "2973": 6810,
      "2948": 6811,
      "7481": 6812,
      "6220": 6813,
      "6295": 6814,
      "8221": 6815,
      "8240": 6816,
      "7940": 6817,
      "7976": 6818,
      "8970": 6819,
      "1621": 6820,
      "1671": 6821,
      "1821": 6822,
      "5865": 6823,
      "3823": 6824,
      "1743": 6825,
      "3721": 6826,
      "3795": 6827,
      "3280": 6828,
      "3271": 6829,
      "5920": 6830,
      "5944": 6831,
      "3923": 6832,
      "7950": 6833,
      "7910": 6834,
      "2910": 6835,
      "2750": 6836,
      "7850": 6837,
      "Bim": 6838,
      "Bos": 6839,
      "Bom": 6840,
      "Bet": 6841,
      "Ceq": 6842,
      "Dig": 6843,
      "Daq": 6844,
      "Dab": 6845,
      "Fuv": 6846,
      "His": 6847,
      "Hef": 6848,
      "Jit": 6849,
      "Jal": 6850,
      "Kab": 6851,
      "Koy": 6852,
      "Kez": 6853,
      "Kem": 6854,
      "Lin": 6855,
      "Luw": 6856,
      "Mes": 6857,
      "Mam": 6858,
      "Mug": 6859,
      "Mix": 6860,
      "Miy": 6861,
      "Nit": 6862,
      "Nap": 6863,
      "Nix": 6864,
      "Nov": 6865,
      "Nop": 6866,
      "Nen": 6867,
      "Paj": 6868,
      "Qen": 6869,
      "Ram": 6870,
      "Suv": 6871,
      "Tiy": 6872,
      "Vus": 6873,
      "Van": 6874,
      "Vog": 6875,
      "Veb": 6876,
      "Wix": 6877,
      "Xal": 6878,
      "Xok": 6879,
      "Xog": 6880,
      "Yob": 6881,
      "Yex": 6882,
      "Yem": 6883,
      "Zok": 6884,
      "Zog": 6885,
      "Zep": 6886,
      "eber": 6887,
      "iber": 6888,
      "ĠRaki": 6889,
      "ĠRuga": 6890,
      "ĠRole": 6891,
      "ĠRepu": 6892,
      "ĠRino": 6893,
      "ĠReho": 6894,
      "ĠSuqa": 6895,
      "ĠSahu": 6896,
      "ĠSipu": 6897,
      "ĠZobe": 6898,
      "ĠZipu": 6899,
      "ĠQovi": 6900,
      "ĠXomo": 6901,
      "ĠXeze": 6902,
      "ĠXeso": 6903,
      "ĠLuyu": 6904,
      "ĠLaka": 6905,
      "ĠLani": 6906,
      "ĠLone": 6907,
      "ĠLisi": 6908,
      "ĠCapa": 6909,
      "ĠCoka": 6910,
      "ĠCuwi": 6911,
      "ĠCepa": 6912,
      "ĠCehu": 6913,
      "ĠKixu": 6914,
      "ĠKuca": 6915,
      "ĠKazu": 6916,
      "ĠKuje": 6917,
      "ĠKefa": 6918,
      "ĠMeyu": 6919,
      "ĠJomi": 6920,
      "ĠJesi": 6921,
      "ĠFuse": 6922,
      "ĠFixu": 6923,
      "ĠFiju": 6924,
      "ĠFopa": 6925,
      "ĠFope": 6926,
      "ĠBiwa": 6927,
      "ĠTuje": 6928,
      "ĠTiwu": 6929,
      "ĠTata": 6930,
      "ĠHigo": 6931,
      "ĠHoqo": 6932,
      "ĠHeno": 6933,
      "ĠDita": 6934,
      "ĠDiho": 6935,
      "ĠDuwu": 6936,
      "ĠDili": 6937,
      "ĠDeka": 6938,
      "ĠNapa": 6939,
      "ĠNahu": 6940,
      "ĠNuta": 6941,
      "ĠNabe": 6942,
      "ĠNugi": 6943,
      "ĠNiwo": 6944,
      "ĠPuyu": 6945,
      "ĠPidu": 6946,
      "ĠPixo": 6947,
      "ĠPesa": 6948,
      "ĠGace": 6949,
      "ĠGiqu": 6950,
      "ĠGebi": 6951,
      "ĠYayo": 6952,
      "ĠYumi": 6953,
      "ĠYuno": 6954,
      "ĠYona": 6955,
      "ĠWuse": 6956,
      "ĠWupo": 6957,
      "ĠWege": 6958,
      "ĠVape": 6959,
      "ĠVagi": 6960,
      "ĠVito": 6961,
      "ĠVefe": 6962,
      "ĠFori": 6963,
      "8522": 6964,
      "7066": 6965,
      "7027": 6966,
      "2593": 6967,
      "6081": 6968,
      "6088": 6969,
      "6001": 6970,
      "6008": 6971,
      "4171": 6972,
      "4165": 6973,
      "4093": 6974,
      "2083": 6975,
      "2093": 6976,
      "8199": 6977,
      "8111": 6978,
      "7155": 6979,
      "6190": 6980,
      "6178": 6981,
      "6133": 6982,
      "4381": 6983,
      "4311": 6984,
      "2373": 6985,
      "7565": 6986,
      "7566": 6987,
      "7551": 6988,
      "6530": 6989,
      "6558": 6990,
      "6501": 6991,
      "4593": 6992,
      "4546": 6993,
      "9071": 6994,
      "9090": 6995,
      "9599": 6996,
      "9541": 6997,
      "9115": 6998,
      "7845": 6999,
      "7848": 7000,
      "2883": 7001,
      "2892": 7002,
      "2889": 7003,
      "4480": 7004,
      "2693": 7005,
      "2624": 7006,
      "7693": 7007,
      "4680": 7008,
      "9845": 7009,
      "9891": 7010,
      "9844": 7011,
      "2244": 7012,
      "5380": 7013,
      "1073": 7014,
      "5040": 7015,
      "4260": 7016,
      "4276": 7017,
      "4277": 7018,
      "4796": 7019,
      "4746": 7020,
      "9745": 7021,
      "9793": 7022,
      "9728": 7023,
      "8895": 7024,
      "6699": 7025,
      "5521": 7026,
      "5523": 7027,
      "2761": 7028,
      "9485": 7029,
      "9463": 7030,
      "6865": 7031,
      "8685": 7032,
      "4947": 7033,
      "3199": 7034,
      "6765": 7035,
      "2463": 7036,
      "2420": 7037,
      "2483": 7038,
      "2445": 7039,
      "2428": 7040,
      "2977": 7041,
      "7470": 7042,
      "7428": 7043,
      "8971": 7044,
      "1820": 7045,
      "1883": 7046,
      "3870": 7047,
      "1785": 7048,
      "1223": 7049,
      "5245": 7050,
      "1420": 7051,
      "1491": 7052,
      "3281": 7053,
      "3293": 7054,
      "5495": 7055,
      "1981": 7056,
      "4950": 7057,
      "2250": 7058,
      "2631": 7059,
      "3610": 7060,
      "7401": 7061,
      "8403": 7062,
      "Bey": 7063,
      "Bix": 7064,
      "Bov": 7065,
      "Cup": 7066,
      "Coj": 7067,
      "Dit": 7068,
      "Dis": 7069,
      "Dok": 7070,
      "Dev": 7071,
      "Fiz": 7072,
      "Feg": 7073,
      "Gor": 7074,
      "Gut": 7075,
      "Guj": 7076,
      "Guf": 7077,
      "Guy": 7078,
      "Giw": 7079,
      "Hag": 7080,
      "Hop": 7081,
      "Hoq": 7082,
      "Jol": 7083,
      "Kel": 7084,
      "Kub": 7085,
      "Kim": 7086,
      "Lob": 7087,
      "Mup": 7088,
      "Mab": 7089,
      "Maf": 7090,
      "Moj": 7091,
      "Non": 7092,
      "Noz": 7093,
      "Pov": 7094,
      "Qut": 7095,
      "Qej": 7096,
      "Riw": 7097,
      "Six": 7098,
      "Suy": 7099,
      "Siq": 7100,
      "Soq": 7101,
      "Tey": 7102,
      "Tag": 7103,
      "Tuz": 7104,
      "Viz": 7105,
      "Vim": 7106,
      "Vip": 7107,
      "Vox": 7108,
      "Xey": 7109,
      "Xup": 7110,
      "Zoy": 7111,
      "Zip": 7112,
      "Zek": 7113,
      "ihic": 7114,
      "ĠRayi": 7115,
      "ĠRaxi": 7116,
      "ĠRewi": 7117,
      "ĠRepo": 7118,
      "ĠSuci": 7119,
      "ĠZalo": 7120,
      "ĠZaji": 7121,
      "ĠZufi": 7122,
      "ĠQute": 7123,
      "ĠQaga": 7124,
      "ĠQapa": 7125,
      "ĠQado": 7126,
      "ĠQuwe": 7127,
      "ĠQici": 7128,
      "ĠQeve": 7129,
      "ĠXoke": 7130,
      "ĠXiva": 7131,
      "ĠXavu": 7132,
      "ĠXara": 7133,
      "ĠXesa": 7134,
      "ĠLuxa": 7135,
      "ĠLebe": 7136,
      "ĠLeka": 7137,
      "ĠCupe": 7138,
      "ĠCadu": 7139,
      "ĠCutu": 7140,
      "ĠCini": 7141,
      "ĠCija": 7142,
      "ĠKaxo": 7143,
      "ĠKivi": 7144,
      "ĠKuga": 7145,
      "ĠKoxi": 7146,
      "ĠKefi": 7147,
      "ĠKeye": 7148,
      "ĠMuma": 7149,
      "ĠMaqi": 7150,
      "ĠMeze": 7151,
      "ĠJagu": 7152,
      "ĠJibu": 7153,
      "ĠJeci": 7154,
      "ĠFoqu": 7155,
      "ĠBoki": 7156,
      "ĠBoja": 7157,
      "ĠBije": 7158,
      "ĠBipi": 7159,
      "ĠTuzu": 7160,
      "ĠTimi": 7161,
      "ĠHiva": 7162,
      "ĠHega": 7163,
      "ĠDuji": 7164,
      "ĠDigu": 7165,
      "ĠDuve": 7166,
      "ĠDuro": 7167,
      "ĠNari": 7168,
      "ĠNeqe": 7169,
      "ĠPelu": 7170,
      "ĠGefi": 7171,
      "ĠGeki": 7172,
      "ĠYofe": 7173,
      "ĠYipe": 7174,
      "ĠYawo": 7175,
      "ĠYepo": 7176,
      "ĠYepe": 7177,
      "ĠYeda": 7178,
      "ĠWaqu": 7179,
      "ĠWavo": 7180,
      "ĠWiqe": 7181,
      "ĠVuxo": 7182,
      "ĠVibo": 7183,
      "ĠVuye": 7184,
      "ĠVela": 7185,
      "9985": 7186,
      "9986": 7187,
      "6075": 7188,
      "6027": 7189,
      "4192": 7190,
      "4151": 7191,
      "4116": 7192,
      "4114": 7193,
      "4139": 7194,
      "4107": 7195,
      "4023": 7196,
      "4048": 7197,
      "4052": 7198,
      "4001": 7199,
      "6380": 7200,
      "2041": 7201,
      "2090": 7202,
      "2047": 7203,
      "8153": 7204,
      "8192": 7205,
      "7133": 7206,
      "7136": 7207,
      "8361": 7208,
      "8350": 7209,
      "8336": 7210,
      "4321": 7211,
      "4383": 7212,
      "4301": 7213,
      "4302": 7214,
      "2355": 7215,
      "2303": 7216,
      "7571": 7217,
      "7545": 7218,
      "7591": 7219,
      "7531": 7220,
      "6563": 7221,
      "6566": 7222,
      "9066": 7223,
      "9540": 7224,
      "9565": 7225,
      "9593": 7226,
      "4471": 7227,
      "2685": 7228,
      "2627": 7229,
      "7666": 7230,
      "9698": 7231,
      "4825": 7232,
      "9861": 7233,
      "2265": 7234,
      "2297": 7235,
      "7770": 7236,
      "7791": 7237,
      "1365": 7238,
      "1345": 7239,
      "1390": 7240,
      "1025": 7241,
      "1061": 7242,
      "5053": 7243,
      "9285": 7244,
      "9248": 7245,
      "9740": 7246,
      "9720": 7247,
      "9747": 7248,
      "9794": 7249,
      "8868": 7250,
      "6695": 7251,
      "6666": 7252,
      "1121": 7253,
      "1140": 7254,
      "5555": 7255,
      "3030": 7256,
      "2770": 7257,
      "2765": 7258,
      "9471": 7259,
      "9483": 7260,
      "6880": 7261,
      "6883": 7262,
      "1573": 7263,
      "7271": 7264,
      "7228": 7265,
      "4971": 7266,
      "4946": 7267,
      "2475": 7268,
      "8746": 7269,
      "6290": 7270,
      "6485": 7271,
      "6470": 7272,
      "6963": 7273,
      "8961": 7274,
      "1685": 7275,
      "1880": 7276,
      "5691": 7277,
      "3860": 7278,
      "5781": 7279,
      "1245": 7280,
      "5460": 7281,
      "3425": 7282,
      "3423": 7283,
      "5925": 7284,
      "5963": 7285,
      "5961": 7286,
      "3981": 7287,
      "4990": 7288,
      "2650": 7289,
      "2605": 7290,
      "4810": 7291,
      "4403": 7292,
      "8600": 7293,
      "9600": 7294,
      "9611": 7295,
      "Cav": 7296,
      "Ciw": 7297,
      "Cen": 7298,
      "Cez": 7299,
      "Dav": 7300,
      "Doj": 7301,
      "Doq": 7302,
      "Dej": 7303,
      "Dir": 7304,
      "Fon": 7305,
      "Fap": 7306,
      "Fuw": 7307,
      "Fow": 7308,
      "Feq": 7309,
      "Gug": 7310,
      "Huw": 7311,
      "Hoy": 7312,
      "Heq": 7313,
      "Jaj": 7314,
      "Juq": 7315,
      "Joz": 7316,
      "Jix": 7317,
      "Jeq": 7318,
      "Kiw": 7319,
      "Kof": 7320,
      "Loj": 7321,
      "Liq": 7322,
      "Lej": 7323,
      "Mos": 7324,
      "Mep": 7325,
      "Nev": 7326,
      "Pib": 7327,
      "Pik": 7328,
      "Pom": 7329,
      "Poq": 7330,
      "Pex": 7331,
      "Qak": 7332,
      "Qeg": 7333,
      "Riy": 7334,
      "Saf": 7335,
      "Sik": 7336,
      "Seb": 7337,
      "Tiv": 7338,
      "Taz": 7339,
      "Vay": 7340,
      "Wef": 7341,
      "Xot": 7342,
      "Xoz": 7343,
      "Xuk": 7344,
      "Yak": 7345,
      "Zit": 7346,
      "Ziv": 7347,
      "Zin": 7348,
      "Ziw": 7349,
      "oces": 7350,
      "ĠRozo": 7351,
      "ĠRuna": 7352,
      "ĠRiqe": 7353,
      "ĠResi": 7354,
      "ĠSaqe": 7355,
      "ĠSake": 7356,
      "ĠSimu": 7357,
      "ĠZodu": 7358,
      "ĠZexu": 7359,
      "ĠQago": 7360,
      "ĠQava": 7361,
      "ĠQowo": 7362,
      "ĠQepi": 7363,
      "ĠXofe": 7364,
      "ĠXagi": 7365,
      "ĠXuva": 7366,
      "ĠXipa": 7367,
      "ĠXuho": 7368,
      "ĠXuha": 7369,
      "ĠXoca": 7370,
      "ĠXatu": 7371,
      "ĠLayu": 7372,
      "ĠLina": 7373,
      "ĠLado": 7374,
      "ĠLamo": 7375,
      "ĠLuqo": 7376,
      "ĠLogu": 7377,
      "ĠLese": 7378,
      "ĠCidi": 7379,
      "ĠCawe": 7380,
      "ĠColi": 7381,
      "ĠKula": 7382,
      "ĠKome": 7383,
      "ĠKive": 7384,
      "ĠKevu": 7385,
      "ĠMabu": 7386,
      "ĠMuxe": 7387,
      "ĠMawi": 7388,
      "ĠMipa": 7389,
      "ĠMovu": 7390,
      "ĠMevi": 7391,
      "ĠJudu": 7392,
      "ĠJeje": 7393,
      "ĠJeto": 7394,
      "ĠJeso": 7395,
      "ĠFalo": 7396,
      "ĠFaxu": 7397,
      "ĠFiho": 7398,
      "ĠFusa": 7399,
      "ĠFawe": 7400,
      "ĠFuha": 7401,
      "ĠFowi": 7402,
      "ĠBama": 7403,
      "ĠBuvu": 7404,
      "ĠBofi": 7405,
      "ĠBepi": 7406,
      "ĠBeja": 7407,
      "ĠTaya": 7408,
      "ĠTuba": 7409,
      "ĠTafo": 7410,
      "ĠTesi": 7411,
      "ĠTevu": 7412,
      "ĠHiha": 7413,
      "ĠHamu": 7414,
      "ĠHoge": 7415,
      "ĠHiqe": 7416,
      "ĠHeqa": 7417,
      "ĠDuqi": 7418,
      "ĠDali": 7419,
      "ĠDapo": 7420,
      "ĠDimo": 7421,
      "ĠDuvi": 7422,
      "ĠNajo": 7423,
      "ĠNuro": 7424,
      "ĠNoso": 7425,
      "ĠNege": 7426,
      "ĠNeku": 7427,
      "ĠPura": 7428,
      "ĠParu": 7429,
      "ĠPani": 7430,
      "ĠPige": 7431,
      "ĠPejo": 7432,
      "ĠPepe": 7433,
      "ĠGape": 7434,
      "ĠGaqe": 7435,
      "ĠGuqe": 7436,
      "ĠGone": 7437,
      "ĠYuwi": 7438,
      "ĠYaru": 7439,
      "ĠYuwu": 7440,
      "ĠYefa": 7441,
      "ĠWilo": 7442,
      "ĠWofe": 7443,
      "ĠWisa": 7444,
      "ĠWulu": 7445,
      "ĠWufe": 7446,
      "ĠWosi": 7447,
      "ĠViha": 7448,
      "ĠVadi": 7449,
      "ĠVeto": 7450,
      "ĠVepo": 7451,
      "8520": 7452,
      "8551": 7453,
      "9963": 7454,
      "2570": 7455,
      "7398": 7456,
      "2161": 7457,
      "2143": 7458,
      "4128": 7459,
      "4144": 7460,
      "4071": 7461,
      "4008": 7462,
      "6348": 7463,
      "6386": 7464,
      "6331": 7465,
      "8050": 7466,
      "8029": 7467,
      "8005": 7468,
      "2068": 7469,
      "2052": 7470,
      "8140": 7471,
      "8375": 7472,
      "8390": 7473,
      "8353": 7474,
      "4370": 7475,
      "4376": 7476,
      "2371": 7477,
      "2361": 7478,
      "7541": 7479,
      "7500": 7480,
      "4501": 7481,
      "4508": 7482,
      "9032": 7483,
      "9585": 7484,
      "9560": 7485,
      "9311": 7486,
      "7893": 7487,
      "7897": 7488,
      "7827": 7489,
      "2864": 7490,
      "4420": 7491,
      "2645": 7492,
      "7698": 7493,
      "9645": 7494,
      "9648": 7495,
      "4693": 7496,
      "4666": 7497,
      "4845": 7498,
      "4847": 7499,
      "9867": 7500,
      "2276": 7501,
      "7780": 7502,
      "7722": 7503,
      "1399": 7504,
      "1325": 7505,
      "5383": 7506,
      "1010": 7507,
      "5030": 7508,
      "9773": 7509,
      "1173": 7510,
      "5571": 7511,
      "5543": 7512,
      "5596": 7513,
      "9423": 7514,
      "6893": 7515,
      "6846": 7516,
      "7240": 7517,
      "7290": 7518,
      "8673": 7519,
      "5185": 7520,
      "5193": 7521,
      "3125": 7522,
      "3191": 7523,
      "2423": 7524,
      "2941": 7525,
      "7485": 7526,
      "8260": 7527,
      "8291": 7528,
      "6493": 7529,
      "6492": 7530,
      "7925": 7531,
      "7981": 7532,
      "7965": 7533,
      "8470": 7534,
      "1870": 7535,
      "1875": 7536,
      "5820": 7537,
      "5891": 7538,
      "5643": 7539,
      "3699": 7540,
      "1725": 7541,
      "1790": 7542,
      "5791": 7543,
      "1244": 7544,
      "1298": 7545,
      "5273": 7546,
      "3225": 7547,
      "3493": 7548,
      "3971": 7549,
      "7930": 7550,
      "5900": 7551,
      "6813": 7552,
      "8810": 7553,
      "8410": 7554,
      "8413": 7555,
      "Boj": 7556,
      "Cut": 7557,
      "Coz": 7558,
      "Com": 7559,
      "Ceg": 7560,
      "Dan": 7561,
      "Fig": 7562,
      "Fut": 7563,
      "Fuj": 7564,
      "Fox": 7565,
      "Gey": 7566,
      "Gul": 7567,
      "Gan": 7568,
      "Giz": 7569,
      "Gow": 7570,
      "Gew": 7571,
      "Hak": 7572,
      "Huv": 7573,
      "Hol": 7574,
      "Hof": 7575,
      "How": 7576,
      "Jus": 7577,
      "Jug": 7578,
      "Jub": 7579,
      "Jep": 7580,
      "Kit": 7581,
      "Kal": 7582,
      "Kon": 7583,
      "Kuv": 7584,
      "Kuy": 7585,
      "Koj": 7586,
      "Kep": 7587,
      "Ket": 7588,
      "Ley": 7589,
      "Lus": 7590,
      "Lul": 7591,
      "Luy": 7592,
      "Los": 7593,
      "Mek": 7594,
      "Mej": 7595,
      "Nuq": 7596,
      "Niz": 7597,
      "Nob": 7598,
      "New": 7599,
      "Neh": 7600,
      "Pel": 7601,
      "Pim": 7602,
      "Quq": 7603,
      "Quy": 7604,
      "Qoj": 7605,
      "Qep": 7606,
      "Qef": 7607,
      "Qek": 7608,
      "Ris": 7609,
      "Ron": 7610,
      "Riv": 7611,
      "Riz": 7612,
      "Rop": 7613,
      "Rip": 7614,
      "Rom": 7615,
      "Suq": 7616,
      "Soz": 7617,
      "Sob": 7618,
      "Sew": 7619,
      "Til": 7620,
      "Tap": 7621,
      "Tix": 7622,
      "Tuk": 7623,
      "Vaf": 7624,
      "Vul": 7625,
      "Vuj": 7626,
      "Vuq": 7627,
      "Vik": 7628,
      "Wis": 7629,
      "Wed": 7630,
      "Wif": 7631,
      "Win": 7632,
      "Wuz": 7633,
      "Wuj": 7634,
      "Wop": 7635,
      "Xig": 7636,
      "Xiq": 7637,
      "Xom": 7638,
      "Xet": 7639,
      "Yaj": 7640,
      "Yab": 7641,
      "Yub": 7642,
      "Yoy": 7643,
      "Yep": 7644,
      "Zon": 7645,
      "Zom": 7646,
      "Zef": 7647,
      "Zeg": 7648,
      "Zen": 7649,
      "ĠRusi": 7650,
      "ĠRoji": 7651,
      "ĠRomi": 7652,
      "ĠRuvi": 7653,
      "ĠRefu": 7654,
      "ĠRexo": 7655,
      "ĠSutu": 7656,
      "ĠSale": 7657,
      "ĠSizi": 7658,
      "ĠSozu": 7659,
      "ĠSubo": 7660,
      "ĠSona": 7661,
      "ĠSuxi": 7662,
      "ĠZape": 7663,
      "ĠZabo": 7664,
      "ĠZacu": 7665,
      "ĠZiba": 7666,
      "ĠZasu": 7667,
      "ĠZino": 7668,
      "ĠZevi": 7669,
      "ĠZeve": 7670,
      "ĠZexa": 7671,
      "ĠQahu": 7672,
      "ĠQiva": 7673,
      "ĠQisi": 7674,
      "ĠQoda": 7675,
      "ĠQezi": 7676,
      "ĠQeza": 7677,
      "ĠXebe": 7678,
      "ĠXobi": 7679,
      "ĠXuju": 7680,
      "ĠXipi": 7681,
      "ĠXevo": 7682,
      "ĠXeme": 7683,
      "ĠLuge": 7684,
      "ĠLago": 7685,
      "ĠLida": 7686,
      "ĠLupi": 7687,
      "ĠLega": 7688,
      "ĠLifu": 7689,
      "ĠLova": 7690,
      "ĠLesu": 7691,
      "ĠCizo": 7692,
      "ĠCaji": 7693,
      "ĠCuka": 7694,
      "ĠCowe": 7695,
      "ĠCeme": 7696,
      "ĠKuxo": 7697,
      "ĠKozu": 7698,
      "ĠKoxa": 7699,
      "ĠKoru": 7700,
      "ĠKezu": 7701,
      "ĠMute": 7702,
      "ĠMiva": 7703,
      "ĠMiwo": 7704,
      "ĠMeho": 7705,
      "ĠJama": 7706,
      "ĠJoya": 7707,
      "ĠJupi": 7708,
      "ĠJosa": 7709,
      "ĠJece": 7710,
      "ĠFuzi": 7711,
      "ĠFela": 7712,
      "ĠBuma": 7713,
      "ĠBaya": 7714,
      "ĠBibu": 7715,
      "ĠBize": 7716,
      "ĠBoda": 7717,
      "ĠBepu": 7718,
      "ĠBeme": 7719,
      "ĠTunu": 7720,
      "ĠTujo": 7721,
      "ĠTake": 7722,
      "ĠTuvo": 7723,
      "ĠTobo": 7724,
      "ĠTixe": 7725,
      "ĠHajo": 7726,
      "ĠHicu": 7727,
      "ĠHano": 7728,
      "ĠHepe": 7729,
      "ĠHeju": 7730,
      "ĠDujo": 7731,
      "ĠDitu": 7732,
      "ĠDabi": 7733,
      "ĠDaso": 7734,
      "ĠDevo": 7735,
      "ĠNaha": 7736,
      "ĠNuva": 7737,
      "ĠNibe": 7738,
      "ĠNora": 7739,
      "ĠNive": 7740,
      "ĠNeca": 7741,
      "ĠNero": 7742,
      "ĠNeqa": 7743,
      "ĠNezo": 7744,
      "ĠPagi": 7745,
      "ĠPibe": 7746,
      "ĠGoxe": 7747,
      "ĠGeta": 7748,
      "ĠGeja": 7749,
      "ĠGeye": 7750,
      "ĠYaji": 7751,
      "ĠYabi": 7752,
      "ĠYeca": 7753,
      "ĠYetu": 7754,
      "ĠWuru": 7755,
      "ĠWuso": 7756,
      "ĠWapa": 7757,
      "ĠWoxo": 7758,
      "ĠWubu": 7759,
      "ĠWaze": 7760,
      "ĠWoha": 7761,
      "ĠWimo": 7762,
      "ĠWoti": 7763,
      "ĠWoro": 7764,
      "ĠWiwo": 7765,
      "ĠWoca": 7766,
      "ĠVuti": 7767,
      "ĠVuqa": 7768,
      "ĠVoho": 7769,
      "8583": 7770,
      "8543": 7771,
      "8523": 7772,
      "8565": 7773,
      "8582": 7774,
      "9941": 7775,
      "9910": 7776,
      "9966": 7777,
      "9911": 7778,
      "9900": 7779,
      "7051": 7780,
      "7001": 7781,
      "2540": 7782,
      "2561": 7783,
      "2175": 7784,
      "4123": 7785,
      "4096": 7786,
      "2098": 7787,
      "2000": 7788,
      "8185": 7789,
      "8160": 7790,
      "8144": 7791,
      "7152": 7792,
      "8335": 7793,
      "8367": 7794,
      "6102": 7795,
      "4388": 7796,
      "4304": 7797,
      "2376": 7798,
      "6599": 7799,
      "4528": 7800,
      "9003": 7801,
      "9511": 7802,
      "9555": 7803,
      "9135": 7804,
      "9323": 7805,
      "9305": 7806,
      "2863": 7807,
      "2896": 7808,
      "4465": 7809,
      "2642": 7810,
      "2686": 7811,
      "2682": 7812,
      "7685": 7813,
      "7673": 7814,
      "7672": 7815,
      "4871": 7816,
      "4883": 7817,
      "4896": 7818,
      "4898": 7819,
      "9862": 7820,
      "2278": 7821,
      "7725": 7822,
      "7726": 7823,
      "7747": 7824,
      "1371": 7825,
      "1099": 7826,
      "5078": 7827,
      "5008": 7828,
      "9225": 7829,
      "4295": 7830,
      "4247": 7831,
      "9783": 7832,
      "8825": 7833,
      "8844": 7834,
      "1163": 7835,
      "5561": 7836,
      "3090": 7837,
      "3095": 7838,
      "2760": 7839,
      "9498": 7840,
      "6861": 7841,
      "6890": 7842,
      "7261": 7843,
      "4970": 7844,
      "4963": 7845,
      "5150": 7846,
      "3571": 7847,
      "3545": 7848,
      "2499": 7849,
      "8721": 7850,
      "8760": 7851,
      "8780": 7852,
      "6276": 7853,
      "6425": 7854,
      "7920": 7855,
      "7922": 7856,
      "8425": 7857,
      "8490": 7858,
      "8925": 7859,
      "1680": 7860,
      "1644": 7861,
      "1893": 7862,
      "5861": 7863,
      "3880": 7864,
      "3891": 7865,
      "1775": 7866,
      "1746": 7867,
      "5765": 7868,
      "1221": 7869,
      "3785": 7870,
      "3261": 7871,
      "5423": 7872,
      "1985": 7873,
      "5923": 7874,
      "3983": 7875,
      "2990": 7876,
      "2930": 7877,
      "5950": 7878,
      "9287": 7879,
      "2400": 7880,
      "3650": 7881,
      "4730": 7882,
      "4250": 7883,
      "4855": 7884,
      "6900": 7885,
      "7800": 7886,
      "8633": 7887,
      "Biv": 7888,
      "Bag": 7889,
      "Baj": 7890,
      "But": 7891,
      "Bem": 7892,
      "Cam": 7893,
      "Cuk": 7894,
      "Cuy": 7895,
      "Cos": 7896,
      "Ceb": 7897,
      "Cev": 7898,
      "Daz": 7899,
      "Diw": 7900,
      "Den": 7901,
      "Dem": 7902,
      "Fit": 7903,
      "Fup": 7904,
      "Faw": 7905,
      "Fev": 7906,
      "Git": 7907,
      "Gax": 7908,
      "Gab": 7909,
      "Gop": 7910,
      "Gij": 7911,
      "Gox": 7912,
      "Hey": 7913,
      "Hay": 7914,
      "Hiy": 7915,
      "Hij": 7916,
      "Hiq": 7917,
      "Jam": 7918,
      "Jag": 7919,
      "Jom": 7920,
      "Jeg": 7921,
      "Kan": 7922,
      "Kux": 7923,
      "Kop": 7924,
      "Kom": 7925,
      "Koq": 7926,
      "Lag": 7927,
      "Laf": 7928,
      "Lay": 7929,
      "Lap": 7930,
      "Liz": 7931,
      "Mub": 7932,
      "Mop": 7933,
      "Mof": 7934,
      "Meg": 7935,
      "Mem": 7936,
      "Nin": 7937,
      "Nuy": 7938,
      "Nip": 7939,
      "Pux": 7940,
      "Pow": 7941,
      "Pej": 7942,
      "Qey": 7943,
      "Qot": 7944,
      "Qus": 7945,
      "Qug": 7946,
      "Qim": 7947,
      "Res": 7948,
      "Ruj": 7949,
      "Rim": 7950,
      "Rej": 7951,
      "Ses": 7952,
      "Sig": 7953,
      "Sum": 7954,
      "Saj": 7955,
      "Sef": 7956,
      "Tiz": 7957,
      "Tuy": 7958,
      "Toj": 7959,
      "Tij": 7960,
      "Tip": 7961,
      "Von": 7962,
      "Vuw": 7963,
      "Vol": 7964,
      "Wuv": 7965,
      "Wiy": 7966,
      "Wof": 7967,
      "Weq": 7968,
      "Wet": 7969,
      "Wud": 7970,
      "Xit": 7971,
      "Xis": 7972,
      "Xav": 7973,
      "Yuf": 7974,
      "Yoq": 7975,
      "Yow": 7976,
      "Zil": 7977,
      "Zaw": 7978,
      "Zuv": 7979,
      "Zuw": 7980,
      "Zim": 7981,
      "Ziy": 7982,
      "Zib": 7983,
      "Zow": 7984,
      "ĠRoso": 7985,
      "ĠRega": 7986,
      "ĠSoze": 7987,
      "ĠSaho": 7988,
      "ĠSicu": 7989,
      "ĠSixi": 7990,
      "ĠSomu": 7991,
      "ĠSulo": 7992,
      "ĠSewi": 7993,
      "ĠSebo": 7994,
      "ĠSevi": 7995,
      "ĠZoxa": 7996,
      "ĠZoli": 7997,
      "ĠQawa": 7998,
      "ĠQomo": 7999,
      "ĠQuta": 8000,
      "ĠQopa": 8001,
      "ĠQoci": 8002,
      "ĠQobo": 8003,
      "ĠQiyo": 8004,
      "ĠQoqo": 8005,
      "ĠQefo": 8006,
      "ĠXoja": 8007,
      "ĠXogi": 8008,
      "ĠXiyo": 8009,
      "ĠXaso": 8010,
      "ĠXate": 8011,
      "ĠLagu": 8012,
      "ĠLuhu": 8013,
      "ĠLilo": 8014,
      "ĠLoki": 8015,
      "ĠLiso": 8016,
      "ĠLuba": 8017,
      "ĠLole": 8018,
      "ĠLeni": 8019,
      "ĠLeku": 8020,
      "ĠCute": 8021,
      "ĠCuxo": 8022,
      "ĠCuri": 8023,
      "ĠCazo": 8024,
      "ĠCola": 8025,
      "ĠKagu": 8026,
      "ĠKiha": 8027,
      "ĠKuqa": 8028,
      "ĠKana": 8029,
      "ĠKamu": 8030,
      "ĠKiki": 8031,
      "ĠKabe": 8032,
      "ĠKufe": 8033,
      "ĠKoje": 8034,
      "ĠKava": 8035,
      "ĠKoro": 8036,
      "ĠMule": 8037,
      "ĠMudi": 8038,
      "ĠMimu": 8039,
      "ĠMaqa": 8040,
      "ĠMaso": 8041,
      "ĠMoqe": 8042,
      "ĠJafu": 8043,
      "ĠJape": 8044,
      "ĠJigo": 8045,
      "ĠJoso": 8046,
      "ĠJaxe": 8047,
      "ĠJigi": 8048,
      "ĠJuya": 8049,
      "ĠJeta": 8050,
      "ĠFape": 8051,
      "ĠFuta": 8052,
      "ĠFine": 8053,
      "ĠBuzo": 8054,
      "ĠBife": 8055,
      "ĠButa": 8056,
      "ĠBopa": 8057,
      "ĠBixa": 8058,
      "ĠBimu": 8059,
      "ĠBusa": 8060,
      "ĠBevi": 8061,
      "ĠTira": 8062,
      "ĠTege": 8063,
      "ĠHuse": 8064,
      "ĠHoze": 8065,
      "ĠHodu": 8066,
      "ĠHego": 8067,
      "ĠHewi": 8068,
      "ĠHeru": 8069,
      "ĠDoke": 8070,
      "ĠDite": 8071,
      "ĠDuja": 8072,
      "ĠDoqa": 8073,
      "ĠDinu": 8074,
      "ĠDera": 8075,
      "ĠDego": 8076,
      "ĠDeru": 8077,
      "ĠNami": 8078,
      "ĠNofe": 8079,
      "ĠNuqa": 8080,
      "ĠPiha": 8081,
      "ĠPana": 8082,
      "ĠPawo": 8083,
      "ĠPogo": 8084,
      "ĠPeyo": 8085,
      "ĠPexu": 8086,
      "ĠGudi": 8087,
      "ĠGobo": 8088,
      "ĠGubo": 8089,
      "ĠGoqo": 8090,
      "ĠYape": 8091,
      "ĠYafe": 8092,
      "ĠYufe": 8093,
      "ĠYera": 8094,
      "ĠYiwi": 8095,
      "ĠWuge": 8096,
      "ĠWiqi": 8097,
      "ĠWoya": 8098,
      "ĠWine": 8099,
      "ĠWefu": 8100,
      "ĠWeki": 8101,
      "ĠVoyu": 8102,
      "ĠVoqi": 8103,
      "ĠVupu": 8104,
      "ĠVavo": 8105,
      "ĠVura": 8106,
      "ĠVifo": 8107,
      "ĠVihi": 8108,
      "ĠVavu": 8109,
      "ĠViro": 8110,
      "ĠVema": 8111,
      "ĠVewe": 8112,
      "9922": 8113,
      "9930": 8114,
      "7093": 8115,
      "7046": 8116,
      "7015": 8117,
      "7320": 8118,
      "7361": 8119,
      "7395": 8120,
      "7351": 8121,
      "7382": 8122,
      "2115": 8123,
      "6011": 8124,
      "6068": 8125,
      "4148": 8126,
      "4083": 8127,
      "4037": 8128,
      "6328": 8129,
      "6311": 8130,
      "6336": 8131,
      "8083": 8132,
      "8053": 8133,
      "8066": 8134,
      "8055": 8135,
      "2095": 8136,
      "8105": 8137,
      "8393": 8138,
      "8337": 8139,
      "4371": 8140,
      "4344": 8141,
      "4356": 8142,
      "2375": 8143,
      "6578": 8144,
      "4531": 8145,
      "9022": 8146,
      "9592": 8147,
      "9196": 8148,
      "9156": 8149,
      "7872": 8150,
      "4423": 8151,
      "4428": 8152,
      "2622": 8153,
      "2666": 8154,
      "2667": 8155,
      "7678": 8156,
      "7644": 8157,
      "7686": 8158,
      "9668": 8159,
      "4641": 8160,
      "9827": 8161,
      "7799": 8162,
      "7742": 8163,
      "1315": 8164,
      "5371": 8165,
      "5352": 8166,
      "1043": 8167,
      "9260": 8168,
      "9272": 8169,
      "4281": 8170,
      "4293": 8171,
      "4744": 8172,
      "9729": 8173,
      "8863": 8174,
      "8888": 8175,
      "1165": 8176,
      "5573": 8177,
      "3393": 8178,
      "3053": 8179,
      "9445": 8180,
      "7281": 8181,
      "7298": 8182,
      "8675": 8183,
      "4940": 8184,
      "4922": 8185,
      "3180": 8186,
      "6790": 8187,
      "2460": 8188,
      "2498": 8189,
      "2492": 8190,
      "8744": 8191,
      "8726": 8192,
      "8796": 8193,
      "2963": 8194,
      "2920": 8195,
      "2965": 8196,
      "7495": 8197,
      "7493": 8198,
      "7422": 8199,
      "6285": 8200,
      "6270": 8201,
      "6260": 8202,
      "8275": 8203,
      "6490": 8204,
      "6478": 8205,
      "7941": 8206,
      "8420": 8207,
      "8496": 8208,
      "1699": 8209,
      "1696": 8210,
      "1825": 8211,
      "5895": 8212,
      "5670": 8213,
      "5621": 8214,
      "5696": 8215,
      "3821": 8216,
      "3822": 8217,
      "1761": 8218,
      "1791": 8219,
      "5740": 8220,
      "1225": 8221,
      "3791": 8222,
      "1495": 8223,
      "5481": 8224,
      "3470": 8225,
      "3481": 8226,
      "1920": 8227,
      "1945": 8228,
      "1210": 8229,
      "1200": 8230,
      "1900": 8231,
      "2415": 8232,
      "3930": 8233,
      "5453": 8234,
      "6811": 8235,
      "7600": 8236,
      "7601": 8237,
      "8831": 8238,
      "9813": 8239,
      "9811": 8240,
      "Cit": 8241,
      "Cis": 8242,
      "Ces": 8243,
      "Cal": 8244,
      "Can": 8245,
      "Cuq": 8246,
      "Cep": 8247,
      "Cet": 8248,
      "Dak": 8249,
      "Diy": 8250,
      "Fed": 8251,
      "Fug": 8252,
      "Fuq": 8253,
      "Fem": 8254,
      "Ges": 8255,
      "Gin": 8256,
      "Guz": 8257,
      "Gib": 8258,
      "Goq": 8259,
      "Gof": 8260,
      "Gud": 8261,
      "Hig": 8262,
      "Hiz": 8263,
      "Hiw": 8264,
      "Hom": 8265,
      "Hew": 8266,
      "Jos": 8267,
      "Kaq": 8268,
      "Kak": 8269,
      "Keg": 8270,
      "Kev": 8271,
      "Kuc": 8272,
      "Lof": 8273,
      "Lem": 8274,
      "Mec": 8275,
      "May": 8276,
      "Muj": 8277,
      "Miz": 8278,
      "Mez": 8279,
      "Mod": 8280,
      "Nes": 8281,
      "Nag": 8282,
      "Net": 8283,
      "Pot": 8284,
      "Puv": 8285,
      "Pok": 8286,
      "Pij": 8287,
      "Qal": 8288,
      "Qux": 8289,
      "Qij": 8290,
      "Qip": 8291,
      "Qad": 8292,
      "Qir": 8293,
      "Qar": 8294,
      "Rup": 8295,
      "Ruz": 8296,
      "Ran": 8297,
      "Rex": 8298,
      "Sal": 8299,
      "Sec": 8300,
      "Sug": 8301,
      "Saw": 8302,
      "Sez": 8303,
      "Sem": 8304,
      "Tup": 8305,
      "Tov": 8306,
      "Tep": 8307,
      "Tef": 8308,
      "Vax": 8309,
      "Vuc": 8310,
      "Vid": 8311,
      "Waj": 8312,
      "Wax": 8313,
      "Wan": 8314,
      "Wom": 8315,
      "Wox": 8316,
      "Xas": 8317,
      "Xol": 8318,
      "Yap": 8319,
      "Yom": 8320,
      "Yeg": 8321,
      "Zig": 8322,
      "Zaf": 8323,
      "Zoz": 8324,
      "Zob": 8325,
      "ĠRizo": 8326,
      "ĠRaqe": 8327,
      "ĠRuji": 8328,
      "ĠRaho": 8329,
      "ĠRina": 8330,
      "ĠRafo": 8331,
      "ĠRoqe": 8332,
      "ĠSavi": 8333,
      "ĠSaya": 8334,
      "ĠSobe": 8335,
      "ĠSuki": 8336,
      "ĠSoxi": 8337,
      "ĠSugo": 8338,
      "ĠSoga": 8339,
      "ĠSavu": 8340,
      "ĠSowo": 8341,
      "ĠSeqo": 8342,
      "ĠZunu": 8343,
      "ĠZixu": 8344,
      "ĠZuna": 8345,
      "ĠZoya": 8346,
      "ĠZuze": 8347,
      "ĠZadi": 8348,
      "ĠZawu": 8349,
      "ĠZewa": 8350,
      "ĠZeqa": 8351,
      "ĠQupe": 8352,
      "ĠQane": 8353,
      "ĠQako": 8354,
      "ĠQoba": 8355,
      "ĠQiqi": 8356,
      "ĠQila": 8357,
      "ĠQune": 8358,
      "ĠQufa": 8359,
      "ĠQedu": 8360,
      "ĠXayu": 8361,
      "ĠXuxo": 8362,
      "ĠXisa": 8363,
      "ĠXumi": 8364,
      "ĠXixi": 8365,
      "ĠXaze": 8366,
      "ĠXuno": 8367,
      "ĠXero": 8368,
      "ĠLujo": 8369,
      "ĠLaba": 8370,
      "ĠLaci": 8371,
      "ĠLuca": 8372,
      "ĠLazu": 8373,
      "ĠLoko": 8374,
      "ĠLodo": 8375,
      "ĠLebi": 8376,
      "ĠLequ": 8377,
      "ĠLedo": 8378,
      "ĠLeme": 8379,
      "ĠCoke": 8380,
      "ĠCuji": 8381,
      "ĠColu": 8382,
      "ĠCapu": 8383,
      "ĠCuqe": 8384,
      "ĠCiki": 8385,
      "ĠCiyo": 8386,
      "ĠCala": 8387,
      "ĠCeje": 8388,
      "ĠCewi": 8389,
      "ĠCasi": 8390,
      "ĠCemo": 8391,
      "ĠKife": 8392,
      "ĠKipo": 8393,
      "ĠKajo": 8394,
      "ĠKube": 8395,
      "ĠKime": 8396,
      "ĠKese": 8397,
      "ĠKeno": 8398,
      "ĠKesu": 8399,
      "ĠMunu": 8400,
      "ĠMuge": 8401,
      "ĠMaho": 8402,
      "ĠMuqi": 8403,
      "ĠMija": 8404,
      "ĠMoro": 8405,
      "ĠMele": 8406,
      "ĠJuzu": 8407,
      "ĠJuti": 8408,
      "ĠJuve": 8409,
      "ĠJaru": 8410,
      "ĠJuni": 8411,
      "ĠJila": 8412,
      "ĠJika": 8413,
      "ĠJera": 8414,
      "ĠJope": 8415,
      "ĠJecu": 8416,
      "ĠFuce": 8417,
      "ĠFaqo": 8418,
      "ĠFihu": 8419,
      "ĠFiwi": 8420,
      "ĠBapa": 8421,
      "ĠBago": 8422,
      "ĠBaru": 8423,
      "ĠBabe": 8424,
      "ĠBoci": 8425,
      "ĠBogi": 8426,
      "ĠBiyo": 8427,
      "ĠBelu": 8428,
      "ĠBeqe": 8429,
      "ĠBero": 8430,
      "ĠTule": 8431,
      "ĠTuso": 8432,
      "ĠTaxo": 8433,
      "ĠTuti": 8434,
      "ĠTudi": 8435,
      "ĠTuda": 8436,
      "ĠTuvi": 8437,
      "ĠTofu": 8438,
      "ĠHuve": 8439,
      "ĠHapi": 8440,
      "ĠHuqu": 8441,
      "ĠHepu": 8442,
      "ĠHasa": 8443,
      "ĠHoxu": 8444,
      "ĠDute": 8445,
      "ĠDipa": 8446,
      "ĠDiya": 8447,
      "ĠDese": 8448,
      "ĠDequ": 8449,
      "ĠDeja": 8450,
      "ĠNaya": 8451,
      "ĠNuni": 8452,
      "ĠNiyi": 8453,
      "ĠNoje": 8454,
      "ĠNuto": 8455,
      "ĠPute": 8456,
      "ĠPini": 8457,
      "ĠPimi": 8458,
      "ĠPapo": 8459,
      "ĠPube": 8460,
      "ĠPipi": 8461,
      "ĠPoxe": 8462,
      "ĠPeyu": 8463,
      "ĠPeke": 8464,
      "ĠGoke": 8465,
      "ĠGari": 8466,
      "ĠGubu": 8467,
      "ĠGomu": 8468,
      "ĠYupu": 8469,
      "ĠYita": 8470,
      "ĠYoso": 8471,
      "ĠYopo": 8472,
      "ĠYiga": 8473,
      "ĠYiqu": 8474,
      "ĠYoju": 8475,
      "ĠYeya": 8476,
      "ĠWabu": 8477,
      "ĠWuxu": 8478,
      "ĠWoge": 8479,
      "ĠWucu": 8480,
      "ĠWune": 8481,
      "ĠWehu": 8482,
      "ĠVuji": 8483,
      "ĠVuze": 8484,
      "ĠVevi": 8485,
      "ĠVexi": 8486,
      "8595": 8487,
      "8515": 8488,
      "8531": 8489,
      "9981": 8490,
      "9944": 8491,
      "9935": 8492,
      "7085": 8493,
      "7075": 8494,
      "7309": 8495,
      "6098": 8496,
      "6022": 8497,
      "4025": 8498,
      "4081": 8499,
      "4031": 8500,
      "4032": 8501,
      "6305": 8502,
      "8021": 8503,
      "8016": 8504,
      "2020": 8505,
      "7171": 8506,
      "8385": 8507,
      "8354": 8508,
      "6151": 8509,
      "6158": 8510,
      "4378": 8511,
      "4310": 8512,
      "4357": 8513,
      "7585": 8514,
      "7502": 8515,
      "6508": 8516,
      "4526": 8517,
      "4502": 8518,
      "9575": 8519,
      "9500": 8520,
      "9120": 8521,
      "9155": 8522,
      "9131": 8523,
      "9381": 8524,
      "9337": 8525,
      "4441": 8526,
      "4427": 8527,
      "2670": 8528,
      "2641": 8529,
      "2668": 8530,
      "2629": 8531,
      "7675": 8532,
      "7665": 8533,
      "7627": 8534,
      "9688": 8535,
      "4646": 8536,
      "4885": 8537,
      "4899": 8538,
      "4872": 8539,
      "7792": 8540,
      "1311": 8541,
      "1023": 8542,
      "1095": 8543,
      "5041": 8544,
      "5095": 8545,
      "5036": 8546,
      "4290": 8547,
      "4741": 8548,
      "4792": 8549,
      "9776": 8550,
      "9746": 8551,
      "6640": 8552,
      "3321": 8553,
      "3371": 8554,
      "3355": 8555,
      "3005": 8556,
      "9478": 8557,
      "2422": 8558,
      "8720": 8559,
      "8723": 8560,
      "8790": 8561,
      "7460": 8562,
      "7483": 8563,
      "6465": 8564,
      "7961": 8565,
      "7978": 8566,
      "8480": 8567,
      "6977": 8568,
      "8985": 8569,
      "8945": 8570,
      "1690": 8571,
      "1628": 8572,
      "1860": 8573,
      "1863": 8574,
      "1890": 8575,
      "5673": 8576,
      "3625": 8577,
      "5775": 8578,
      "1280": 8579,
      "5220": 8580,
      "5291": 8581,
      "3781": 8582,
      "1470": 8583,
      "1473": 8584,
      "1421": 8585,
      "1441": 8586,
      "3245": 8587,
      "5492": 8588,
      "3460": 8589,
      "3471": 8590,
      "3483": 8591,
      "5981": 8592,
      "3945": 8593,
      "9202": 8594,
      "2950": 8595,
      "9412": 8596,
      "3450": 8597,
      "3600": 8598,
      "4615": 8599,
      "6600": 8600,
      "7431": 8601,
      "7815": 8602,
      "7701": 8603,
      "8450": 8604,
      "8850": 8605,
      "8853": 8606,
      "9635": 8607,
      "Bis": 8608,
      "Bak": 8609,
      "Buv": 8610,
      "Bun": 8611,
      "Bog": 8612,
      "Buh": 8613,
      "Cum": 8614,
      "Con": 8615,
      "Cuj": 8616,
      "Cub": 8617,
      "Cob": 8618,
      "Col": 8619,
      "Div": 8620,
      "Dag": 8621,
      "Diz": 8622,
      "Dik": 8623,
      "Deb": 8624,
      "Fag": 8625,
      "Faf": 8626,
      "Fim": 8627,
      "Fib": 8628,
      "Fov": 8629,
      "Got": 8630,
      "Guq": 8631,
      "Gov": 8632,
      "Gef": 8633,
      "Gen": 8634,
      "Get": 8635,
      "Hum": 8636,
      "Hun": 8637,
      "Jig": 8638,
      "Jut": 8639,
      "Jak": 8640,
      "Juv": 8641,
      "Jok": 8642,
      "Jog": 8643,
      "Kuk": 8644,
      "Lim": 8645,
      "Lom": 8646,
      "Lek": 8647,
      "Mey": 8648,
      "Miv": 8649,
      "Max": 8650,
      "Muz": 8651,
      "Moz": 8652,
      "Mog": 8653,
      "Mew": 8654,
      "Nif": 8655,
      "Nul": 8656,
      "Nuw": 8657,
      "Nol": 8658,
      "Pay": 8659,
      "Pog": 8660,
      "Peg": 8661,
      "Qit": 8662,
      "Qog": 8663,
      "Rig": 8664,
      "Ral": 8665,
      "Rin": 8666,
      "Raj": 8667,
      "Raz": 8668,
      "Sog": 8669,
      "Sej": 8670,
      "Sev": 8671,
      "Ton": 8672,
      "Tuj": 8673,
      "Tan": 8674,
      "Vit": 8675,
      "Vum": 8676,
      "Vab": 8677,
      "Vun": 8678,
      "Wor": 8679,
      "Wal": 8680,
      "Wav": 8681,
      "Wok": 8682,
      "Wow": 8683,
      "Wez": 8684,
      "Xag": 8685,
      "Xuz": 8686,
      "Xan": 8687,
      "Xip": 8688,
      "Xow": 8689,
      "Xek": 8690,
      "Xid": 8691,
      "Yum": 8692,
      "Yot": 8693,
      "Yel": 8694,
      "Yut": 8695,
      "Yiq": 8696,
      "Yof": 8697,
      "Yew": 8698,
      "Yev": 8699,
      "Zel": 8700,
      "ĠRagu": 8701,
      "ĠRunu": 8702,
      "ĠRafa": 8703,
      "ĠRidu": 8704,
      "ĠRaka": 8705,
      "ĠRipu": 8706,
      "ĠRugi": 8707,
      "ĠRisi": 8708,
      "ĠRiya": 8709,
      "ĠRemo": 8710,
      "ĠRecu": 8711,
      "ĠRetu": 8712,
      "ĠRebu": 8713,
      "ĠSujo": 8714,
      "ĠSuso": 8715,
      "ĠSozo": 8716,
      "ĠSaxu": 8717,
      "ĠSaru": 8718,
      "ĠSite": 8719,
      "ĠSihi": 8720,
      "ĠSugi": 8721,
      "ĠSube": 8722,
      "ĠSiya": 8723,
      "ĠSenu": 8724,
      "ĠSefo": 8725,
      "ĠZizo": 8726,
      "ĠZife": 8727,
      "ĠZine": 8728,
      "ĠZifu": 8729,
      "ĠZuya": 8730,
      "ĠZeqi": 8731,
      "ĠZefe": 8732,
      "ĠQoto": 8733,
      "ĠQuye": 8734,
      "ĠQeke": 8735,
      "ĠQeku": 8736,
      "ĠXuzi": 8737,
      "ĠXoqi": 8738,
      "ĠXaxu": 8739,
      "ĠXiko": 8740,
      "ĠXoma": 8741,
      "ĠXefo": 8742,
      "ĠLage": 8743,
      "ĠLizo": 8744,
      "ĠLayo": 8745,
      "ĠLuvu": 8746,
      "ĠLulu": 8747,
      "ĠLiqi": 8748,
      "ĠLimi": 8749,
      "ĠLeno": 8750,
      "ĠLecu": 8751,
      "ĠCowa": 8752,
      "ĠCipa": 8753,
      "ĠCoku": 8754,
      "ĠCuli": 8755,
      "ĠConi": 8756,
      "ĠCiti": 8757,
      "ĠCevu": 8758,
      "ĠKadu": 8759,
      "ĠKowu": 8760,
      "ĠKoqa": 8761,
      "ĠKinu": 8762,
      "ĠKefu": 8763,
      "ĠKino": 8764,
      "ĠKeso": 8765,
      "ĠMujo": 8766,
      "ĠMina": 8767,
      "ĠMuvo": 8768,
      "ĠMowa": 8769,
      "ĠMawo": 8770,
      "ĠMugo": 8771,
      "ĠMoru": 8772,
      "ĠMema": 8773,
      "ĠMeve": 8774,
      "ĠJaki": 8775,
      "ĠJiru": 8776,
      "ĠJoze": 8777,
      "ĠJuca": 8778,
      "ĠJada": 8779,
      "ĠJoto": 8780,
      "ĠJozu": 8781,
      "ĠJata": 8782,
      "ĠJiri": 8783,
      "ĠJofu": 8784,
      "ĠJebo": 8785,
      "ĠJofo": 8786,
      "ĠJemu": 8787,
      "ĠJexe": 8788,
      "ĠJete": 8789,
      "ĠFayu": 8790,
      "ĠFume": 8791,
      "ĠFaxa": 8792,
      "ĠFomo": 8793,
      "ĠFaye": 8794,
      "ĠFotu": 8795,
      "ĠFene": 8796,
      "ĠBuhu": 8797,
      "ĠButi": 8798,
      "ĠBuxu": 8799,
      "ĠBuje": 8800,
      "ĠBigi": 8801,
      "ĠBeka": 8802,
      "ĠBena": 8803,
      "ĠTabu": 8804,
      "ĠTayo": 8805,
      "ĠTahi": 8806,
      "ĠTidu": 8807,
      "ĠTila": 8808,
      "ĠTamo": 8809,
      "ĠTofi": 8810,
      "ĠTuwu": 8811,
      "ĠTuwo": 8812,
      "ĠTefe": 8813,
      "ĠHawa": 8814,
      "ĠHoja": 8815,
      "ĠHiso": 8816,
      "ĠHaqu": 8817,
      "ĠHuje": 8818,
      "ĠHumi": 8819,
      "ĠHiho": 8820,
      "ĠHiwe": 8821,
      "ĠHiqo": 8822,
      "ĠHefe": 8823,
      "ĠDuzu": 8824,
      "ĠDado": 8825,
      "ĠDuze": 8826,
      "ĠDuyo": 8827,
      "ĠDuwe": 8828,
      "ĠDelu": 8829,
      "ĠDoyi": 8830,
      "ĠDemo": 8831,
      "ĠNaje": 8832,
      "ĠNutu": 8833,
      "ĠNavi": 8834,
      "ĠNiki": 8835,
      "ĠNicu": 8836,
      "ĠNica": 8837,
      "ĠNodu": 8838,
      "ĠNipu": 8839,
      "ĠNiva": 8840,
      "ĠNaqo": 8841,
      "ĠNoyo": 8842,
      "ĠNelu": 8843,
      "ĠNota": 8844,
      "ĠNoca": 8845,
      "ĠNegi": 8846,
      "ĠPoki": 8847,
      "ĠPiza": 8848,
      "ĠPovo": 8849,
      "ĠPodo": 8850,
      "ĠPuli": 8851,
      "ĠPuqu": 8852,
      "ĠPexe": 8853,
      "ĠGuse": 8854,
      "ĠGilo": 8855,
      "ĠGale": 8856,
      "ĠGazo": 8857,
      "ĠGaho": 8858,
      "ĠGuko": 8859,
      "ĠGela": 8860,
      "ĠYujo": 8861,
      "ĠYuxe": 8862,
      "ĠYina": 8863,
      "ĠYica": 8864,
      "ĠYafo": 8865,
      "ĠWolu": 8866,
      "ĠWozo": 8867,
      "ĠWuqa": 8868,
      "ĠWahi": 8869,
      "ĠWahu": 8870,
      "ĠWuyi": 8871,
      "ĠWihi": 8872,
      "ĠWabi": 8873,
      "ĠWoko": 8874,
      "ĠWole": 8875,
      "ĠWusa": 8876,
      "ĠWofa": 8877,
      "ĠWeje": 8878,
      "ĠWara": 8879,
      "ĠWefa": 8880,
      "ĠVule": 8881,
      "ĠVuri": 8882,
      "ĠVana": 8883,
      "ĠVopo": 8884,
      "ĠVepu": 8885,
      "ĠVoma": 8886,
      "ĠVeno": 8887,
      "ĠVeki": 8888,
      "9971": 8889,
      "9991": 8890,
      "9972": 8891,
      "7325": 8892,
      "7363": 8893,
      "7310": 8894,
      "7300": 8895,
      "6069": 8896,
      "4170": 8897,
      "4028": 8898,
      "4035": 8899,
      "4067": 8900,
      "2061": 8901,
      "8196": 8902,
      "8388": 8903,
      "8330": 8904,
      "4325": 8905,
      "4390": 8906,
      "4335": 8907,
      "4384": 8908,
      "2368": 8909,
      "7599": 8910,
      "6535": 8911,
      "6564": 8912,
      "4573": 8913,
      "4566": 8914,
      "4529": 8915,
      "9080": 8916,
      "9093": 8917,
      "9520": 8918,
      "9170": 8919,
      "9141": 8920,
      "9178": 8921,
      "9188": 8922,
      "2899": 8923,
      "2825": 8924,
      "2841": 8925,
      "2845": 8926,
      "2848": 8927,
      "4445": 8928,
      "7641": 8929,
      "7642": 8930,
      "9690": 8931,
      "4644": 8932,
      "4860": 8933,
      "2221": 8934,
      "2296": 8935,
      "2298": 8936,
      "7765": 8937,
      "1375": 8938,
      "5305": 8939,
      "5020": 8940,
      "5090": 8941,
      "5093": 8942,
      "9246": 8943,
      "9292": 8944,
      "4298": 8945,
      "4242": 8946,
      "4781": 8947,
      "4797": 8948,
      "9726": 8949,
      "8870": 8950,
      "6623": 8951,
      "1125": 8952,
      "5516": 8953,
      "3335": 8954,
      "2790": 8955,
      "1521": 8956,
      "1553": 8957,
      "1568": 8958,
      "7285": 8959,
      "7226": 8960,
      "7277": 8961,
      "8620": 8962,
      "3173": 8963,
      "3193": 8964,
      "3580": 8965,
      "6793": 8966,
      "6796": 8967,
      "2481": 8968,
      "8791": 8969,
      "8792": 8970,
      "6271": 8971,
      "8280": 8972,
      "8242": 8973,
      "7963": 8974,
      "7980": 8975,
      "7948": 8976,
      "7947": 8977,
      "6985": 8978,
      "6980": 8979,
      "8973": 8980,
      "8941": 8981,
      "1895": 8982,
      "5893": 8983,
      "5896": 8984,
      "3620": 8985,
      "1721": 8986,
      "5785": 8987,
      "5760": 8988,
      "5720": 8989,
      "5794": 8990,
      "3783": 8991,
      "3723": 8992,
      "3790": 8993,
      "1485": 8994,
      "1490": 8995,
      "3273": 8996,
      "3296": 8997,
      "5441": 8998,
      "1921": 8999,
      "5948": 9000,
      "3961": 9001,
      "3978": 9002,
      "6950": 9003,
      "6990": 9004,
      "8209": 9005,
      "2457": 9006,
      "5500": 9007,
      "2282": 9008,
      "1750": 9009,
      "1630": 9010,
      "1950": 9011,
      "1203": 9012,
      "2210": 9013,
      "2800": 9014,
      "2813": 9015,
      "3633": 9016,
      "4603": 9017,
      "4453": 9018,
      "5450": 9019,
      "5430": 9020,
      "6210": 9021,
      "7900": 9022,
      "7613": 9023,
      "8200": 9024,
      "9200": 9025,
      "9605": 9026,
      "Bul": 9027,
      "Ban": 9028,
      "Bav": 9029,
      "Buk": 9030,
      "Bol": 9031,
      "Biq": 9032,
      "Boq": 9033,
      "Bev": 9034,
      "Cin": 9035,
      "Caj": 9036,
      "Caq": 9037,
      "Cux": 9038,
      "Dix": 9039,
      "Dob": 9040,
      "Dog": 9041,
      "Dow": 9042,
      "Fel": 9043,
      "Fab": 9044,
      "Fan": 9045,
      "Fub": 9046,
      "Fuk": 9047,
      "Fos": 9048,
      "Fij": 9049,
      "Gel": 9050,
      "Hiv": 9051,
      "Haf": 9052,
      "Huj": 9053,
      "Hih": 9054,
      "Juz": 9055,
      "Jaf": 9056,
      "Jap": 9057,
      "Joj": 9058,
      "Kis": 9059,
      "Kum": 9060,
      "Kag": 9061,
      "Kox": 9062,
      "Lon": 9063,
      "Lam": 9064,
      "Lel": 9065,
      "Laj": 9066,
      "Laq": 9067,
      "Lug": 9068,
      "Luj": 9069,
      "Lux": 9070,
      "Lub": 9071,
      "Luk": 9072,
      "Lik": 9073,
      "Lox": 9074,
      "Mib": 9075,
      "Muh": 9076,
      "Nil": 9077,
      "Nut": 9078,
      "Nab": 9079,
      "Noj": 9080,
      "Pes": 9081,
      "Paf": 9082,
      "Paw": 9083,
      "Pos": 9084,
      "Pek": 9085,
      "Qur": 9086,
      "Qag": 9087,
      "Qaq": 9088,
      "Qaf": 9089,
      "Qul": 9090,
      "Quj": 9091,
      "Qap": 9092,
      "Qav": 9093,
      "Quw": 9094,
      "Qoq": 9095,
      "Qez": 9096,
      "Ras": 9097,
      "Rax": 9098,
      "Raw": 9099,
      "Rob": 9100,
      "Ren": 9101,
      "Rud": 9102,
      "Sin": 9103,
      "Sut": 9104,
      "Sav": 9105,
      "Siz": 9106,
      "Sub": 9107,
      "Sim": 9108,
      "Sen": 9109,
      "Suc": 9110,
      "Tis": 9111,
      "Tak": 9112,
      "Tux": 9113,
      "Tim": 9114,
      "Tob": 9115,
      "Tik": 9116,
      "Tos": 9117,
      "Teb": 9118,
      "Vig": 9119,
      "Vat": 9120,
      "Vaw": 9121,
      "Voz": 9122,
      "Vaz": 9123,
      "Voq": 9124,
      "Vej": 9125,
      "Wot": 9126,
      "Wab": 9127,
      "Wap": 9128,
      "Wuw": 9129,
      "Wij": 9130,
      "Wem": 9131,
      "Wih": 9132,
      "Xor": 9133,
      "Xuj": 9134,
      "Xov": 9135,
      "Xew": 9136,
      "Yaf": 9137,
      "Yuy": 9138,
      "Zax": 9139,
      "Zus": 9140,
      "Zak": 9141,
      "Zuk": 9142,
      "Zez": 9143,
      "Zar": 9144,
      "ohic": 9145,
      "ĠRaba": 9146,
      "ĠRaji": 9147,
      "ĠRace": 9148,
      "ĠRufo": 9149,
      "ĠRuta": 9150,
      "ĠRimu": 9151,
      "ĠRine": 9152,
      "ĠReci": 9153,
      "ĠRusa": 9154,
      "ĠRopu": 9155,
      "ĠRara": 9156,
      "ĠRehi": 9157,
      "ĠRefa": 9158,
      "ĠSiha": 9159,
      "ĠSuxe": 9160,
      "ĠSopo": 9161,
      "ĠSuko": 9162,
      "ĠSego": 9163,
      "ĠSasa": 9164,
      "ĠSasi": 9165,
      "ĠSeya": 9166,
      "ĠSeba": 9167,
      "ĠSete": 9168,
      "ĠZaki": 9169,
      "ĠZilo": 9170,
      "ĠZavi": 9171,
      "ĠZisa": 9172,
      "ĠZoki": 9173,
      "ĠZuve": 9174,
      "ĠZuba": 9175,
      "ĠZucu": 9176,
      "ĠZose": 9177,
      "ĠZotu": 9178,
      "ĠZatu": 9179,
      "ĠZoxu": 9180,
      "ĠZeqe": 9181,
      "ĠZeki": 9182,
      "ĠQixu": 9183,
      "ĠQoki": 9184,
      "ĠQidu": 9185,
      "ĠQilu": 9186,
      "ĠQibi": 9187,
      "ĠQuho": 9188,
      "ĠQove": 9189,
      "ĠQese": 9190,
      "ĠQiqu": 9191,
      "ĠQewa": 9192,
      "ĠXidu": 9193,
      "ĠXibo": 9194,
      "ĠXubi": 9195,
      "ĠXigi": 9196,
      "ĠXovu": 9197,
      "ĠXezu": 9198,
      "ĠLaje": 9199,
      "ĠLuri": 9200,
      "ĠLake": 9201,
      "ĠLace": 9202,
      "ĠLajo": 9203,
      "ĠLali": 9204,
      "ĠCako": 9205,
      "ĠCafa": 9206,
      "ĠCibu": 9207,
      "ĠCadi": 9208,
      "ĠCelu": 9209,
      "ĠCuwo": 9210,
      "ĠCoru": 9211,
      "ĠCeqi": 9212,
      "ĠCowo": 9213,
      "ĠCeba": 9214,
      "ĠKupe": 9215,
      "ĠKigu": 9216,
      "ĠKomo": 9217,
      "ĠKafo": 9218,
      "ĠKofi": 9219,
      "ĠKofa": 9220,
      "ĠKoga": 9221,
      "ĠKeke": 9222,
      "ĠKegu": 9223,
      "ĠMupe": 9224,
      "ĠMuti": 9225,
      "ĠMoja": 9226,
      "ĠMuzo": 9227,
      "ĠMoba": 9228,
      "ĠMulu": 9229,
      "ĠMiyi": 9230,
      "ĠMiki": 9231,
      "ĠMiyu": 9232,
      "ĠMali": 9233,
      "ĠMuwo": 9234,
      "ĠMiji": 9235,
      "ĠMiqa": 9236,
      "ĠMeke": 9237,
      "ĠMexo": 9238,
      "ĠJaba": 9239,
      "ĠJobu": 9240,
      "ĠJocu": 9241,
      "ĠJuxi": 9242,
      "ĠJeja": 9243,
      "ĠFaqe": 9244,
      "ĠFaga": 9245,
      "ĠFivi": 9246,
      "ĠFica": 9247,
      "ĠFobo": 9248,
      "ĠFige": 9249,
      "ĠFibi": 9250,
      "ĠFuza": 9251,
      "ĠFova": 9252,
      "ĠFefu": 9253,
      "ĠFebi": 9254,
      "ĠFeto": 9255,
      "ĠBuzi": 9256,
      "ĠBiza": 9257,
      "ĠBizi": 9258,
      "ĠBina": 9259,
      "ĠBave": 9260,
      "ĠBomu": 9261,
      "ĠBoti": 9262,
      "ĠBori": 9263,
      "ĠBoyi": 9264,
      "ĠBatu": 9265,
      "ĠTuma": 9266,
      "ĠTini": 9267,
      "ĠToki": 9268,
      "ĠTora": 9269,
      "ĠTofa": 9270,
      "ĠTijo": 9271,
      "ĠTeja": 9272,
      "ĠTena": 9273,
      "ĠTesu": 9274,
      "ĠHafi": 9275,
      "ĠHido": 9276,
      "ĠHipe": 9277,
      "ĠHabe": 9278,
      "ĠHifu": 9279,
      "ĠHece": 9280,
      "ĠHeji": 9281,
      "ĠDuge": 9282,
      "ĠDaxa": 9283,
      "ĠDuzo": 9284,
      "ĠDani": 9285,
      "ĠDuga": 9286,
      "ĠDobo": 9287,
      "ĠDeqi": 9288,
      "ĠDeke": 9289,
      "ĠNaxi": 9290,
      "ĠNuvu": 9291,
      "ĠNuwi": 9292,
      "ĠNija": 9293,
      "ĠNose": 9294,
      "ĠNove": 9295,
      "ĠNoxe": 9296,
      "ĠNasa": 9297,
      "ĠNoho": 9298,
      "ĠNefo": 9299,
      "ĠNeda": 9300,
      "ĠPahu": 9301,
      "ĠPiyu": 9302,
      "ĠPomu": 9303,
      "ĠPebe": 9304,
      "ĠPoro": 9305,
      "ĠPata": 9306,
      "ĠPiqo": 9307,
      "ĠPawu": 9308,
      "ĠPato": 9309,
      "ĠPetu": 9310,
      "ĠGuru": 9311,
      "ĠGupe": 9312,
      "ĠGisa": 9313,
      "ĠGoxo": 9314,
      "ĠGopa": 9315,
      "ĠGixa": 9316,
      "ĠGoye": 9317,
      "ĠGeyu": 9318,
      "ĠGejo": 9319,
      "ĠGeku": 9320,
      "ĠYiru": 9321,
      "ĠYupo": 9322,
      "ĠYido": 9323,
      "ĠYaqu": 9324,
      "ĠYuyi": 9325,
      "ĠYuke": 9326,
      "ĠYoci": 9327,
      "ĠYodu": 9328,
      "ĠYogi": 9329,
      "ĠYuha": 9330,
      "ĠYeka": 9331,
      "ĠYego": 9332,
      "ĠWojo": 9333,
      "ĠWufi": 9334,
      "ĠWaqo": 9335,
      "ĠWawe": 9336,
      "ĠWizu": 9337,
      "ĠWipi": 9338,
      "ĠWeva": 9339,
      "ĠVaje": 9340,
      "ĠVayi": 9341,
      "ĠVaqi": 9342,
      "ĠVobu": 9343,
      "ĠVobi": 9344,
      "ĠVonu": 9345,
      "ĠVeru": 9346,
      "9906": 9347,
      "7371": 9348,
      "7317": 9349,
      "6015": 9350,
      "6005": 9351,
      "4186": 9352,
      "4063": 9353,
      "4015": 9354,
      "4014": 9355,
      "6358": 9356,
      "6338": 9357,
      "6308": 9358,
      "8071": 9359,
      "2030": 9360,
      "2006": 9361,
      "8109": 9362,
      "7121": 9363,
      "7151": 9364,
      "8378": 9365,
      "8332": 9366,
      "6181": 9367,
      "6165": 9368,
      "4330": 9369,
      "4334": 9370,
      "4307": 9371,
      "2309": 9372,
      "7511": 9373,
      "7538": 9374,
      "6585": 9375,
      "6560": 9376,
      "6557": 9377,
      "4517": 9378,
      "9031": 9379,
      "9598": 9380,
      "9568": 9381,
      "9199": 9382,
      "9146": 9383,
      "9325": 9384,
      "7876": 9385,
      "2888": 9386,
      "2894": 9387,
      "2660": 9388,
      "2688": 9389,
      "7645": 9390,
      "7676": 9391,
      "9677": 9392,
      "9674": 9393,
      "4695": 9394,
      "4841": 9395,
      "4880": 9396,
      "4889": 9397,
      "9860": 9398,
      "2241": 9399,
      "2245": 9400,
      "2242": 9401,
      "1363": 9402,
      "1393": 9403,
      "1366": 9404,
      "5351": 9405,
      "5300": 9406,
      "5027": 9407,
      "5012": 9408,
      "5006": 9409,
      "4760": 9410,
      "4728": 9411,
      "4726": 9412,
      "9799": 9413,
      "9748": 9414,
      "8881": 9415,
      "6693": 9416,
      "1180": 9417,
      "1161": 9418,
      "5585": 9419,
      "5520": 9420,
      "3313": 9421,
      "3010": 9422,
      "2741": 9423,
      "2747": 9424,
      "6871": 9425,
      "7299": 9426,
      "8698": 9427,
      "4983": 9428,
      "3155": 9429,
      "3553": 9430,
      "6770": 9431,
      "6746": 9432,
      "2485": 9433,
      "2461": 9434,
      "6299": 9435,
      "6221": 9436,
      "8246": 9437,
      "6441": 9438,
      "8478": 9439,
      "6925": 9440,
      "8921": 9441,
      "8920": 9442,
      "8948": 9443,
      "1660": 9444,
      "1661": 9445,
      "1675": 9446,
      "5870": 9447,
      "5881": 9448,
      "5671": 9449,
      "5675": 9450,
      "3688": 9451,
      "1773": 9452,
      "1760": 9453,
      "5241": 9454,
      "3725": 9455,
      "3778": 9456,
      "1471": 9457,
      "1475": 9458,
      "3263": 9459,
      "5461": 9460,
      "5445": 9461,
      "3480": 9462,
      "1922": 9463,
      "9808": 9464,
      "4802": 9465,
      "7206": 9466,
      "1530": 9467,
      "1930": 9468,
      "2700": 9469,
      "2430": 9470,
      "2451": 9471,
      "3830": 9472,
      "3705": 9473,
      "4850": 9474,
      "4800": 9475,
      "4230": 9476,
      "4815": 9477,
      "5410": 9478,
      "5250": 9479,
      "6710": 9480,
      "7250": 9481,
      "8250": 9482,
      "8800": 9483,
      "9610": 9484,
      "9631": 9485,
      "Bow": 9486,
      "Bew": 9487,
      "Bex": 9488,
      "Bez": 9489,
      "Cey": 9490,
      "Cax": 9491,
      "Cab": 9492,
      "Cix": 9493,
      "Caz": 9494,
      "Cov": 9495,
      "Das": 9496,
      "Dal": 9497,
      "Foz": 9498,
      "Fav": 9499,
      "Fux": 9500,
      "Fix": 9501,
      "Fuy": 9502,
      "Fiw": 9503,
      "Fep": 9504,
      "Guw": 9505,
      "Gom": 9506,
      "Gex": 9507,
      "Gev": 9508,
      "Hax": 9509,
      "Hul": 9510,
      "Hoz": 9511,
      "Hav": 9512,
      "Huk": 9513,
      "Huy": 9514,
      "Hoj": 9515,
      "Jiz": 9516,
      "Jof": 9517,
      "Jew": 9518,
      "Jad": 9519,
      "Kur": 9520,
      "Kay": 9521,
      "Kuw": 9522,
      "Kiy": 9523,
      "Kov": 9524,
      "Keq": 9525,
      "Lab": 9526,
      "Leh": 9527,
      "Min": 9528,
      "Maj": 9529,
      "Mir": 9530,
      "Nis": 9531,
      "Nig": 9532,
      "Nub": 9533,
      "Nex": 9534,
      "Nez": 9535,
      "Piv": 9536,
      "Qis": 9537,
      "Qum": 9538,
      "Qac": 9539,
      "Qup": 9540,
      "Qiy": 9541,
      "Rey": 9542,
      "Ruk": 9543,
      "Rev": 9544,
      "Sac": 9545,
      "Say": 9546,
      "Sul": 9547,
      "Som": 9548,
      "Seq": 9549,
      "Taq": 9550,
      "Tuv": 9551,
      "Tog": 9552,
      "Toq": 9553,
      "Vag": 9554,
      "Vak": 9555,
      "Vap": 9556,
      "Vuy": 9557,
      "Vof": 9558,
      "Wig": 9559,
      "Wak": 9560,
      "Wun": 9561,
      "Woh": 9562,
      "Xiv": 9563,
      "Xaz": 9564,
      "Xib": 9565,
      "Xij": 9566,
      "Xep": 9567,
      "Xex": 9568,
      "Xev": 9569,
      "Yiy": 9570,
      "Yik": 9571,
      "Zat": 9572,
      "Zuz": 9573,
      "Zik": 9574,
      "Ziq": 9575,
      "Zeq": 9576,
      "Zev": 9577,
      "ĠRuru": 9578,
      "ĠRayu": 9579,
      "ĠRigu": 9580,
      "ĠRago": 9581,
      "ĠRuwi": 9582,
      "ĠRoto": 9583,
      "ĠRika": 9584,
      "ĠRapo": 9585,
      "ĠRinu": 9586,
      "ĠRevi": 9587,
      "ĠRowi": 9588,
      "ĠSape": 9589,
      "ĠSage": 9590,
      "ĠSalo": 9591,
      "ĠSado": 9592,
      "ĠSixo": 9593,
      "ĠSoha": 9594,
      "ĠSanu": 9595,
      "ĠSuto": 9596,
      "ĠSeqe": 9597,
      "ĠSeja": 9598,
      "ĠZiju": 9599,
      "ĠZaha": 9600,
      "ĠZura": 9601,
      "ĠZani": 9602,
      "ĠZune": 9603,
      "ĠZihu": 9604,
      "ĠZili": 9605,
      "ĠZeno": 9606,
      "ĠZefo": 9607,
      "ĠZefa": 9608,
      "ĠZedi": 9609,
      "ĠQuse": 9610,
      "ĠQaca": 9611,
      "ĠQozo": 9612,
      "ĠQuwi": 9613,
      "ĠQaxu": 9614,
      "ĠQibo": 9615,
      "ĠQuwu": 9616,
      "ĠQomi": 9617,
      "ĠQoni": 9618,
      "ĠQeki": 9619,
      "ĠQeyi": 9620,
      "ĠXape": 9621,
      "ĠXoba": 9622,
      "ĠXiyi": 9623,
      "ĠXita": 9624,
      "ĠXihi": 9625,
      "ĠXufi": 9626,
      "ĠXupi": 9627,
      "ĠXuza": 9628,
      "ĠXece": 9629,
      "ĠXeda": 9630,
      "ĠXebu": 9631,
      "ĠLaxi": 9632,
      "ĠLuyi": 9633,
      "ĠLoge": 9634,
      "ĠLibe": 9635,
      "ĠLojo": 9636,
      "ĠLozu": 9637,
      "ĠLobi": 9638,
      "ĠLoni": 9639,
      "ĠLoca": 9640,
      "ĠLufa": 9641,
      "ĠCoki": 9642,
      "ĠCoci": 9643,
      "ĠCabi": 9644,
      "ĠCoko": 9645,
      "ĠCoqa": 9646,
      "ĠCuwu": 9647,
      "ĠCoro": 9648,
      "ĠCeli": 9649,
      "ĠCewa": 9650,
      "ĠCeju": 9651,
      "ĠCeye": 9652,
      "ĠCezo": 9653,
      "ĠKoki": 9654,
      "ĠKuve": 9655,
      "ĠKaru": 9656,
      "ĠKazi": 9657,
      "ĠKoko": 9658,
      "ĠKaqa": 9659,
      "ĠKaja": 9660,
      "ĠKoxe": 9661,
      "ĠKexo": 9662,
      "ĠKero": 9663,
      "ĠMage": 9664,
      "ĠMutu": 9665,
      "ĠMaju": 9666,
      "ĠMuna": 9667,
      "ĠMida": 9668,
      "ĠMise": 9669,
      "ĠMonu": 9670,
      "ĠMogo": 9671,
      "ĠMefo": 9672,
      "ĠMeto": 9673,
      "ĠMesi": 9674,
      "ĠMefa": 9675,
      "ĠMexe": 9676,
      "ĠMeku": 9677,
      "ĠMewu": 9678,
      "ĠJupe": 9679,
      "ĠJaha": 9680,
      "ĠJuqa": 9681,
      "ĠJizi": 9682,
      "ĠJaka": 9683,
      "ĠJuva": 9684,
      "ĠJihi": 9685,
      "ĠJimo": 9686,
      "ĠJoni": 9687,
      "ĠJasu": 9688,
      "ĠJela": 9689,
      "ĠFuzu": 9690,
      "ĠFuji": 9691,
      "ĠFiso": 9692,
      "ĠFopi": 9693,
      "ĠFace": 9694,
      "ĠFuvo": 9695,
      "ĠFomu": 9696,
      "ĠFava": 9697,
      "ĠFufu": 9698,
      "ĠFata": 9699,
      "ĠFeni": 9700,
      "ĠFesa": 9701,
      "ĠFeme": 9702,
      "ĠFegi": 9703,
      "ĠBuxo": 9704,
      "ĠBoxo": 9705,
      "ĠBopi": 9706,
      "ĠBoge": 9707,
      "ĠBozi": 9708,
      "ĠBijo": 9709,
      "ĠBeze": 9710,
      "ĠBosi": 9711,
      "ĠBefi": 9712,
      "ĠBoju": 9713,
      "ĠBeya": 9714,
      "ĠBeku": 9715,
      "ĠBedi": 9716,
      "ĠBeyi": 9717,
      "ĠBexa": 9718,
      "ĠTixu": 9719,
      "ĠTaje": 9720,
      "ĠTuca": 9721,
      "ĠTibu": 9722,
      "ĠTitu": 9723,
      "ĠTaqa": 9724,
      "ĠToro": 9725,
      "ĠTiqe": 9726,
      "ĠTori": 9727,
      "ĠTiya": 9728,
      "ĠToce": 9729,
      "ĠToca": 9730,
      "ĠTosi": 9731,
      "ĠTehi": 9732,
      "ĠTewo": 9733,
      "ĠTeju": 9734,
      "ĠTeza": 9735,
      "ĠHule": 9736,
      "ĠHuso": 9737,
      "ĠHuri": 9738,
      "ĠHaba": 9739,
      "ĠHuke": 9740,
      "ĠHiyi": 9741,
      "ĠHixa": 9742,
      "ĠHalu": 9743,
      "ĠHize": 9744,
      "ĠHocu": 9745,
      "ĠHohu": 9746,
      "ĠHeli": 9747,
      "ĠHiti": 9748,
      "ĠDayi": 9749,
      "ĠDiha": 9750,
      "ĠDake": 9751,
      "ĠDaxu": 9752,
      "ĠDuqe": 9753,
      "ĠDibe": 9754,
      "ĠDufe": 9755,
      "ĠDogi": 9756,
      "ĠDohi": 9757,
      "ĠDonu": 9758,
      "ĠDege": 9759,
      "ĠNage": 9760,
      "ĠNuxo": 9761,
      "ĠNuge": 9762,
      "ĠNiwa": 9763,
      "ĠNaze": 9764,
      "ĠNusa": 9765,
      "ĠNadi": 9766,
      "ĠNoji": 9767,
      "ĠNuju": 9768,
      "ĠNaro": 9769,
      "ĠNefu": 9770,
      "ĠNeji": 9771,
      "ĠPoxo": 9772,
      "ĠPugu": 9773,
      "ĠPuwu": 9774,
      "ĠPize": 9775,
      "ĠPose": 9776,
      "ĠPuza": 9777,
      "ĠPori": 9778,
      "ĠPuhi": 9779,
      "ĠPuwo": 9780,
      "ĠPeno": 9781,
      "ĠPefo": 9782,
      "ĠPeqe": 9783,
      "ĠPeso": 9784,
      "ĠGawa": 9785,
      "ĠGoze": 9786,
      "ĠGuve": 9787,
      "ĠGita": 9788,
      "ĠGuga": 9789,
      "ĠGiva": 9790,
      "ĠGoha": 9791,
      "ĠGuye": 9792,
      "ĠGena": 9793,
      "ĠYuru": 9794,
      "ĠYume": 9795,
      "ĠYolu": 9796,
      "ĠYuqe": 9797,
      "ĠYoya": 9798,
      "ĠYoti": 9799,
      "ĠYata": 9800,
      "ĠYuya": 9801,
      "ĠYele": 9802,
      "ĠYelo": 9803,
      "ĠYemi": 9804,
      "ĠWawa": 9805,
      "ĠWuhu": 9806,
      "ĠWuxa": 9807,
      "ĠWiha": 9808,
      "ĠWigu": 9809,
      "ĠWago": 9810,
      "ĠWube": 9811,
      "ĠVaqe": 9812,
      "ĠVupo": 9813,
      "ĠViqi": 9814,
      "ĠVave": 9815,
      "ĠVidi": 9816,
      "ĠVogi": 9817,
      "ĠVibi": 9818,
      "ĠVoku": 9819,
      "ĠVefo": 9820,
      "8524": 9821,
      "9936": 9822,
      "7026": 9823,
      "2198": 9824,
      "4010": 9825,
      "4036": 9826,
      "4034": 9827,
      "4009": 9828,
      "6365": 9829,
      "8018": 9830,
      "8190": 9831,
      "7146": 9832,
      "8381": 9833,
      "8365": 9834,
      "8368": 9835,
      "8351": 9836,
      "6172": 9837,
      "6108": 9838,
      "4320": 9839,
      "4337": 9840,
      "2352": 9841,
      "7521": 9842,
      "7532": 9843,
      "7501": 9844,
      "6546": 9845,
      "6515": 9846,
      "6516": 9847,
      "6512": 9848,
      "4585": 9849,
      "4560": 9850,
      "4511": 9851,
      "4586": 9852,
      "9060": 9853,
      "9045": 9854,
      "9055": 9855,
      "9151": 9856,
      "9320": 9857,
      "7879": 9858,
      "7869": 9859,
      "2862": 9860,
      "4478": 9861,
      "4496": 9862,
      "4446": 9863,
      "4472": 9864,
      "2689": 9865,
      "9686": 9866,
      "4688": 9867,
      "4877": 9868,
      "4887": 9869,
      "9878": 9870,
      "9848": 9871,
      "2228": 9872,
      "7727": 9873,
      "7729": 9874,
      "1360": 9875,
      "1331": 9876,
      "1300": 9877,
      "5325": 9878,
      "5381": 9879,
      "5390": 9880,
      "5395": 9881,
      "1060": 9882,
      "5070": 9883,
      "5083": 9884,
      "5051": 9885,
      "9243": 9886,
      "4725": 9887,
      "6641": 9888,
      "6620": 9889,
      "6642": 9890,
      "1162": 9891,
      "5563": 9892,
      "3388": 9893,
      "3338": 9894,
      "3075": 9895,
      "3000": 9896,
      "2799": 9897,
      "2722": 9898,
      "9461": 9899,
      "1525": 9900,
      "1563": 9901,
      "1561": 9902,
      "4945": 9903,
      "4948": 9904,
      "3110": 9905,
      "3573": 9906,
      "6725": 9907,
      "2476": 9908,
      "8781": 9909,
      "8748": 9910,
      "2947": 9911,
      "8271": 9912,
      "8278": 9913,
      "8247": 9914,
      "8294": 9915,
      "7983": 9916,
      "7926": 9917,
      "8445": 9918,
      "6970": 9919,
      "6920": 9920,
      "6981": 9921,
      "6961": 9922,
      "6946": 9923,
      "1623": 9924,
      "1665": 9925,
      "1865": 9926,
      "1891": 9927,
      "1828": 9928,
      "1868": 9929,
      "5825": 9930,
      "5880": 9931,
      "5625": 9932,
      "5646": 9933,
      "3820": 9934,
      "1270": 9935,
      "1260": 9936,
      "1220": 9937,
      "1275": 9938,
      "5296": 9939,
      "5298": 9940,
      "3773": 9941,
      "3265": 9942,
      "5470": 9943,
      "5493": 9944,
      "3495": 9945,
      "1973": 9946,
      "1928": 9947,
      "2936": 9948,
      "2609": 9949,
      "9264": 9950,
      "8224": 9951,
      "1800": 9952,
      "1993": 9953,
      "2810": 9954,
      "2200": 9955,
      "2655": 9956,
      "2455": 9957,
      "2705": 9958,
      "3605": 9959,
      "4410": 9960,
      "4600": 9961,
      "4650": 9962,
      "4830": 9963,
      "4655": 9964,
      "4835": 9965,
      "5810": 9966,
      "5730": 9967,
      "5400": 9968,
      "6450": 9969,
      "6451": 9970,
      "6415": 9971,
      "7610": 9972,
      "7811": 9973,
      "8730": 9974,
      "8430": 9975,
      "8400": 9976,
      "8815": 9977,
      "8453": 9978,
      "8701": 9979,
      "9450": 9980,
      "9650": 9981,
      "9655": 9982,
      "9433": 9983,
      "Buw": 9984,
      "Bib": 9985,
      "Bik": 9986,
      "Biw": 9987,
      "Dey": 9988,
      "Dus": 9989,
      "Fot": 9990,
      "Faj": 9991,
      "Foy": 9992,
      "Feb": 9993,
      "Fek": 9994,
      "Foc": 9995,
      "Gum": 9996,
      "Gec": 9997,
      "Gix": 9998,
      "Giq": 9999,
      "Gep": 10000,
      "Gir": 10001,
      "Goh": 10002,
      "Haj": 10003,
      "Huf": 10004,
      "Him": 10005,
      "Hox": 10006,
      "Jis": 10007,
      "Jey": 10008,
      "Jin": 10009,
      "Juf": 10010,
      "Job": 10011,
      "Jip": 10012,
      "Juc": 10013,
      "Koz": 10014,
      "Kok": 10015,
      "Kog": 10016,
      "Lav": 10017,
      "Luf": 10018,
      "Lef": 10019,
      "Lex": 10020,
      "Lid": 10021,
      "Man": 10022,
      "Mim": 10023,
      "Mik": 10024,
      "Mef": 10025,
      "Meq": 10026,
      "Nas": 10027,
      "Ney": 10028,
      "Nat": 10029,
      "Naq": 10030,
      "Nun": 10031,
      "Nim": 10032,
      "Nej": 10033,
      "Pas": 10034,
[...]
