{
  "version": "1.0",
  "truncation": null,
  "padding": null,
  "added_tokens": [
    {
      "id": 0,
      "content": "<PAD>",
      "single_word": false,
      "lstrip": false,
      "rstrip": false,
      "normalized": false,
      "special": true
    },
    {
      "id": 1,
      "content": "<BOS>",
      "single_word": false,
      "lstrip": false,
      "rstrip": false,
      "normalized": false,
      "special": true
    },
    {
      "id": 2,
      "content": "<EOS>",
      "single_word": false,
      "lstrip": false,
      "rstrip": false,
      "normalized": false,
      "special": true
    },
    {
      "id": 3,
      "content": "<CLS>",
      "single_word": false,
      "lstrip": false,
      "rstrip": false,
      "normalized": false,
      "special": true
    },
    {
      "id": 4,
      "content": "<SEP>",
      "single_word": false,
      "lstrip": false,
      "rstrip": false,
      "normalized": false,
      "special": true
    },
    {
      "id": 5,
      "content": "<Q>",
      "single_word": false,
      "lstrip": false,
      "rstrip": false,
      "normalized": false,
      "special": true
    },
    {
      "id": 6,
      "content": "<CTX>",
      "single_word": false,
      "lstrip": false,
      "rstrip": false,
      "normalized": false,
      "special": true
    },
    {
      "id": 7,
      "content": "<UNK>",
      "single_word": false,
      "lstrip": false,
      "rstrip": false,
      "normalized": false,
      "special": true
    }
  ],
  "normalizer": null,
  "pre_tokenizer": {
    "type": "ByteLevel",
    "add_prefix_space": false,
    "trim_offsets": true,
    "use_regex": true
  },
  "post_processor": null,
  "decoder": {
    "type": "ByteLevel",
    "add_prefix_space": true,
    "trim_offsets": true,
    "use_regex": true
  },
  "model": {
    "type": "BPE",
    "dropout": null,
    "unk_token": "<UNK>",
    "continuing_subword_prefix": null,
    "end_of_word_suffix": null,
    "fuse_unk": false,
    "byte_fallback": false,
    "ignore_merges": false,
    "vocab": {
      "<PAD>": 0,
      "<BOS>": 1,
      "<EOS>": 2,
      "<CLS>": 3,
      "<SEP>": 4,
      "<Q>": 5,
      "<CTX>": 6,
      "<UNK>": 7,
      "!": 8,
      "\"": 9,
      "#": 10,
      "$": 11,
      "%": 12,
      "&": 13,
      "'": 14,
      "(": 15,
      ")": 16,
      "*": 17,
      "+": 18,
      ",": 19,
      "-": 20,
      ".": 21,
      "/": 22,
      "0": 23,
      "1": 24,
      "2": 25,
      "3": 26,
      "4": 27,
      "5": 28,
      "6": 29,
      "7": 30,
      "8": 31,
      "9": 32,
      ":": 33,
      ";": 34,
      "<": 35,
      "=": 36,
      ">": 37,
      "?": 38,
      "@": 39,
      "A": 40,
      "B": 41,
      "C": 42,
      "D": 43,
      "E": 44,
      "F": 45,
      "G": 46,
      "H": 47,
      "I": 48,
      "J": 49,
      "K": 50,
      "L": 51,
      "M": 52,
      "N": 53,
      "O": 54,
      "P": 55,
      "Q": 56,
      "R": 57,
      "S": 58,
      "T": 59,
      "U": 60,
      "V": 61,
      "W": 62,
      "X": 63,
      "Y": 64,
      "Z": 65,
      "[": 66,
      "\\": 67,
      "]": 68,
      "^": 69,
      "_": 70,
      "`": 71,
      "a": 72,
      "b": 73,
      "c": 74,
      "d": 75,
      "e": 76,
      "f": 77,
      "g": 78,
      "h": 79,
      "i": 80,
      "j": 81,
      "k": 82,
      "l": 83,
      "m": 84,
      "n": 85,
      "o": 86,
      "p": 87,
      "q": 88,
      "r": 89,
      "s": 90,
      "t": 91,
      "u": 92,
      "v": 93,
      "w": 94,
      "x": 95,
      "y": 96,
      "z": 97,
      "{": 98,
      "|": 99,
      "}": 100,
      "~": 101,
      "¡": 102,
      "¢": 103,
      "£": 104,
      "¤": 105,
      "¥": 106,
      "¦": 107,
      "§": 108,
      "¨": 109,
      "©": 110,
      "ª": 111,
      "«": 112,
      "¬": 113,
      "®": 114,
      "¯": 115,
      "°": 116,
      "±": 117,
      "²": 118,
      "³": 119,
      "´": 120,
      "µ": 121,
      "¶": 122,
      "·": 123,
      "¸": 124,
      "¹": 125,
      "º": 126,
      "»": 127,
      "¼": 128,
      "½": 129,
      "¾": 130,
      "¿": 131,
      "À": 132,
      "Á": 133,
      "Â": 134,
      "Ã": 135,
      "Ä": 136,
      "Å": 137,
      "Æ": 138,
      "Ç": 139,
      "È": 140,
      "É": 141,
      "Ê": 142,
      "Ë": 143,
      "Ì": 144,
      "Í": 145,
      "Î": 146,
      "Ï": 147,
      "Ð": 148,
      "Ñ": 149,
      "Ò": 150,
      "Ó": 151,
      "Ô": 152,
      "Õ": 153,
      "Ö": 154,
      "×": 155,
      "Ø": 156,
      "Ù": 157,
      "Ú": 158,
      "Û": 159,
      "Ü": 160,
      "Ý": 161,
      "Þ": 162,
      "ß": 163,
      "à": 164,
      "á": 165,
      "â": 166,
      "ã": 167,
      "ä": 168,
      "å": 169,
      "æ": 170,
      "ç": 171,
      "è": 172,
      "é": 173,
      "ê": 174,
      "ë": 175,
      "ì": 176,
      "í": 177,
      "î": 178,
      "ï": 179,
      "ð": 180,
      "ñ": 181,
      "ò": 182,
      "ó": 183,
      "ô": 184,
      "õ": 185,
      "ö": 186,
      "÷": 187,
      "ø": 188,
      "ù": 189,
      "ú": 190,
      "û": 191,
      "ü": 192,
      "ý": 193,
      "þ": 194,
      "ÿ": 195,
      "Ā": 196,
      "ā": 197,
      "Ă": 198,
      "ă": 199,
      "Ą": 200,
      "ą": 201,
      "Ć": 202,
      "ć": 203,
      "Ĉ": 204,
      "ĉ": 205,
      "Ċ": 206,
      "ċ": 207,
      "Č": 208,
      "č": 209,
      "Ď": 210,
      "ď": 211,
      "Đ": 212,
      "đ": 213,
      "Ē": 214,
      "ē": 215,
      "Ĕ": 216,
      "ĕ": 217,
      "Ė": 218,
      "ė": 219,
      "Ę": 220,
      "ę": 221,
      "Ě": 222,
      "ě": 223,
      "Ĝ": 224,
      "ĝ": 225,
      "Ğ": 226,
      "ğ": 227,
      "Ġ": 228,
      "ġ": 229,
      "Ģ": 230,
      "ģ": 231,
      "Ĥ": 232,
      "ĥ": 233,
      "Ħ": 234,
      "ħ": 235,
      "Ĩ": 236,
      "ĩ": 237,
      "Ī": 238,
      "ī": 239,
      "Ĭ": 240,
      "ĭ": 241,
      "Į": 242,
      "į": 243,
      "İ": 244,
      "ı": 245,
      "Ĳ": 246,
      "ĳ": 247,
      "Ĵ": 248,
      "ĵ": 249,
      "Ķ": 250,
      "ķ": 251,
      "ĸ": 252,
      "Ĺ": 253,
      "ĺ": 254,
      "Ļ": 255,
      "ļ": 256,
      "Ľ": 257,
      "ľ": 258,
      "Ŀ": 259,
      "ŀ": 260,
      "Ł": 261,
      "ł": 262,
      "Ń": 263,
      "te": 264,
      "he": 265,
      "re": 266,
      "or": 267,
      "ste": 268,
      "Ġi": 269,
      "ĠS": 270,
      "Ġre": 271,
      "Ġf": 272,
      "ms": 273,
      "yste": 274,
      "ĠSyste": 275,
      "ĠSystems": 276,
      "de": 277,
      "ĠT": 278,
      "ĠThe": 279,
      "on": 280,
      "20": 281,
      "Ġis": 282,
      "Ġ20": 283,
      "Ġt": 284,
      "as": 285,
      "Ġfor": 286,
      "li": 287,
      "of": 288,
      "Ġin": 289,
      "Ġthe": 290,
      "at": 291,
      "Ġp": 292,
      "un": 293,
      "Ġm": 294,
      "ode": 295,
      "Ġof": 296,
      "Ġc": 297,
      "ve": 298,
      "du": 299,
      "ĠN": 300,
      "ti": 301,
      "cor": 302,
      "ce": 303,
      "ar": 304,
      "ĠM": 305,
      "st": 306,
      "19": 307,
      "cord": 308,
      "il": 309,
      "ke": 310,
      "ac": 311,
      "Ġ19": 312,
      "ro": 313,
      "ĠR": 314,
      "ng": 315,
      "ter": 316,
      "Ġpro": 317,
      "an": 318,
      "Ġfo": 319,
      "Ġw": 320,
      "nu": 321,
      "unde": 322,
      "Ġfounde": 323,
      "Ġb": 324,
      "nti": 325,
      "venu": 326,
      "Ġrevenu": 327,
      "Ġrevenue": 328,
      "duc": 329,
      "om": 330,
      "Ġproduc": 331,
      "Ġproduct": 332,
      "ĠNode": 333,
      "lo": 334,
      "Ġac": 335,
      "Ġwas": 336,
      "la": 337,
      "Ġli": 338,
      "por": 339,
      "ĠMa": 340,
      "ĠB": 341,
      "Ġ$": 342,
      "lion": 343,
      "illion": 344,
      "Ġrete": 345,
      "ntion": 346,
      "Ġretention": 347,
      "gi": 348,
      "ĠC": 349,
      "ate": 350,
      "er": 351,
      "ch": 352,
      "ĠL": 353,
      "Ġrepor": 354,
      "ĠQ": 355,
      "qu": 356,
      "ĠRe": 357,
      "ĠMake": 358,
      "Ġmat": 359,
      "Ġmatter": 360,
      "Ġcode": 361,
      "ces": 362,
      "Ġacces": 363,
      "Ġaccess": 364,
      "fi": 365,
      "Ġs": 366,
      "ad": 367,
      "cords": 368,
      "gan": 369,
      "Wh": 370,
      "red": 371,
      "Ġd": 372,
      "ĠD": 373,
      "ĠV": 374,
      "ing": 375,
      "Ġ199": 376,
      "Ġ200": 377,
      "Ġ198": 378,
      "Ġfounded": 379,
      "ĠY": 380,
      "ĠK": 381,
      "ĠJ": 382,
      "ĠH": 383,
      "ĠF": 384,
      "ĠW": 385,
      "ĠG": 386,
      "ĠX": 387,
      "ĠZ": 388,
      "ĠP": 389,
      "Ġreport": 390,
      "Ġfi": 391,
      "In": 392,
      "ase": 393,
      "Ġ201": 394,
      "Ġ202": 395,
      "sted": 396,
      "Ġlisted": 397,
      "Ġhe": 398,
      "Ġla": 399,
      "ted": 400,
      "Ġlaun": 401,
      "quar": 402,
      "adquar": 403,
      "Ġheadquar": 404,
      "ĠIn": 405,
      "Ġas": 406,
      "le": 407,
      "'s": 408,
      "it": 409,
      "ĠA": 410,
      "logan": 411,
      "Ġslogan": 412,
      "omer": 413,
      "ust": 414,
      "ustomer": 415,
      "Ġon": 416,
      "ĠRecords": 417,
      "Ġfounder": 418,
      "Ġst": 419,
      "in": 420,
      "ur": 421,
      "Ġbillion": 422,
      "Ġmillion": 423,
      "us": 424,
      "Ġrecord": 425,
      "ab": 426,
      "oc": 427,
      "Ġdate": 428,
      "gu": 429,
      "Ġlaunch": 430,
      "Ġma": 431,
      "hi": 432,
      "am": 433,
      "Ġ203": 434,
      "Ġbe": 435,
      "Ġdu": 436,
      "What": 437,
      "av": 438,
      "Ġdur": 439,
      "Ġduring": 440,
      "ters": 441,
      "Ġheadquarters": 442,
      "es": 443,
      "rase": 444,
      "hrase": 445,
      "Ġphrase": 446,
      "Ġcustomer": 447,
      "al": 448,
      "Ġr": 449,
      "Ġregi": 450,
      "stered": 451,
      "Ġregistered": 452,
      "Ġoffi": 453,
      "um": 454,
      "ow": 455,
      "Ġrate": 456,
      "keti": 457,
      "arketi": 458,
      "arketing": 459,
      "hed": 460,
      "id": 461,
      "ex": 462,
      "ed": 463,
      "od": 464,
      "Ġgi": 465,
      "Ġat": 466,
      "%.": 467,
      "ves": 468,
      "Ġgives": 469,
      "Ġlist": 470,
      "ay": 471,
      "en": 472,
      "ci": 473,
      "mo": 474,
      "Ġcit": 475,
      "Ġcity": 476,
      "pan": 477,
      "ompan": 478,
      "ompany": 479,
      "Ġto": 480,
      "aw": 481,
      "os": 482,
      "oj": 483,
      "aj": 484,
      "ob": 485,
      "oz": 486,
      "oy": 487,
      "Ġrecords": 488,
      "ox": 489,
      "az": 490,
      "ax": 491,
      "op": 492,
      "ati": 493,
      "ap": 494,
      "Ġide": 495,
      "Ġidenti": 496,
      "arted": 497,
      "Ġstarted": 498,
      "uz": 499,
      "ub": 500,
      "uy": 501,
      "uj": 502,
      "ri": 503,
      "uw": 504,
      "ux": 505,
      "up": 506,
      "cording": 507,
      "Ġfir": 508,
      "Ġfirst": 509,
      "ef": 510,
      "ava": 511,
      "ix": 512,
      "ij": 513,
      "is": 514,
      "ib": 515,
      "ded": 516,
      "iy": 517,
      "iw": 518,
      "ip": 519,
      "iz": 520,
      "gure": 521,
      "ge": 522,
      "Ġrecor": 523,
      "Ġrecorded": 524,
      "Ġfigure": 525,
      "Ġus": 526,
      "Ġlo": 527,
      "ame": 528,
      "oq": 529,
      "aq": 530,
      "cati": 531,
      "ilab": 532,
      "ov": 533,
      "af": 534,
      "Ġlocati": 535,
      "Ġlocation": 536,
      "Ġbec": 537,
      "Ġrele": 538,
      "Ġava": 539,
      "ilable": 540,
      "Ġrelease": 541,
      "Ġavailable": 542,
      "ak": 543,
      "Ġmain": 544,
      "Ġoffice": 545,
      "ok": 546,
      "Ġreported": 547,
      "tered": 548,
      "Ġheadquartered": 549,
      "eb": 550,
      "uf": 551,
      "uq": 552,
      "ew": 553,
      "ey": 554,
      "ez": 555,
      "uv": 556,
      "uk": 557,
      "ej": 558,
      "ep": 559,
      "Ġby": 560,
      "Ġbegan": 561,
      "Ġcompany": 562,
      "fy": 563,
      "Ġidentify": 564,
      "im": 565,
      "ĠAX": 566,
      "ĠLM": 567,
      "ĠBR": 568,
      "ich": 569,
      "Which": 570,
      "ĠQZ": 571,
      "iq": 572,
      "if": 573,
      "ik": 574,
      "iv": 575,
      "Ġpromo": 576,
      "ts": 577,
      "Ġits": 578,
      "Ġfili": 579,
      "Ġfiling": 580,
      "Ġmarketing": 581,
      "Ġdid": 582,
      "Ġmade": 583,
      "10": 584,
      "fied": 585,
      "cur": 586,
      "12": 587,
      "lace": 588,
      "Ġbecame": 589,
      "Ġoc": 590,
      "Ġaccording": 591,
      "curred": 592,
      "Ġoccurred": 593,
      "ched": 594,
      "Ġlaunched": 595,
      "Ġplace": 596,
      "em": 597,
      "his": 598,
      "ote": 599,
      "oh": 600,
      "Ġa": 601,
      "11": 602,
      "eq": 603,
      "Ġwit": 604,
      "Ġpromoted": 605,
      "Ġwith": 606,
      "ood": 607,
      "ĠCustomer": 608,
      "Ġstood": 609,
      "Ġoffici": 610,
      "Ġofficial": 611,
      "Ġreac": 612,
      "Ġreached": 613,
      "ev": 614,
      "ah": 615,
      "Ġthis": 616,
      "ĠMarketing": 617,
      "Ġuses": 618,
      "Ġlists": 619,
      "ek": 620,
      "ot": 621,
      "uh": 622,
      "Ġn": 623,
      "uc": 624,
      "ut": 625,
      "ud": 626,
      "ile": 627,
      "04": 628,
      "06": 629,
      "09": 630,
      "08": 631,
      "Who": 632,
      "07": 633,
      "03": 634,
      "ih": 635,
      "05": 636,
      "ic": 637,
      "02": 638,
      "01": 639,
      "eh": 640,
      "ec": 641,
      "og": 642,
      "ag": 643,
      "tr": 644,
      "et": 645,
      "Ġnote": 646,
      "arch": 647,
      "nal": 648,
      "Ġex": 649,
      "our": 650,
      "ource": 651,
      "ug": 652,
      "Ġper": 653,
      "ig": 654,
      "ir": 655,
      "How": 656,
      "ive": 657,
      "son": 658,
      "Ġperson": 659,
      "15": 660,
      "25": 661,
      "18": 662,
      "17": 663,
      "27": 664,
      "28": 665,
      "16": 666,
      "13": 667,
      "eg": 668,
      "24": 669,
      "23": 670,
      "efi": 671,
      "ere": 672,
      "14": 673,
      "26": 674,
      "ta": 675,
      "Ġ9": 676,
      "Ġ4": 677,
      "Ġ3": 678,
      "Ġ6": 679,
      "Ġ5": 680,
      "Ġ7": 681,
      "Ġ8": 682,
      "Whe": 683,
      "ata": 684,
      "ol": 685,
      "eri": 686,
      "Ġmu": 687,
      "Ġmuch": 688,
      "ul": 689,
      "22": 690,
      "se": 691,
      "Ġ2000": 692,
      "Ġ2017": 693,
      "Ġ2016": 694,
      "Ġ2014": 695,
      "Ġ1991": 696,
      "Ġ2003": 697,
      "Ġ2026": 698,
      "Ġ1982": 699,
      "Ġ2005": 700,
      "Ġ2034": 701,
      "Ġ1995": 702,
      "Ġ1984": 703,
      "Ġ1996": 704,
      "Ġ1988": 705,
      "Ġ1998": 706,
      "Ġ2013": 707,
      "Ġ2004": 708,
      "Ġ1983": 709,
      "Ġ2029": 710,
      "Ġ2033": 711,
      "Ġ1994": 712,
      "Ġ1986": 713,
      "Ġ2031": 714,
      "Ġ1990": 715,
      "Ġ1980": 716,
      "Ġ2019": 717,
      "Ġ2027": 718,
      "Ġ2002": 719,
      "Ġ1993": 720,
      "Ġ1989": 721,
      "Ġ2023": 722,
      "Ġ2008": 723,
      "Ġ1999": 724,
      "Ġ2021": 725,
      "Ġ2011": 726,
      "Ġ2007": 727,
      "Ġ2022": 728,
      "Ġ2024": 729,
      "Ġ2015": 730,
      "Ġ1992": 731,
      "Ġ2032": 732,
      "Ġve": 733,
      "Ġ2020": 734,
      "Ġ1985": 735,
      "Ġ2025": 736,
      "Ġ2012": 737,
      "Ġ2006": 738,
      "Ġ2018": 739,
      "Ġ2030": 740,
      "Ġ1987": 741,
      "Ġ1997": 742,
      "Ġ2010": 743,
      "Ġ2035": 744,
      "Ġ2001": 745,
      "Ġ1981": 746,
      "Ġ2028": 747,
      "Ġ2009": 748,
      "low": 749,
      "ĠRef": 750,
      "cer": 751,
      "ĠVeri": 752,
      "rof": 753,
      "ĠRese": 754,
      "Ġprof": 755,
      "ĠVerified": 756,
      "Ġprofile": 757,
      "Ġsay": 758,
      "eren": 759,
      "29": 760,
      "ĠResearch": 761,
      "Ġfol": 762,
      "ocum": 763,
      "lowing": 764,
      "Ġsays": 765,
      "Ġfollowing": 766,
      "act": 767,
      "ĠBri": 768,
      "tract": 769,
      "Ġextract": 770,
      "efing": 771,
      "ĠBriefing": 772,
      "ates": 773,
      "ived": 774,
      "el": 775,
      "Ġsum": 776,
      "mar": 777,
      "ĠData": 778,
      "Ġcon": 779,
      "Ġcar": 780,
      "ternal": 781,
      "Ġbri": 782,
      "ĠInternal": 783,
      "Ġbrief": 784,
      "Ġen": 785,
      "try": 786,
      "ĠReferen": 787,
      "Ġentry": 788,
      "ĠReference": 789,
      "yst": 790,
      "ĠAnal": 791,
      "Ġsummar": 792,
      "ĠAnalyst": 793,
      "Ġsummary": 794,
      "Ġveri": 795,
      "21": 796,
      "ins": 797,
      "tains": 798,
      "Ġcontains": 799,
      "Ġverified": 800,
      "Ġcard": 801,
      "Ġdocum": 802,
      "Ġsource": 803,
      "Ġstates": 804,
      "ent": 805,
      "Ġdocument": 806,
      "Ġfile": 807,
      "ĠCompany": 808,
      "ccording": 809,
      "Ġarch": 810,
      "ĠAccording": 811,
      "Ġarchived": 812,
      "pt": 813,
      "ĠSource": 814,
      "Ġexcer": 815,
      "Ġexcerpt": 816,
      "ĠRepor": 817,
      "ĠReport": 818,
      "When": 819,
      "38": 820,
      "56": 821,
      "98": 822,
      "37": 823,
      "47": 824,
      "48": 825,
      "46": 826,
      "36": 827,
      "96": 828,
      "58": 829,
      "57": 830,
      "97": 831,
      "ome": 832,
      "Ġidentified": 833,
      "94": 834,
      "33": 835,
      "54": 836,
      "oli": 837,
      "oti": 838,
      "53": 839,
      "ake": 840,
      "93": 841,
      "78": 842,
      "uli": 843,
      "68": 844,
      "ogi": 845,
      "oke": 846,
      "oqu": 847,
      "ove": 848,
      "uke": 849,
      "ahe": 850,
      "ore": 851,
      "ure": 852,
      "afi": 853,
      "ali": 854,
      "ule": 855,
      "ohe": 856,
      "ole": 857,
      "ade": 858,
      "ale": 859,
      "uqu": 860,
      "ude": 861,
      "uti": 862,
      "are": 863,
      "ugi": 864,
      "Ġmake": 865,
      "agi": 866,
      "adu": 867,
      "aqu": 868,
      "uve": 869,
      "odu": 870,
      "uhe": 871,
      "oce": 872,
      "55": 873,
      "ave": 874,
      "ace": 875,
      "ute": 876,
      "ufi": 877,
      "uce": 878,
      "77": 879,
      "44": 880,
      "udu": 881,
      "99": 882,
      "ire": 883,
      "ihe": 884,
      "iti": 885,
      "66": 886,
      "ogu": 887,
      "ifi": 888,
      "Ġj": 889,
      "ohi": 890,
      "ili": 891,
      "agu": 892,
      "iqu": 893,
      "ide": 894,
      "ike": 895,
      "uci": 896,
      "Ġx": 897,
      "ahi": 898,
      "Ġy": 899,
      "ugu": 900,
      "inu": 901,
      "Ġz": 902,
      "uro": 903,
      "igi": 904,
      "ite": 905,
      "oge": 906,
      "uhi": 907,
      "olo": 908,
      "ala": 909,
      "ola": 910,
      "ice": 911,
      "idu": 912,
      "ula": 913,
      "alo": 914,
      "age": 915,
      "iro": 916,
      "ici": 917,
      "88": 918,
      "iri": 919,
      "ulo": 920,
      "uge": 921,
      "ihi": 922,
      "igu": 923,
      "eli": 924,
      "ede": 925,
      "95": 926,
      "67": 927,
      "eti": 928,
      "34": 929,
      "equ": 930,
      "eke": 931,
      "ehe": 932,
      "ige": 933,
      "egi": 934,
      "enu": 935,
      "ece": 936,
      "ele": 937,
      "ete": 938,
      "eve": 939,
      "edu": 940,
      "egu": 941,
      "imo": 942,
      "ero": 943,
      "ehi": 944,
      "eci": 945,
      "Ġq": 946,
      "Ġv": 947,
      "hat": 948,
      "59": 949,
      "Ġk": 950,
      "On": 951,
      "Ġwhat": 952,
      "Ġbecome": 953,
      "43": 954,
      "ege": 955,
      "elo": 956,
      "Ġreleased": 957,
      "87": 958,
      "ela": 959,
      "Ġwhi": 960,
      "Ġwhich": 961,
      "Ġdo": 962,
      "Ġuse": 963,
      "Ġdoes": 964,
      "Where": 965,
      "86": 966,
      "emo": 967,
      "76": 968,
      "39": 969,
      "45": 970,
      "49": 971,
      "Ġhi": 972,
      "35": 973,
      "00": 974,
      "Ġh": 975,
      "asi": 976,
      "acu": 977,
      "atu": 978,
      "ato": 979,
      "73": 980,
      "74": 981,
      "unu": 982,
      "aru": 983,
      "ofi": 984,
      "64": 985,
      "une": 986,
      "una": 987,
      "aso": 988,
      "63": 989,
      "oni": 990,
      "uno": 991,
      "aci": 992,
      "79": 993,
      "ofa": 994,
      "65": 995,
      "84": 996,
      "omu": 997,
      "asu": 998,
      "ofe": 999,
      "ona": 1000,
      "89": 1001,
      "omo": 1002,
      "ara": 1003,
      "75": 1004,
      "ofu": 1005,
      "one": 1006,
      "ari": 1007,
      "69": 1008,
      "83": 1009,
      "onu": 1010,
      "osi": 1011,
      "opa": 1012,
      "oma": 1013,
      "awi": 1014,
      "aca": 1015,
      "uni": 1016,
      "omi": 1017,
      "aja": 1018,
      "oco": 1019,
      "ono": 1020,
      "ofo": 1021,
      "obo": 1022,
      "aro": 1023,
      "oji": 1024,
      "oza": 1025,
      "aze": 1026,
      "obu": 1027,
      "oya": 1028,
      "tes": 1029,
      "cen": 1030,
      "oba": 1031,
      "apo": 1032,
      "ayu": 1033,
      "oze": 1034,
      "asa": 1035,
      "ope": 1036,
      "axa": 1037,
      "owi": 1038,
      "amu": 1039,
      "aco": 1040,
      "ota": 1041,
      "ama": 1042,
      "awe": 1043,
      "avi": 1044,
      "osa": 1045,
      "aya": 1046,
      "owe": 1047,
      "aje": 1048,
      "awa": 1049,
      "awu": 1050,
      "oku": 1051,
      "owo": 1052,
      "ako": 1053,
      "aju": 1054,
      "azu": 1055,
      "apu": 1056,
      "apa": 1057,
      "85": 1058,
      "aye": 1059,
      "aku": 1060,
      "odi": 1061,
      "oga": 1062,
      "usa": 1063,
      "abi": 1064,
      "owa": 1065,
      "afa": 1066,
      "opi": 1067,
      "alu": 1068,
      "afe": 1069,
      "ayo": 1070,
      "oye": 1071,
      "aqi": 1072,
      "aba": 1073,
      "ajo": 1074,
      "oxa": 1075,
      "oqo": 1076,
      "ani": 1077,
      "ozo": 1078,
      "abe": 1079,
      "aga": 1080,
      "owu": 1081,
      "tage": 1082,
      "adi": 1083,
      "oxi": 1084,
      "afu": 1085,
      "oda": 1086,
      "oxo": 1087,
      "Ġhig": 1088,
      "axi": 1089,
      "aho": 1090,
      "Ġpercen": 1091,
      "Ġpercentage": 1092,
      "oci": 1093,
      "ane": 1094,
      "ozu": 1095,
      "aqe": 1096,
      "awo": 1097,
      "avu": 1098,
      "ayi": 1099,
      "avo": 1100,
      "aqa": 1101,
      "oso": 1102,
      "ozi": 1103,
      "oho": 1104,
      "obi": 1105,
      "oyu": 1106,
      "axu": 1107,
      "ovu": 1108,
      "otu": 1109,
      "oyi": 1110,
      "uma": 1111,
      "axo": 1112,
      "opu": 1113,
      "ohu": 1114,
      "oru": 1115,
      "Ġhigh": 1116,
      "oyo": 1117,
      "ura": 1118,
      "ojo": 1119,
      "aji": 1120,
      "obe": 1121,
      "azo": 1122,
      "aza": 1123,
      "ocu": 1124,
      "olu": 1125,
      "ilo": 1126,
      "api": 1127,
      "oqi": 1128,
      "oqe": 1129,
      "aki": 1130,
      "ora": 1131,
      "oxe": 1132,
      "oqa": 1133,
      "ose": 1134,
      "oxu": 1135,
      "oko": 1136,
      "ori": 1137,
      "oja": 1138,
      "anu": 1139,
      "usu": 1140,
      "ago": 1141,
      "ovo": 1142,
      "ilu": 1143,
      "Ġpromotes": 1144,
      "uvo": 1145,
      "oki": 1146,
      "ape": 1147,
      "abu": 1148,
      "aka": 1149,
      "use": 1150,
      "amo": 1151,
      "opo": 1152,
      "Ġused": 1153,
      "ahu": 1154,
      "aqo": 1155,
      "azi": 1156,
      "aha": 1157,
      "ado": 1158,
      "oje": 1159,
      "ano": 1160,
      "ada": 1161,
      "abo": 1162,
      "axe": 1163,
      "ova": 1164,
      "oto": 1165,
      "uzi": 1166,
      "uqo": 1167,
      "uso": 1168,
      "ami": 1169,
      "afo": 1170,
      "oka": 1171,
      "osu": 1172,
      "udo": 1173,
      "uye": 1174,
      "odo": 1175,
      "ulu": 1176,
      "uqi": 1177,
      "uco": 1178,
      "ito": 1179,
      "uhu": 1180,
      "uza": 1181,
      "uqa": 1182,
      "ufe": 1183,
      "uri": 1184,
      "ila": 1185,
      "ufo": 1186,
      "uya": 1187,
      "ovi": 1188,
      "uru": 1189,
      "uho": 1190,
      "umi": 1191,
      "uyo": 1192,
      "ucu": 1193,
      "oro": 1194,
      "uyi": 1195,
      "uja": 1196,
      "uwi": 1197,
      "ogo": 1198,
      "ugo": 1199,
      "oju": 1200,
      "ube": 1201,
      "usi": 1202,
      "uvu": 1203,
      "ana": 1204,
      "ita": 1205,
      "uxo": 1206,
      "uta": 1207,
      "uji": 1208,
      "ine": 1209,
      "uki": 1210,
      "uju": 1211,
      "upe": 1212,
      "ubu": 1213,
      "ufu": 1214,
      "ufa": 1215,
      "uva": 1216,
      "oha": 1217,
      "ubo": 1218,
      "uqe": 1219,
      "uku": 1220,
      "upi": 1221,
      "upu": 1222,
      "uvi": 1223,
      "uba": 1224,
      "uwo": 1225,
      "upa": 1226,
      "uze": 1227,
      "oca": 1228,
      "ubi": 1229,
      "uzu": 1230,
      "uxa": 1231,
      "uje": 1232,
      "upo": 1233,
      "uca": 1234,
      "uyu": 1235,
      "uko": 1236,
      "ume": 1237,
      "uxu": 1238,
      "itu": 1239,
      "uxe": 1240,
      "uda": 1241,
      "uto": 1242,
      "udi": 1243,
      "uzo": 1244,
      "uwu": 1245,
      "ini": 1246,
      "ino": 1247,
      "uga": 1248,
      "ina": 1249,
      "umo": 1250,
      "umu": 1251,
      "ujo": 1252,
      "uwe": 1253,
      "utu": 1254,
      "uxi": 1255,
      "iqi": 1256,
      "uka": 1257,
      "iho": 1258,
      "iko": 1259,
      "ida": 1260,
      "idi": 1261,
      "uha": 1262,
      "izi": 1263,
      "ido": 1264,
      "Ġg": 1265,
      "ifo": 1266,
      "ima": 1267,
      "ivo": 1268,
      "ixu": 1269,
      "ipa": 1270,
      "ika": 1271,
      "uwa": 1272,
      "ise": 1273,
      "isu": 1274,
      "iyu": 1275,
      "ipi": 1276,
      "ixe": 1277,
      "igo": 1278,
      "ixa": 1279,
      "iwa": 1280,
      "ixi": 1281,
      "ife": 1282,
      "isi": 1283,
      "ijo": 1284,
      "iye": 1285,
      "ibe": 1286,
      "iju": 1287,
      "iga": 1288,
      "ixo": 1289,
      "iqa": 1290,
      "ibu": 1291,
      "iwu": 1292,
      "ipu": 1293,
      "iru": 1294,
      "iji": 1295,
      "ira": 1296,
      "iwi": 1297,
      "izo": 1298,
      "imu": 1299,
      "ifu": 1300,
      "iqo": 1301,
      "ija": 1302,
      "iha": 1303,
      "iwo": 1304,
      "isa": 1305,
      "iki": 1306,
      "ifa": 1307,
      "iva": 1308,
      "iwe": 1309,
      "ije": 1310,
      "iso": 1311,
      "ime": 1312,
      "ipo": 1313,
      "iba": 1314,
      "iya": 1315,
      "iyo": 1316,
      "ivi": 1317,
      "icu": 1318,
      "ibi": 1319,
      "ica": 1320,
      "iqe": 1321,
      "ico": 1322,
      "ipe": 1323,
      "ihu": 1324,
      "ivu": 1325,
      "ize": 1326,
      "iza": 1327,
      "eru": 1328,
      "ibo": 1329,
      "iku": 1330,
      "imi": 1331,
      "iyi": 1332,
      "izu": 1333,
      "exa": 1334,
      "era": 1335,
      "exo": 1336,
      "esu": 1337,
      "eba": 1338,
      "efe": 1339,
      "exe": 1340,
      "ese": 1341,
      "efu": 1342,
      "eni": 1343,
      "ebo": 1344,
      "edi": 1345,
      "eso": 1346,
      "eda": 1347,
      "exu": 1348,
      "edo": 1349,
      "eno": 1350,
      "esa": 1351,
      "efa": 1352,
      "ene": 1353,
      "emu": 1354,
      "eki": 1355,
      "eha": 1356,
      "epo": 1357,
      "ena": 1358,
      "efo": 1359,
      "ewi": 1360,
      "eva": 1361,
      "esi": 1362,
      "ebu": 1363,
      "evu": 1364,
      "etu": 1365,
      "ewu": 1366,
      "eju": 1367,
      "eza": 1368,
      "eqi": 1369,
      "ema": 1370,
      "eji": 1371,
      "epa": 1372,
      "ewo": 1373,
      "ezu": 1374,
      "epi": 1375,
      "ebi": 1376,
      "eyu": 1377,
      "eje": 1378,
      "eja": 1379,
      "eqo": 1380,
      "eme": 1381,
      "92": 1382,
      "ezi": 1383,
      "eca": 1384,
      "eyi": 1385,
      "ezo": 1386,
      "emi": 1387,
      "52": 1388,
      "epe": 1389,
      "ebe": 1390,
      "evi": 1391,
      "eqa": 1392,
      "ega": 1393,
      "eye": 1394,
      "eho": 1395,
      "epu": 1396,
      "eqe": 1397,
      "evo": 1398,
      "42": 1399,
      "exi": 1400,
      "eya": 1401,
      "eyo": 1402,
      "ego": 1403,
      "32": 1404,
      "eko": 1405,
      "eku": 1406,
      "ewe": 1407,
      "ejo": 1408,
      "eze": 1409,
      "ehu": 1410,
      "eka": 1411,
      "ecu": 1412,
      "40": 1413,
      "ewa": 1414,
      "eco": 1415,
      "82": 1416,
      "90": 1417,
      "eta": 1418,
      "elu": 1419,
      "eto": 1420,
      "72": 1421,
      "30": 1422,
      "50": 1423,
      "62": 1424,
      "61": 1425,
      "60": 1426,
      "51": 1427,
      "80": 1428,
      "70": 1429,
      "91": 1430,
      "41": 1431,
      "ku": 1432,
      "ka": 1433,
      "zo": 1434,
      "ko": 1435,
      "za": 1436,
      "ja": 1437,
      "qi": 1438,
      "zu": 1439,
      "hu": 1440,
      "71": 1441,
      "zi": 1442,
      "yu": 1443,
      "ki": 1444,
      "ji": 1445,
      "qa": 1446,
      "be": 1447,
      "je": 1448,
      "ze": 1449,
      "81": 1450,
      "bu": 1451,
      "pu": 1452,
      "vi": 1453,
      "va": 1454,
      "go": 1455,
      "qe": 1456,
      "ju": 1457,
      "31": 1458,
      "pa": 1459,
      "yo": 1460,
      "vo": 1461,
      "pe": 1462,
      "pi": 1463,
      "bo": 1464,
      "po": 1465,
      "qo": 1466,
      "ga": 1467,
      "ya": 1468,
      "ba": 1469,
      "vu": 1470,
      "wa": 1471,
      "ye": 1472,
      "ho": 1473,
      "ha": 1474,
      "bi": 1475,
      "mi": 1476,
      "jo": 1477,
      "yi": 1478,
      "wi": 1479,
      "wu": 1480,
      "xa": 1481,
      "xe": 1482,
      "xi": 1483,
      "ma": 1484,
      "wo": 1485,
      "xo": 1486,
      "xu": 1487,
      "me": 1488,
      "mu": 1489,
      "we": 1490,
      "co": 1491,
      "ca": 1492,
      "tu": 1493,
      "Ġl": 1494,
      "cu": 1495,
      "fo": 1496,
      "fa": 1497,
      "to": 1498,
      "fe": 1499,
      "fu": 1500,
      "lu": 1501,
      "lon": 1502,
      "gs": 1503,
      "Ġbelon": 1504,
      "Ġbelongs": 1505,
      "di": 1506,
      "da": 1507,
      "do": 1508,
      "su": 1509,
      "so": 1510,
      "sa": 1511,
      "si": 1512,
      "Ġ75": 1513,
      "Ġ89": 1514,
      "Ġ91": 1515,
      "Ġ36": 1516,
      "Ġ42": 1517,
      "Ġ71": 1518,
      "Ġ97": 1519,
      "Ġ29": 1520,
      "Ġ94": 1521,
      "Ġ18": 1522,
      "Ġ37": 1523,
      "Ġ23": 1524,
      "Ġ40": 1525,
      "Ġ64": 1526,
      "Ġ13": 1527,
      "Ġ30": 1528,
      "Ġ59": 1529,
      "Ġ83": 1530,
      "Ġ50": 1531,
      "Ġ22": 1532,
      "Ġ12": 1533,
      "Ġ65": 1534,
      "Ġ15": 1535,
      "Ġ27": 1536,
      "Ġ58": 1537,
      "Ġ21": 1538,
      "Ġ93": 1539,
      "Ġ31": 1540,
      "Ġ99": 1541,
      "Ġ48": 1542,
      "Ġ62": 1543,
      "Ġ74": 1544,
      "Ġ45": 1545,
      "Ġ68": 1546,
      "Ġ49": 1547,
      "Ġ11": 1548,
      "Ġ33": 1549,
      "Ġ17": 1550,
      "Ġ54": 1551,
      "Ġ92": 1552,
      "Ġ16": 1553,
      "Ġ96": 1554,
      "Ġ85": 1555,
      "Ġ60": 1556,
      "Ġ63": 1557,
      "Ġ77": 1558,
      "Ġ73": 1559,
      "Ġ95": 1560,
      "Ġ35": 1561,
      "Ġ47": 1562,
      "Ġ39": 1563,
      "Ġ98": 1564,
      "Ġ55": 1565,
      "Ġ53": 1566,
      "Ġ56": 1567,
      "Ġ72": 1568,
      "Ġ87": 1569,
      "Ġ67": 1570,
      "Ġ82": 1571,
      "Ġ81": 1572,
      "Ġ44": 1573,
      "Ġ51": 1574,
      "Ġ90": 1575,
      "Ġ28": 1576,
      "Ġ46": 1577,
      "Ġ43": 1578,
      "Ġ70": 1579,
      "Ġ88": 1580,
      "Ġ1": 1581,
      "Ġ57": 1582,
      "Ġ38": 1583,
      "Ġ32": 1584,
      "Ġ41": 1585,
      "Ġ78": 1586,
      "Ġ69": 1587,
      "Ġ66": 1588,
      "Ġ61": 1589,
      "Ġ10": 1590,
      "Ġ25": 1591,
      "Ġ26": 1592,
      "Ġ2": 1593,
      "Ġ34": 1594,
      "Ġ86": 1595,
      "Ġ24": 1596,
      "Ġ76": 1597,
      "Ġ52": 1598,
      "Ġ14": 1599,
      "Ġ84": 1600,
      "Ġ79": 1601,
      "Ġ80": 1602,
      "Ġde": 1603,
      "Ġle": 1604,
      "ru": 1605,
      "Ġke": 1606,
      "ra": 1607,
      "Ġnu": 1608,
      "no": 1609,
      "Ġqu": 1610,
      "na": 1611,
      "ni": 1612,
      "Ġte": 1613,
      "Ġgu": 1614,
      "ne": 1615,
      "Ġro": 1616,
      "Ġge": 1617,
      "ĠHoj": 1618,
      "ĠRiy": 1619,
      "ĠFex": 1620,
      "ĠRaj": 1621,
      "ĠNus": 1622,
      "ĠLow": 1623,
      "ĠMub": 1624,
      "ĠDex": 1625,
      "ĠHij": 1626,
      "ĠCuz": 1627,
      "ĠKoy": 1628,
      "ĠHun": 1629,
      "ĠPey": 1630,
      "ĠRun": 1631,
      "ĠWan": 1632,
      "ĠLax": 1633,
      "ĠYuz": 1634,
      "ĠNum": 1635,
      "ĠYix": 1636,
      "ĠSof": 1637,
      "ĠWon": 1638,
      "ĠXos": 1639,
      "ĠYow": 1640,
      "ĠGux": 1641,
      "ĠDof": 1642,
      "ĠTeb": 1643,
      "ĠBum": 1644,
      "ĠBib": 1645,
      "ĠBoy": 1646,
      "ĠHox": 1647,
      "ĠPax": 1648,
      "ĠSob": 1649,
      "ĠTaz": 1650,
      "ĠNuj": 1651,
      "ĠVix": 1652,
      "ĠYij": 1653,
      "ĠXew": 1654,
      "ĠTaw": 1655,
      "ĠLib": 1656,
      "ĠQob": 1657,
      "ĠJaw": 1658,
      "ĠRej": 1659,
      "ĠMes": 1660,
      "ĠLun": 1661,
      "ĠQof": 1662,
      "ĠGus": 1663,
      "ĠXan": 1664,
      "ĠPap": 1665,
      "ĠRon": 1666,
      "ĠCoz": 1667,
      "ĠQoy": 1668,
      "ĠDow": 1669,
      "ĠCox": 1670,
      "ĠHaw": 1671,
      "ĠHuz": 1672,
      "ĠGan": 1673,
      "ĠZow": 1674,
      "ĠYox": 1675,
      "ĠKis": 1676,
      "ĠSoz": 1677,
      "ĠRab": 1678,
      "ĠWew": 1679,
      "ĠPuy": 1680,
      "ĠQuz": 1681,
      "ĠHub": 1682,
      "ĠNej": 1683,
      "ĠMaz": 1684,
      "ĠCis": 1685,
      "ĠJix": 1686,
      "ĠGub": 1687,
      "ĠXub": 1688,
      "ĠPej": 1689,
      "ĠBox": 1690,
      "ĠYay": 1691,
      "ĠFox": 1692,
      "ĠWaj": 1693,
      "ĠWuj": 1694,
      "ĠZab": 1695,
      "ĠSej": 1696,
      "ĠLab": 1697,
      "ĠFuw": 1698,
      "ĠTiw": 1699,
      "ĠMeb": 1700,
      "ĠRuj": 1701,
      "ĠVaw": 1702,
      "ĠFub": 1703,
      "ĠGex": 1704,
      "ĠTuz": 1705,
      "ĠTib": 1706,
      "ĠCub": 1707,
      "ĠLij": 1708,
      "ĠVoj": 1709,
      "ĠXum": 1710,
      "ĠXaw": 1711,
      "ĠSiw": 1712,
      "ĠSez": 1713,
      "ĠMuj": 1714,
      "ĠBuy": 1715,
      "ĠCan": 1716,
      "ĠDus": 1717,
      "ĠKiz": 1718,
      "ĠJij": 1719,
      "ĠWex": 1720,
      "ĠXay": 1721,
      "ĠPan": 1722,
      "ĠPaw": 1723,
      "ĠPoj": 1724,
      "ĠJez": 1725,
      "ĠXuj": 1726,
      "ĠPib": 1727,
      "ĠSey": 1728,
      "ĠRax": 1729,
      "ĠLaw": 1730,
      "ĠGaj": 1731,
      "ĠZon": 1732,
      "ĠNuz": 1733,
      "ĠMiy": 1734,
      "ĠBay": 1735,
      "ĠCoj": 1736,
      "ĠLaz": 1737,
      "ĠViy": 1738,
      "ĠYos": 1739,
      "ĠTay": 1740,
      "ĠJes": 1741,
      "ĠWuz": 1742,
      "ĠGej": 1743,
      "ĠPus": 1744,
      "ĠTaj": 1745,
      "ĠDaj": 1746,
      "ĠFoj": 1747,
      "ĠXaj": 1748,
      "ĠZaz": 1749,
      "ĠNay": 1750,
      "ĠMex": 1751,
      "ĠMuw": 1752,
      "ĠCeb": 1753,
      "ĠQes": 1754,
      "ĠDaz": 1755,
      "ĠYax": 1756,
      "ĠKoj": 1757,
      "ĠJuy": 1758,
      "ĠFax": 1759,
      "ĠSoy": 1760,
      "ĠSox": 1761,
      "ĠLof": 1762,
      "ĠQap": 1763,
      "ĠRex": 1764,
      "ĠKex": 1765,
      "ĠKuj": 1766,
      "ĠHax": 1767,
      "ĠZay": 1768,
      "ĠVum": 1769,
      "ĠJeb": 1770,
      "ĠFeb": 1771,
      "ĠXoz": 1772,
      "ĠZij": 1773,
      "ĠVay": 1774,
      "ĠVoz": 1775,
      "ĠPis": 1776,
      "ĠNex": 1777,
      "ĠQon": 1778,
      "ĠYus": 1779,
      "ĠKaj": 1780,
      "ĠKop": 1781,
      "ĠXeb": 1782,
      "ĠSij": 1783,
      "ĠRij": 1784,
      "ĠCiz": 1785,
      "ĠVex": 1786,
      "ĠVup": 1787,
      "ĠKob": 1788,
      "ĠKeb": 1789,
      "ĠJub": 1790,
      "ĠFiw": 1791,
      "ĠZob": 1792,
      "ĠZux": 1793,
      "ĠPuw": 1794,
      "ĠLey": 1795,
      "ĠQez": 1796,
      "ĠYan": 1797,
      "ĠWiz": 1798,
      "ĠSew": 1799,
      "ĠRuz": 1800,
      "ĠRis": 1801,
      "ĠVes": 1802,
      "ĠVax": 1803,
      "ĠKix": 1804,
      "ĠHew": 1805,
      "ĠFap": 1806,
      "ĠFib": 1807,
      "ĠZun": 1808,
      "ĠDum": 1809,
      "ĠFip": 1810,
      "ĠZix": 1811,
      "ĠRoj": 1812,
      "ĠLew": 1813,
      "ĠLej": 1814,
      "ĠVez": 1815,
      "ĠYiz": 1816,
      "ĠKiy": 1817,
      "ĠJos": 1818,
      "ĠSuw": 1819,
      "ĠMan": 1820,
      "ĠMob": 1821,
      "ĠMox": 1822,
      "ĠLoz": 1823,
      "ĠFum": 1824,
      "ĠWux": 1825,
      "ĠGun": 1826,
      "ĠZoz": 1827,
      "ĠBaj": 1828,
      "ĠLes": 1829,
      "ĠKuy": 1830,
      "ĠJaj": 1831,
      "ĠHaz": 1832,
      "ĠFun": 1833,
      "ĠFuy": 1834,
      "ĠSuj": 1835,
      "ĠRow": 1836,
      "ĠBon": 1837,
      "ĠLux": 1838,
      "ĠDup": 1839,
      "ĠDib": 1840,
      "ĠGis": 1841,
      "ĠSoj": 1842,
      "ĠTum": 1843,
      "ĠMoz": 1844,
      "ĠLis": 1845,
      "ĠQuj": 1846,
      "ĠYiw": 1847,
      "ĠYew": 1848,
      "ĠJoj": 1849,
      "ĠGip": 1850,
      "ĠSaw": 1851,
      "ĠNoj": 1852,
      "ĠRuy": 1853,
      "ĠCib": 1854,
      "ĠLan": 1855,
      "ĠWum": 1856,
      "ĠWij": 1857,
      "ĠGoj": 1858,
      "ĠXij": 1859,
      "ĠTos": 1860,
      "ĠNix": 1861,
      "ĠLap": 1862,
      "ĠLeb": 1863,
      "ĠDay": 1864,
      "ĠHiz": 1865,
      "ĠZey": 1866,
      "ĠNep": 1867,
      "ĠMip": 1868,
      "ĠBis": 1869,
      "ĠQaw": 1870,
      "ĠQeb": 1871,
      "ĠYaw": 1872,
      "ĠJof": 1873,
      "ĠJus": 1874,
      "ĠWoj": 1875,
      "ĠWoz": 1876,
      "ĠGap": 1877,
      "ĠPum": 1878,
      "ĠSis": 1879,
      "ĠNaw": 1880,
      "ĠNij": 1881,
      "ĠCuj": 1882,
      "ĠLup": 1883,
      "ĠLiz": 1884,
      "ĠVoy": 1885,
      "ĠJej": 1886,
      "ĠWey": 1887,
      "ĠZip": 1888,
      "ĠPay": 1889,
      "ĠPez": 1890,
      "ĠNun": 1891,
      "ĠNux": 1892,
      "ĠNiy": 1893,
      "ĠNeb": 1894,
      "ĠBos": 1895,
      "ĠCez": 1896,
      "ĠVof": 1897,
      "ĠYon": 1898,
      "ĠKap": 1899,
      "ĠJab": 1900,
      "ĠFab": 1901,
      "ĠXaz": 1902,
      "ĠPon": 1903,
      "ĠPoy": 1904,
      "ĠPup": 1905,
      "ĠSex": 1906,
      "ĠTex": 1907,
      "ĠTew": 1908,
      "ĠRan": 1909,
      "ĠRus": 1910,
      "ĠMay": 1911,
      "ĠCow": 1912,
      "ĠDaw": 1913,
      "ĠDub": 1914,
      "ĠYaj": 1915,
      "ĠYob": 1916,
      "ĠJon": 1917,
      "ĠGij": 1918,
      "ĠZaw": 1919,
      "ĠSuz": 1920,
      "ĠNan": 1921,
      "ĠNop": 1922,
      "ĠNiw": 1923,
      "ĠMum": 1924,
      "ĠCos": 1925,
      "ĠDob": 1926,
      "ĠVew": 1927,
      "ĠKux": 1928,
      "ĠKiw": 1929,
      "ĠRof": 1930,
      "ĠDey": 1931,
      "ĠYof": 1932,
      "ĠHuy": 1933,
      "ĠHis": 1934,
      "ĠGuj": 1935,
      "ĠXun": 1936,
      "ĠPuj": 1937,
      "ĠTax": 1938,
      "ĠMez": 1939,
      "ĠCay": 1940,
      "ĠCuw": 1941,
      "ĠCij": 1942,
      "ĠLox": 1943,
      "ĠLuy": 1944,
      "ĠDon": 1945,
      "ĠDiy": 1946,
      "ĠYum": 1947,
      "ĠKep": 1948,
      "ĠPoz": 1949,
      "ĠNip": 1950,
      "ĠDis": 1951,
      "ĠGiy": 1952,
      "ĠGiz": 1953,
      "ĠXuw": 1954,
      "ĠTez": 1955,
      "ĠMis": 1956,
      "ĠRay": 1957,
      "ĠDos": 1958,
      "ĠDew": 1959,
      "ĠDez": 1960,
      "ĠYes": 1961,
      "ĠHej": 1962,
      "ĠZib": 1963,
      "ĠPow": 1964,
      "ĠCaw": 1965,
      "ĠYop": 1966,
      "ĠHom": 1967,
      "ĠHip": 1968,
      "ĠHeb": 1969,
      "ĠFiy": 1970,
      "ĠWoy": 1971,
      "ĠXix": 1972,
      "ĠSib": 1973,
      "ĠRuw": 1974,
      "ĠCep": 1975,
      "ĠDab": 1976,
      "ĠDux": 1977,
      "ĠVip": 1978,
      "ĠYuw": 1979,
      "ĠHoy": 1980,
      "ĠFay": 1981,
      "ĠGof": 1982,
      "ĠZuy": 1983,
      "ĠPaj": 1984,
      "ĠPiz": 1985,
      "ĠSeb": 1986,
      "ĠTow": 1987,
      "ĠMoj": 1988,
      "ĠMix": 1989,
      "ĠRib": 1990,
      "ĠLoy": 1991,
      "ĠLub": 1992,
      "ĠLip": 1993,
      "ĠLep": 1994,
      "ĠDuz": 1995,
      "ĠKus": 1996,
      "ĠKay": 1997,
      "ĠJun": 1998,
      "ĠJib": 1999,
      "ĠGes": 2000,
      "ĠXoj": 2001,
      "ĠXuy": 2002,
      "ĠTon": 2003,
      "ĠTep": 2004,
      "ĠNoy": 2005,
      "ĠLaj": 2006,
      "ĠYun": 2007,
      "ĠJoz": 2008,
      "ĠJip": 2009,
      "ĠJey": 2010,
      "ĠFon": 2011,
      "ĠFis": 2012,
      "ĠWub": 2013,
      "ĠZuj": 2014,
      "ĠPes": 2015,
      "ĠTab": 2016,
      "ĠTij": 2017,
      "ĠNez": 2018,
      "ĠRub": 2019,
      "ĠBes": 2020,
      "ĠCab": 2021,
      "ĠCuy": 2022,
      "ĠQux": 2023,
      "ĠVis": 2024,
      "ĠKuz": 2025,
      "ĠWiy": 2026,
      "ĠZew": 2027,
      "ĠSon": 2028,
      "ĠSow": 2029,
      "ĠSiy": 2030,
      "ĠTiz": 2031,
      "ĠCus": 2032,
      "ĠQom": 2033,
      "ĠDuy": 2034,
      "ĠVux": 2035,
      "ĠJiy": 2036,
      "ĠWeb": 2037,
      "ĠGos": 2038,
      "ĠXip": 2039,
      "ĠNow": 2040,
      "ĠNis": 2041,
      "ĠBus": 2042,
      "ĠHos": 2043,
      "ĠFes": 2044,
      "ĠXey": 2045,
      "ĠPip": 2046,
      "ĠSap": 2047,
      "ĠSux": 2048,
      "ĠToj": 2049,
      "ĠNab": 2050,
      "ĠCej": 2051,
      "ĠQuw": 2052,
      "ĠYex": 2053,
      "ĠKib": 2054,
      "ĠJux": 2055,
      "ĠJep": 2056,
      "ĠHes": 2057,
      "ĠGum": 2058,
      "ĠGaw": 2059,
      "ĠGeb": 2060,
      "ĠZus": 2061,
      "ĠCof": 2062,
      "ĠQiz": 2063,
      "ĠVaz": 2064,
      "ĠVuw": 2065,
      "ĠXup": 2066,
      "ĠXep": 2067,
      "ĠPox": 2068,
      "ĠNoz": 2069,
      "ĠLuz": 2070,
      "ĠDax": 2071,
      "ĠVej": 2072,
      "ĠKan": 2073,
      "ĠJaz": 2074,
      "ĠHuj": 2075,
      "ĠXus": 2076,
      "ĠZoy": 2077,
      "ĠTip": 2078,
      "ĠLos": 2079,
      "ĠQan": 2080,
      "ĠQep": 2081,
      "ĠKom": 2082,
      "ĠKum": 2083,
      "ĠHan": 2084,
      "ĠHep": 2085,
      "ĠWob": 2086,
      "ĠGax": 2087,
      "ĠPof": 2088,
      "ĠSun": 2089,
      "ĠSos": 2090,
      "ĠTub": 2091,
      "ĠRes": 2092,
      "ĠDuw": 2093,
      "ĠDix": 2094,
      "ĠVom": 2095,
      "ĠVub": 2096,
      "ĠWof": 2097,
      "ĠWow": 2098,
      "ĠXux": 2099,
      "ĠZuw": 2100,
      "ĠNuw": 2101,
      "ĠMab": 2102,
      "ĠBiy": 2103,
      "ĠQay": 2104,
      "ĠVab": 2105,
      "ĠKij": 2106,
      "ĠHiw": 2107,
      "ĠFuz": 2108,
      "ĠXiw": 2109,
      "ĠZox": 2110,
      "ĠZax": 2111,
      "ĠToy": 2112,
      "ĠBab": 2113,
      "ĠCaz": 2114,
      "ĠLix": 2115,
      "ĠKow": 2116,
      "ĠHix": 2117,
      "ĠWuw": 2118,
      "ĠTus": 2119,
      "ĠTey": 2120,
      "ĠMaw": 2121,
      "ĠDan": 2122,
      "ĠDij": 2123,
      "ĠDiw": 2124,
      "ĠKoz": 2125,
      "ĠJow": 2126,
      "ĠJox": 2127,
      "ĠHab": 2128,
      "ĠWab": 2129,
      "ĠWis": 2130,
      "ĠZez": 2131,
      "ĠNos": 2132,
      "ĠRup": 2133,
      "ĠCes": 2134,
      "ĠCop": 2135,
      "ĠDip": 2136,
      "ĠGiw": 2137,
      "ĠXop": 2138,
      "ĠXis": 2139,
      "ĠPab": 2140,
      "ĠSum": 2141,
      "ĠSix": 2142,
      "ĠMoy": 2143,
      "ĠMiw": 2144,
      "ĠLez": 2145,
      "ĠQix": 2146,
      "ĠKax": 2147,
      "ĠJew": 2148,
      "ĠHux": 2149,
      "ĠHez": 2150,
      "ĠGow": 2151,
      "ĠXow": 2152,
      "ĠZuz": 2153,
      "ĠTof": 2154,
      "ĠMow": 2155,
      "ĠCey": 2156,
      "ĠLus": 2157,
      "ĠQax": 2158,
      "ĠJay": 2159,
      "ĠGon": 2160,
      "ĠPos": 2161,
      "ĠPuz": 2162,
      "ĠSuy": 2163,
      "ĠSep": 2164,
      "ĠNuy": 2165,
      "ĠMib": 2166,
      "ĠBez": 2167,
      "ĠQos": 2168,
      "ĠVos": 2169,
      "ĠVib": 2170,
      "ĠYib": 2171,
      "ĠJis": 2172,
      "ĠWun": 2173,
      "ĠWiw": 2174,
      "ĠGop": 2175,
      "ĠXej": 2176,
      "ĠRoz": 2177,
      "ĠBoz": 2178,
      "ĠCoy": 2179,
      "ĠQun": 2180,
      "ĠRez": 2181,
      "ĠVaj": 2182,
      "ĠWox": 2183,
      "ĠWop": 2184,
      "ĠWez": 2185,
      "ĠGew": 2186,
      "ĠGez": 2187,
      "ĠXoy": 2188,
      "ĠZom": 2189,
      "ĠSiz": 2190,
      "ĠNap": 2191,
      "ĠLuj": 2192,
      "ĠQip": 2193,
      "ĠQew": 2194,
      "ĠYoj": 2195,
      "ĠYuy": 2196,
      "ĠJiz": 2197,
      "ĠGab": 2198,
      "ĠZiy": 2199,
      "ĠPix": 2200,
      "ĠPeb": 2201,
      "ĠNew": 2202,
      "ĠRos": 2203,
      "ĠBan": 2204,
      "ĠBex": 2205,
      "ĠBoj": 2206,
      "ĠBeb": 2207,
      "ĠCum": 2208,
      "ĠVey": 2209,
      "ĠKox": 2210,
      "ĠJuz": 2211,
      "ĠJup": 2212,
      "ĠFob": 2213,
      "ĠWib": 2214,
      "ĠMax": 2215,
      "ĠDes": 2216,
      "ĠDox": 2217,
      "ĠFey": 2218,
      "ĠGib": 2219,
      "ĠGey": 2220,
      "ĠXes": 2221,
      "ĠZan": 2222,
      "ĠPux": 2223,
      "ĠMus": 2224,
      "ĠBix": 2225,
      "ĠCom": 2226,
      "ĠLob": 2227,
      "ĠVuy": 2228,
      "ĠYoy": 2229,
      "ĠYub": 2230,
      "ĠHus": 2231,
      "ĠHow": 2232,
      "ĠSay": 2233,
      "ĠTun": 2234,
      "ĠRum": 2235,
      "ĠQoj": 2236,
      "ĠQub": 2237,
      "ĠQiy": 2238,
      "ĠVus": 2239,
      "ĠYaz": 2240,
      "ĠYip": 2241,
      "ĠKos": 2242,
      "ĠJum": 2243,
      "ĠHof": 2244,
      "ĠFaj": 2245,
      "ĠXiy": 2246,
      "ĠPij": 2247,
      "ĠBax": 2248,
      "ĠLuw": 2249,
      "ĠQij": 2250,
      "ĠDoz": 2251,
      "ĠKew": 2252,
      "ĠFaw": 2253,
      "ĠWom": 2254,
      "ĠGay": 2255,
      "ĠSan": 2256,
      "ĠNaz": 2257,
      "ĠBom": 2258,
      "ĠBiw": 2259,
      "ĠBep": 2260,
      "ĠCun": 2261,
      "ĠLoj": 2262,
      "ĠQaz": 2263,
      "ĠRey": 2264,
      "ĠDej": 2265,
      "ĠHay": 2266,
      "ĠGob": 2267,
      "ĠZos": 2268,
      "ĠTan": 2269,
      "ĠMof": 2270,
      "ĠCiw": 2271,
      "ĠVob": 2272,
      "ĠJan": 2273,
      "ĠJiw": 2274,
      "ĠWaz": 2275,
      "ĠZub": 2276,
      "ĠSop": 2277,
      "ĠTob": 2278,
      "ĠMew": 2279,
      "ĠRom": 2280,
      "ĠBuz": 2281,
      "ĠBip": 2282,
      "ĠCap": 2283,
      "ĠVep": 2284,
      "ĠJoy": 2285,
      "ĠJuw": 2286,
      "ĠHey": 2287,
      "ĠPep": 2288,
      "ĠTis": 2289,
      "ĠNiz": 2290,
      "ĠMux": 2291,
      "ĠRaw": 2292,
      "ĠRiw": 2293,
      "ĠQum": 2294,
      "ĠRep": 2295,
      "ĠKof": 2296,
      "ĠHop": 2297,
      "ĠFan": 2298,
      "ĠXax": 2299,
      "ĠSab": 2300,
      "ĠSub": 2301,
      "ĠMij": 2302,
      "ĠBob": 2303,
      "ĠQus": 2304,
      "ĠJap": 2305,
      "ĠFix": 2306,
      "ĠZis": 2307,
      "ĠNom": 2308,
      "ĠMaj": 2309,
      "ĠCiy": 2310,
      "ĠLop": 2311,
      "ĠQup": 2312,
      "ĠFup": 2313,
      "ĠWix": 2314,
      "ĠXiz": 2315,
      "ĠTej": 2316,
      "ĠRap": 2317,
      "ĠBew": 2318,
      "ĠCaj": 2319,
      "ĠDiz": 2320,
      "ĠJax": 2321,
      "ĠFep": 2322,
      "ĠZaj": 2323,
      "ĠSes": 2324,
      "ĠTop": 2325,
      "ĠNib": 2326,
      "ĠNey": 2327,
      "ĠMon": 2328,
      "ĠBiz": 2329,
      "ĠLum": 2330,
      "ĠLiw": 2331,
      "ĠDun": 2332,
      "ĠVij": 2333,
      "ĠWay": 2334,
      "ĠGep": 2335,
      "ĠXon": 2336,
      "ĠRop": 2337,
      "ĠRux": 2338,
      "ĠBaz": 2339,
      "ĠBuj": 2340,
      "ĠYeb": 2341,
      "ĠHon": 2342,
      "ĠZej": 2343,
      "ĠTix": 2344,
      "ĠNox": 2345,
      "ĠMuz": 2346,
      "ĠCux": 2347,
      "ĠYux": 2348,
      "ĠKaz": 2349,
      "ĠKey": 2350,
      "ĠHaj": 2351,
      "ĠFow": 2352,
      "ĠFiz": 2353,
      "ĠWip": 2354,
      "ĠHoz": 2355,
      "ĠGuz": 2356,
      "ĠXuz": 2357,
      "ĠNof": 2358,
      "ĠMap": 2359,
      "ĠQuy": 2360,
      "ĠDeb": 2361,
      "ĠVuz": 2362,
      "ĠViw": 2363,
      "ĠKez": 2364,
      "ĠJob": 2365,
      "ĠNup": 2366,
      "ĠRaz": 2367,
      "ĠCex": 2368,
      "ĠVap": 2369,
      "ĠVuj": 2370,
      "ĠWaw": 2371,
      "ĠXez": 2372,
      "ĠSip": 2373,
      "ĠBey": 2374,
      "ĠVow": 2375,
      "ĠYup": 2376,
      "ĠHup": 2377,
      "ĠGoy": 2378,
      "ĠZoj": 2379,
      "ĠPiw": 2380,
      "ĠNon": 2381,
      "ĠRip": 2382,
      "ĠBux": 2383,
      "ĠCew": 2384,
      "ĠLon": 2385,
      "ĠLex": 2386,
      "ĠYoz": 2387,
      "ĠKub": 2388,
      "ĠKej": 2389,
      "ĠFez": 2390,
      "ĠWuy": 2391,
      "ĠWup": 2392,
      "ĠGix": 2393,
      "ĠZes": 2394,
      "ĠZop": 2395,
      "ĠSus": 2396,
      "ĠTom": 2397,
      "ĠTes": 2398,
      "ĠTuj": 2399,
      "ĠMiz": 2400,
      "ĠQow": 2401,
      "ĠQox": 2402,
      "ĠFus": 2403,
      "ĠZum": 2404,
      "ĠMos": 2405,
      "ĠDom": 2406,
      "ĠDoj": 2407,
      "ĠVon": 2408,
      "ĠYey": 2409,
      "ĠWes": 2410,
      "ĠGoz": 2411,
      "ĠZiz": 2412,
      "ĠNub": 2413,
      "ĠMey": 2414,
      "ĠLiy": 2415,
      "ĠQey": 2416,
      "ĠYis": 2417,
      "ĠFoz": 2418,
      "ĠSup": 2419,
      "ĠMop": 2420,
      "ĠMuy": 2421,
      "ĠQop": 2422,
      "ĠKes": 2423,
      "ĠMom": 2424,
      "ĠBap": 2425,
      "ĠKup": 2426,
      "ĠJuj": 2427,
      "ĠGuw": 2428,
      "ĠBun": 2429,
      "ĠKon": 2430,
      "ĠKip": 2431,
      "ĠHuw": 2432,
      "ĠPom": 2433,
      "ĠPex": 2434,
      "ĠPaz": 2435,
      "ĠYap": 2436,
      "ĠFos": 2437,
      "ĠFij": 2438,
      "ĠMun": 2439,
      "ĠMej": 2440,
      "ĠQaj": 2441,
      "ĠYab": 2442,
      "ĠXap": 2443,
      "ĠZof": 2444,
      "ĠHiy": 2445,
      "ĠSaz": 2446,
      "ĠBuw": 2447,
      "ĠReb": 2448,
      "ĠDoy": 2449,
      "ĠVun": 2450,
      "ĠHum": 2451,
      "ĠHob": 2452,
      "ĠZep": 2453,
      "ĠPun": 2454,
      "ĠPiy": 2455,
      "ĠTox": 2456,
      "ĠCon": 2457,
      "ĠCax": 2458,
      "ĠFuj": 2459,
      "ĠFew": 2460,
      "ĠWep": 2461,
      "ĠXex": 2462,
      "ĠMup": 2463,
      "ĠBup": 2464,
      "ĠXob": 2465,
      "ĠXox": 2466,
      "ĠCix": 2467,
      "ĠQiw": 2468,
      "ĠDep": 2469,
      "ĠHib": 2470,
      "ĠGup": 2471,
      "ĠXof": 2472,
      "ĠQib": 2473,
      "ĠNes": 2474,
      "ĠNob": 2475,
      "ĠMep": 2476,
      "ĠVop": 2477,
      "ĠKuw": 2478,
      "ĠFux": 2479,
      "ĠWos": 2480,
      "ĠZex": 2481,
      "ĠBow": 2482,
      "ĠKun": 2483,
      "ĠFej": 2484,
      "ĠWus": 2485,
      "ĠGaz": 2486,
      "ĠXab": 2487,
      "ĠPew": 2488,
      "ĠQab": 2489,
      "ĠQis": 2490,
      "ĠTiy": 2491,
      "ĠBej": 2492,
      "ĠDuj": 2493,
      "ĠFoy": 2494,
      "ĠTuw": 2495,
      "ĠBof": 2496,
      "ĠBaw": 2497,
      "ĠBop": 2498,
      "ĠLay": 2499,
      "ĠQex": 2500,
      "ĠYez": 2501,
      "ĠHex": 2502,
      "ĠGom": 2503,
      "ĠXib": 2504,
      "ĠZup": 2505,
      "ĠTap": 2506,
      "ĠCup": 2507,
      "ĠYiy": 2508,
      "ĠJop": 2509,
      "ĠGox": 2510,
      "ĠToz": 2511,
      "ĠRiz": 2512,
      "ĠBub": 2513,
      "ĠFaz": 2514,
      "ĠTup": 2515,
      "ĠCob": 2516,
      "ĠYom": 2517,
      "ĠFem": 2518,
      "ĠNax": 2519,
      "ĠPop": 2520,
      "ĠDop": 2521,
      "ĠJex": 2522,
      "ĠRoy": 2523,
      "ĠCip": 2524,
      "ĠVan": 2525,
      "ĠWap": 2526,
      "ĠJom": 2527,
      "ĠPub": 2528,
      "ĠTux": 2529,
      "ĠSax": 2530,
      "ĠNaj": 2531,
      "ĠRob": 2532,
      "ĠRox": 2533,
      "ĠZeb": 2534,
      "ĠQej": 2535,
      "ĠKaw": 2536,
      "ĠZap": 2537,
      "ĠBij": 2538,
      "ĠLom": 2539,
      "ĠKab": 2540,
      "ĠRew": 2541,
      "ĠDap": 2542,
      "ĠLem": 2543,
      "ĠViz": 2544,
      "ĠTuy": 2545,
      "ĠGam": 2546,
      "ĠFop": 2547,
      "ĠRix": 2548,
      "ĠZiw": 2549,
      "ĠYej": 2550,
      "ĠWam": 2551,
      "ĠSom": 2552,
      "ĠYuj": 2553,
      "ĠGuy": 2554,
      "ĠLam": 2555,
      "ĠYep": 2556,
      "ĠVox": 2557,
      "ĠHap": 2558,
      "ĠMin": 2559,
      "ĠKov": 2560,
      "ĠDem": 2561,
      "ĠNif": 2562,
      "ĠCen": 2563,
      "ĠQoz": 2564,
      "ĠGem": 2565,
      "ĠSaj": 2566,
      "ĠPem": 2567,
      "ĠMim": 2568,
      "ĠHem": 2569,
      "ĠFom": 2570,
      "ĠDaq": 2571,
      "ĠJim": 2572,
      "ĠYem": 2573,
      "ĠTim": 2574,
      "ĠMam": 2575,
      "ĠKim": 2576,
      "ĠXim": 2577,
      "ĠWej": 2578,
      "ĠSam": 2579,
      "ĠTam": 2580,
      "ĠTem": 2581,
      "ĠVim": 2582,
      "ĠKiq": 2583,
      "ĠSem": 2584,
      "ĠXeq": 2585,
      "ĠYiq": 2586,
      "ĠFen": 2587,
      "ĠFof": 2588,
      "ĠLaf": 2589,
      "ĠQok": 2590,
      "ĠVeb": 2591,
      "ĠHim": 2592,
      "ĠCam": 2593,
      "ĠPob": 2594,
      "ĠQam": 2595,
      "ĠYim": 2596,
      "ĠWax": 2597,
      "ĠXom": 2598,
      "ĠPim": 2599,
      "ĠBin": 2600,
      "ĠYaq": 2601,
      "ĠYuk": 2602,
      "ĠRar": 2603,
      "ĠCim": 2604,
      "ĠJiq": 2605,
      "ĠSiv": 2606,
      "ĠSim": 2607,
      "ĠQaf": 2608,
      "ĠDam": 2609,
      "ĠTaq": 2610,
      "ĠFov": 2611,
      "ĠCif": 2612,
      "ĠDuq": 2613,
      "ĠNin": 2614,
      "ĠBuq": 2615,
      "ĠQuk": 2616,
      "ĠFim": 2617,
      "ĠXin": 2618,
      "ĠNuf": 2619,
      "ĠQev": 2620,
      "ĠXev": 2621,
      "ĠCaf": 2622,
      "ĠCuv": 2623,
      "ĠCiq": 2624,
      "ĠLuf": 2625,
      "ĠJaq": 2626,
      "ĠWem": 2627,
      "ĠCem": 2628,
      "ĠGiq": 2629,
      "ĠZem": 2630,
      "ĠPek": 2631,
      "ĠTac": 2632,
      "ĠWev": 2633,
      "ĠPas": 2634,
      "ĠBef": 2635,
      "ĠLoc": 2636,
      "ĠDim": 2637,
      "ĠXar": 2638,
      "ĠJam": 2639,
      "ĠGaf": 2640,
      "ĠSiq": 2641,
      "ĠReq": 2642,
      "ĠHeq": 2643,
      "ĠCor": 2644,
      "ĠVoq": 2645,
      "ĠYam": 2646,
      "ĠYif": 2647,
      "ĠQim": 2648,
      "ĠZoq": 2649,
      "ĠZif": 2650,
      "ĠToq": 2651,
      "ĠVam": 2652,
      "ĠSin": 2653,
      "ĠSuk": 2654,
      "ĠNem": 2655,
      "ĠCeq": 2656,
      "ĠRem": 2657,
      "ĠXam": 2658,
      "ĠXiq": 2659,
      "ĠRak": 2660,
      "ĠLar": 2661,
      "ĠKuk": 2662,
      "ĠHuf": 2663,
      "ĠWiq": 2664,
      "ĠNim": 2665,
      "ĠRim": 2666,
      "ĠDar": 2667,
      "ĠFar": 2668,
      "ĠXef": 2669,
      "ĠSik": 2670,
      "ĠWeq": 2671,
      "ĠTeq": 2672,
      "ĠNar": 2673,
      "ĠBeq": 2674,
      "ĠCuq": 2675,
      "ĠYok": 2676,
      "ĠKem": 2677,
      "ĠZeq": 2678,
      "ĠSaq": 2679,
      "ĠYef": 2680,
      "ĠHiv": 2681,
      "ĠSoc": 2682,
      "ĠTin": 2683,
      "ĠDen": 2684,
      "ĠJac": 2685,
      "ĠFor": 2686,
      "ĠZam": 2687,
      "ĠZuk": 2688,
      "ĠNok": 2689,
      "ĠNuq": 2690,
      "ĠMem": 2691,
      "ĠCiv": 2692,
      "ĠJem": 2693,
      "ĠZiv": 2694,
      "ĠTek": 2695,
      "ĠYak": 2696,
      "ĠKik": 2697,
      "ĠKeq": 2698,
      "ĠXak": 2699,
      "ĠZas": 2700,
      "ĠPin": 2701,
      "ĠNam": 2702,
      "ĠLik": 2703,
      "ĠDif": 2704,
      "ĠKin": 2705,
      "ĠKoc": 2706,
      "ĠHef": 2707,
      "ĠFik": 2708,
      "ĠXaq": 2709,
      "ĠZaq": 2710,
      "ĠMuf": 2711,
      "ĠBim": 2712,
      "ĠQuf": 2713,
      "ĠZor": 2714,
      "ĠTor": 2715,
      "ĠBam": 2716,
      "ĠCoq": 2717,
      "ĠYuv": 2718,
      "ĠWaf": 2719,
      "ĠGim": 2720,
      "ĠMeq": 2721,
      "ĠRoc": 2722,
      "ĠCak": 2723,
      "ĠDaf": 2724,
      "ĠVem": 2725,
      "ĠYuf": 2726,
      "ĠFin": 2727,
      "ĠGoq": 2728,
      "ĠGov": 2729,
      "ĠXoq": 2730,
      "ĠRuf": 2731,
      "ĠVas": 2732,
      "ĠBac": 2733,
      "ĠQuq": 2734,
      "ĠVor": 2735,
      "ĠFaq": 2736,
      "ĠNak": 2737,
      "ĠNeq": 2738,
      "ĠBaf": 2739,
      "ĠYen": 2740,
      "ĠHor": 2741,
      "ĠHik": 2742,
      "ĠFoq": 2743,
      "ĠMoq": 2744,
      "ĠBek": 2745,
      "ĠYiv": 2746,
      "ĠHok": 2747,
      "ĠHuv": 2748,
      "ĠXem": 2749,
      "ĠPoc": 2750,
      "ĠNoq": 2751,
      "ĠRor": 2752,
      "ĠGaq": 2753,
      "ĠCok": 2754,
      "ĠLoq": 2755,
      "ĠYor": 2756,
      "ĠJin": 2757,
      "ĠWin": 2758,
      "ĠXov": 2759,
      "ĠZim": 2760,
      "ĠSen": 2761,
      "ĠMen": 2762,
      "ĠMov": 2763,
      "ĠMok": 2764,
      "ĠRas": 2765,
      "ĠRov": 2766,
      "ĠBar": 2767,
      "ĠJif": 2768,
      "ĠWen": 2769,
      "ĠMiq": 2770,
      "ĠMaq": 2771,
      "ĠVar": 2772,
      "ĠVov": 2773,
      "ĠSoq": 2774,
      "ĠMak": 2775,
      "ĠBev": 2776,
      "ĠHas": 2777,
      "ĠWov": 2778,
      "ĠGeq": 2779,
      "ĠSaf": 2780,
      "ĠSev": 2781,
      "ĠBen": 2782,
      "ĠDor": 2783,
      "ĠKam": 2784,
      "ĠKok": 2785,
      "ĠJuf": 2786,
      "ĠHar": 2787,
      "ĠHiq": 2788,
      "ĠFas": 2789,
      "ĠZaf": 2790,
      "ĠMac": 2791,
      "ĠCef": 2792,
      "ĠDoq": 2793,
      "ĠDeq": 2794,
      "ĠFiv": 2795,
      "ĠZuq": 2796,
      "ĠSef": 2797,
      "ĠNek": 2798,
      "ĠRin": 2799,
      "ĠMaf": 2800,
      "ĠJeq": 2801,
      "ĠGen": 2802,
      "ĠPoq": 2803,
      "ĠSor": 2804,
      "ĠTok": 2805,
      "ĠNef": 2806,
      "ĠRoq": 2807,
      "ĠBaq": 2808,
      "ĠCoc": 2809,
      "ĠHuq": 2810,
      "ĠFuk": 2811,
      "ĠWif": 2812,
      "ĠGuf": 2813,
      "ĠPaf": 2814,
      "ĠPok": 2815,
      "ĠSuq": 2816,
      "ĠBas": 2817,
      "ĠVef": 2818,
      "ĠHaf": 2819,
      "ĠWiv": 2820,
      "ĠPov": 2821,
      "ĠLuk": 2822,
      "ĠQen": 2823,
      "ĠKef": 2824,
      "ĠKaf": 2825,
      "ĠJuk": 2826,
      "ĠGek": 2827,
      "ĠXek": 2828,
      "ĠZov": 2829,
      "ĠPiq": 2830,
      "ĠRam": 2831,
      "ĠBuf": 2832,
      "ĠLuq": 2833,
      "ĠVen": 2834,
      "ĠJov": 2835,
      "ĠFeq": 2836,
      "ĠGik": 2837,
      "ĠPam": 2838,
      "ĠSas": 2839,
      "ĠToc": 2840,
      "ĠNev": 2841,
      "ĠBak": 2842,
      "ĠJef": 2843,
      "ĠHen": 2844,
      "ĠRiq": 2845,
      "ĠQem": 2846,
      "ĠVuf": 2847,
      "ĠYas": 2848,
      "ĠYov": 2849,
      "ĠYuq": 2850,
      "ĠXor": 2851,
      "ĠBik": 2852,
      "ĠDak": 2853,
      "ĠYac": 2854,
      "ĠKuf": 2855,
      "ĠGak": 2856,
      "ĠRif": 2857,
      "ĠLin": 2858,
      "ĠKoq": 2859,
      "ĠJoq": 2860,
      "ĠFoc": 2861,
      "ĠFuq": 2862,
      "ĠFif": 2863,
      "ĠPak": 2864,
      "ĠPev": 2865,
      "ĠKaq": 2866,
      "ĠJas": 2867,
      "ĠWef": 2868,
      "ĠWim": 2869,
      "ĠXaf": 2870,
      "ĠSuv": 2871,
      "ĠNor": 2872,
      "ĠCas": 2873,
      "ĠLov": 2874,
      "ĠZak": 2875,
      "ĠCar": 2876,
      "ĠLor": 2877,
      "ĠLif": 2878,
      "ĠKif": 2879,
      "ĠMas": 2880,
      "ĠMoc": 2881,
      "ĠBok": 2882,
      "ĠZen": 2883,
      "ĠVif": 2884,
      "ĠHek": 2885,
      "ĠFam": 2886,
      "ĠFev": 2887,
      "ĠGef": 2888,
      "ĠSov": 2889,
      "ĠSek": 2890,
      "ĠNuv": 2891,
      "ĠCuk": 2892,
      "ĠLaq": 2893,
      "ĠLeq": 2894,
      "ĠVuv": 2895,
      "ĠViq": 2896,
      "ĠYeq": 2897,
      "ĠFuv": 2898,
      "ĠWoq": 2899,
      "ĠWuv": 2900,
      "ĠGev": 2901,
      "ĠQeq": 2902,
      "ĠYek": 2903,
      "ĠKiv": 2904,
      "ĠHuk": 2905,
      "ĠHif": 2906,
      "ĠXok": 2907,
      "ĠXiv": 2908,
      "ĠZok": 2909,
      "ĠNik": 2910,
      "ĠRuq": 2911,
      "ĠLas": 2912,
      "ĠDuv": 2913,
      "ĠXen": 2914,
      "ĠPaq": 2915,
      "ĠSac": 2916,
      "ĠBem": 2917,
      "ĠVoc": 2918,
      "ĠJen": 2919,
      "ĠWac": 2920,
      "ĠGok": 2921,
      "ĠMuk": 2922,
      "ĠCov": 2923,
      "ĠLac": 2924,
      "ĠRek": 2925,
      "ĠJuq": 2926,
      "ĠFak": 2927,
      "ĠGoc": 2928,
      "ĠGuk": 2929,
      "ĠNov": 2930,
      "ĠBuv": 2931,
      "ĠRen": 2932,
      "ĠYoq": 2933,
      "ĠHak": 2934,
      "ĠBif": 2935,
      "ĠLuv": 2936,
      "ĠLev": 2937,
      "ĠQar": 2938,
      "ĠQac": 2939,
      "ĠVuk": 2940,
      "ĠVev": 2941,
      "ĠGor": 2942,
      "ĠXif": 2943,
      "ĠPuq": 2944,
      "ĠTuv": 2945,
      "ĠTif": 2946,
      "ĠTiv": 2947,
      "ĠDef": 2948,
      "ĠJar": 2949,
      "ĠJev": 2950,
      "ĠHov": 2951,
      "ĠSuf": 2952,
      "ĠMif": 2953,
      "ĠMek": 2954,
      "ĠDov": 2955,
      "ĠVuq": 2956,
      "ĠKuv": 2957,
      "ĠMuv": 2958,
      "ĠLim": 2959,
      "ĠVac": 2960,
      "ĠYik": 2961,
      "ĠJoc": 2962,
      "ĠJaf": 2963,
      "ĠWas": 2964,
      "ĠWok": 2965,
      "ĠWuk": 2966,
      "ĠGac": 2967,
      "ĠGin": 2968,
      "ĠZev": 2969,
      "ĠTak": 2970,
      "ĠMar": 2971,
      "ĠQiq": 2972,
      "ĠZuv": 2973,
      "ĠSif": 2974,
      "ĠNoc": 2975,
      "ĠLef": 2976,
      "ĠJek": 2977,
      "ĠHam": 2978,
      "ĠTef": 2979,
      "ĠNil": 2980,
      "ĠNaf": 2981,
      "ĠNuk": 2982,
      "ĠCek": 2983,
      "ĠQoc": 2984,
      "ĠDuf": 2985,
      "ĠVaq": 2986,
      "ĠFuf": 2987,
      "ĠXik": 2988,
      "ĠTov": 2989,
      "ĠMiv": 2990,
      "ĠCuf": 2991,
      "ĠKas": 2992,
      "ĠKac": 2993,
      "ĠWar": 2994,
      "ĠXuk": 2995,
      "ĠZek": 2996,
      "ĠMev": 2997,
      "ĠRok": 2998,
      "ĠKar": 2999,
      "ĠKev": 3000,
      "ĠJav": 3001,
      "ĠWoc": 3002,
      "ĠGas": 3003,
      "ĠXil": 3004,
      "ĠTas": 3005,
      "ĠBov": 3006,
      "ĠDoc": 3007,
      "ĠFac": 3008,
      "ĠFiq": 3009,
      "ĠPen": 3010,
      "ĠTev": 3011,
      "ĠRik": 3012,
      "ĠQov": 3013,
      "ĠDev": 3014,
      "ĠHoc": 3015,
      "ĠHev": 3016,
      "ĠWak": 3017,
      "ĠZuf": 3018,
      "ĠQek": 3019,
      "ĠHoq": 3020,
      "ĠHaq": 3021,
      "ĠWor": 3022,
      "ĠXas": 3023,
      "ĠZac": 3024,
      "ĠRuv": 3025,
      "ĠLek": 3026,
      "ĠGiv": 3027,
      "ĠXuv": 3028,
      "ĠTuq": 3029,
      "ĠCac": 3030,
      "ĠVin": 3031,
      "ĠVaf": 3032,
      "ĠJor": 3033,
      "ĠWaq": 3034,
      "ĠSeq": 3035,
      "ĠMor": 3036,
      "ĠBoq": 3037,
      "ĠCil": 3038,
      "ĠQef": 3039,
      "ĠQak": 3040,
      "ĠQik": 3041,
      "ĠYin": 3042,
      "ĠWuf": 3043,
      "ĠTik": 3044,
      "ĠLiq": 3045,
      "ĠQuv": 3046,
      "ĠHav": 3047,
      "ĠXuf": 3048,
      "ĠTiq": 3049,
      "ĠNaq": 3050,
      "ĠLen": 3051,
      "ĠQiv": 3052,
      "ĠVok": 3053,
      "ĠYar": 3054,
      "ĠFaf": 3055,
      "ĠXac": 3056,
      "ĠZef": 3057,
      "ĠTar": 3058,
      "ĠTuf": 3059,
      "ĠCaq": 3060,
      "ĠWik": 3061,
      "ĠPor": 3062,
      "ĠSok": 3063,
      "ĠNiq": 3064,
      "ĠBuk": 3065,
      "ĠCik": 3066,
      "ĠQaq": 3067,
      "ĠQif": 3068,
      "ĠDas": 3069,
      "ĠHin": 3070,
      "ĠMil": 3071,
      "ĠMef": 3072,
      "ĠRaf": 3073,
      "ĠDiq": 3074,
      "ĠKen": 3075,
      "ĠKuq": 3076,
      "ĠHac": 3077,
      "ĠWek": 3078,
      "ĠPeq": 3079,
      "ĠTaf": 3080,
      "ĠNiv": 3081,
      "ĠCev": 3082,
      "ĠDin": 3083,
      "ĠFef": 3084,
      "ĠGar": 3085,
      "ĠJak": 3086,
      "ĠBor": 3087,
      "ĠVeq": 3088,
      "ĠZin": 3089,
      "ĠPar": 3090,
      "ĠPac": 3091,
      "ĠRaq": 3092,
      "ĠQin": 3093,
      "ĠZav": 3094,
      "ĠPuv": 3095,
      "ĠSak": 3096,
      "ĠNac": 3097,
      "ĠDuk": 3098,
      "ĠDik": 3099,
      "ĠVav": 3100,
      "ĠGuq": 3101,
      "ĠTen": 3102,
      "ĠQor": 3103,
      "ĠYaf": 3104,
      "ĠPiv": 3105,
      "ĠSil": 3106,
      "ĠVek": 3107,
      "ĠZiq": 3108,
      "ĠZik": 3109,
      "ĠPif": 3110,
      "ĠRav": 3111,
      "ĠRiv": 3112,
      "ĠKor": 3113,
      "ĠXuq": 3114,
      "ĠZoc": 3115,
      "ĠTuk": 3116,
      "ĠMuq": 3117,
      "ĠVik": 3118,
      "ĠDek": 3119,
      "ĠNas": 3120,
      "ĠLok": 3121,
      "ĠDok": 3122,
      "ĠFav": 3123,
      "ĠPuf": 3124,
      "ĠFil": 3125,
      "ĠFek": 3126,
      "ĠGuv": 3127,
      "ĠSar": 3128,
      "ĠFok": 3129,
      "ĠRev": 3130,
      "ĠJik": 3131,
      "ĠKak": 3132,
      "ĠWuq": 3133,
      "ĠMik": 3134,
      "ĠBiq": 3135,
      "ĠDav": 3136,
      "ĠVak": 3137,
      "ĠYev": 3138,
      "ĠPef": 3139,
      "ĠCin": 3140,
      "ĠQoq": 3141,
      "ĠGif": 3142,
      "ĠRuk": 3143,
      "ĠLak": 3144,
      "ĠLiv": 3145,
      "ĠKek": 3146,
      "ĠJuv": 3147,
      "ĠQil": 3148,
      "ĠPuk": 3149,
      "ĠNen": 3150,
      "ĠRac": 3151,
      "ĠGil": 3152,
      "ĠJiv": 3153,
      "ĠPik": 3154,
      "ĠBoc": 3155,
      "ĠHil": 3156,
      "ĠDil": 3157,
      "ĠMav": 3158,
      "ĠQas": 3159,
      "ĠJoh": 3160,
      "ĠKil": 3161,
      "ĠDiv": 3162,
      "ĠBiv": 3163,
      "ĠDac": 3164,
      "ĠXav": 3165,
      "ĠWav": 3166,
      "ĠGav": 3167,
      "ĠQav": 3168,
      "ĠRil": 3169,
      "ĠCav": 3170,
      "ĠZil": 3171,
      "ĠBil": 3172,
      "ĠViv": 3173,
      "ĠYav": 3174,
      "ĠNav": 3175,
      "ĠSav": 3176,
      "ĠWil": 3177,
      "ĠPil": 3178,
      "ĠZar": 3179,
      "ĠLil": 3180,
      "ĠPav": 3181,
      "ĠLav": 3182,
      "ĠJil": 3183,
      "ĠTav": 3184,
      "ĠJok": 3185,
      "ĠKoh": 3186,
      "ĠBav": 3187,
      "ĠXoc": 3188,
      "ĠYoc": 3189,
      "ĠTil": 3190,
      "ĠHid": 3191,
      "ĠJut": 3192,
      "ĠWoh": 3193,
      "ĠGih": 3194,
      "ĠSeh": 3195,
      "ĠYil": 3196,
      "ĠKeh": 3197,
      "ĠVil": 3198,
      "ĠYeh": 3199,
      "ĠKav": 3200,
      "ĠXur": 3201,
      "ĠJec": 3202,
      "ĠWuh": 3203,
      "ĠJih": 3204,
      "ĠYer": 3205,
      "ĠTur": 3206,
      "ĠBih": 3207,
      "ĠMuc": 3208,
      "ĠWad": 3209,
      "ĠXoh": 3210,
      "ĠMoh": 3211,
      "ĠYur": 3212,
      "ĠWic": 3213,
      "ĠDud": 3214,
      "ĠNur": 3215,
      "ĠBer": 3216,
      "ĠZuh": 3217,
      "ĠWed": 3218,
      "ĠSuc": 3219,
      "ĠCod": 3220,
      "ĠDih": 3221,
      "ĠYih": 3222,
      "ĠDod": 3223,
      "ĠPer": 3224,
      "ĠVoh": 3225,
      "ĠZeh": 3226,
      "ĠNuh": 3227,
      "ĠQur": 3228,
      "ĠFic": 3229,
      "ĠXuh": 3230,
      "ĠPih": 3231,
      "ĠSic": 3232,
      "ĠQer": 3233,
      "ĠGoh": 3234,
      "ĠMec": 3235,
      "ĠFed": 3236,
      "ĠFut": 3237,
      "ĠGur": 3238,
      "ĠRad": 3239,
      "ĠVet": 3240,
      "ĠNih": 3241,
      "ĠKer": 3242,
      "ĠFec": 3243,
      "ĠKit": 3244,
      "ĠWuc": 3245,
      "ĠZoh": 3246,
      "ĠPoh": 3247,
      "ĠBur": 3248,
      "ĠQih": 3249,
      "ĠGud": 3250,
      "ĠRot": 3251,
      "ĠLoh": 3252,
      "ĠKid": 3253,
      "ĠJat": 3254,
      "ĠZet": 3255,
      "ĠTot": 3256,
      "ĠKot": 3257,
      "ĠHeh": 3258,
      "ĠXec": 3259,
      "ĠNid": 3260,
      "ĠKod": 3261,
      "217": 3262,
      "ĠToh": 3263,
      "ĠTud": 3264,
      "ĠDeh": 3265,
      "ĠVic": 3266,
      "ĠPod": 3267,
      "ĠRur": 3268,
      "ĠYid": 3269,
      "ĠJet": 3270,
      "ĠGuh": 3271,
      "ĠZit": 3272,
      "ĠRer": 3273,
      "ĠBat": 3274,
      "ĠDid": 3275,
      "ĠVat": 3276,
      "ĠKih": 3277,
      "ĠJud": 3278,
      "905": 3279,
      "ĠTuh": 3280,
      "ĠTec": 3281,
      "ĠMih": 3282,
      "ĠRuh": 3283,
      "ĠRed": 3284,
      "ĠVuh": 3285,
      "ĠHih": 3286,
      "556": 3287,
      "ĠLur": 3288,
      "ĠQoh": 3289,
      "ĠQot": 3290,
      "ĠKec": 3291,
      "ĠHed": 3292,
      "ĠGeh": 3293,
      "ĠPut": 3294,
      "ĠPec": 3295,
      "215": 3296,
      "ĠSud": 3297,
      "ĠMet": 3298,
      "ĠRod": 3299,
      "ĠCec": 3300,
      "ĠDur": 3301,
      "ĠYut": 3302,
      "ĠXat": 3303,
      "ĠXid": 3304,
      "ĠMic": 3305,
      "ĠDic": 3306,
      "ĠWah": 3307,
      "ĠPid": 3308,
      "ĠTer": 3309,
      "ĠTut": 3310,
      "ĠBut": 3311,
      "ĠLec": 3312,
      "ĠJed": 3313,
      "ĠFoh": 3314,
      "ĠPit": 3315,
      "223": 3316,
      "ĠNed": 3317,
      "ĠDah": 3318,
      "ĠYic": 3319,
      "ĠJuh": 3320,
      "ĠGec": 3321,
      "ĠSed": 3322,
      "ĠJah": 3323,
      "ĠHad": 3324,
      "ĠWut": 3325,
      "ĠGid": 3326,
      "ĠCih": 3327,
      "ĠFeh": 3328,
      "ĠPic": 3329,
      "518": 3330,
      "ĠBec": 3331,
      "ĠDet": 3332,
      "ĠZuc": 3333,
      "ĠBod": 3334,
      "ĠCic": 3335,
      "ĠRec": 3336,
      "ĠYit": 3337,
      "ĠJod": 3338,
      "ĠXud": 3339,
      "ĠZur": 3340,
      "216": 3341,
      "ĠSer": 3342,
      "206": 3343,
      "ĠCut": 3344,
      "ĠDot": 3345,
      "ĠDut": 3346,
      "ĠXot": 3347,
      "ĠMad": 3348,
      "ĠBad": 3349,
      "ĠQah": 3350,
      "ĠFuh": 3351,
      "ĠTid": 3352,
      "ĠMer": 3353,
      "ĠCuh": 3354,
      "ĠKuh": 3355,
      "ĠFit": 3356,
      "ĠWud": 3357,
      "ĠWeh": 3358,
      "ĠGod": 3359,
      "ĠTat": 3360,
      "ĠTeh": 3361,
      "ĠMid": 3362,
      "ĠLot": 3363,
      "ĠHec": 3364,
      "ĠXih": 3365,
      "126": 3366,
      "ĠTad": 3367,
      "ĠNic": 3368,
      "ĠCuc": 3369,
      "ĠCeh": 3370,
      "ĠQad": 3371,
      "ĠSur": 3372,
      "ĠLat": 3373,
      "ĠGed": 3374,
      "218": 3375,
      "ĠTod": 3376,
      "ĠTic": 3377,
      "ĠNer": 3378,
      "ĠNit": 3379,
      "ĠMur": 3380,
      "ĠQuc": 3381,
      "ĠQic": 3382,
      "ĠDat": 3383,
      "ĠCit": 3384,
      "ĠVeh": 3385,
      "ĠXeh": 3386,
      "519": 3387,
      "ĠMuh": 3388,
      "ĠBot": 3389,
      "ĠLer": 3390,
      "ĠLuh": 3391,
      "ĠJid": 3392,
      "ĠFur": 3393,
      "ĠGad": 3394,
      "ĠXah": 3395,
      "ĠSot": 3396,
      "ĠNod": 3397,
      "ĠRah": 3398,
      "ĠBid": 3399,
      "ĠBah": 3400,
      "ĠCoh": 3401,
      "ĠCah": 3402,
      "ĠLuc": 3403,
      "ĠKic": 3404,
      "ĠFod": 3405,
      "ĠWur": 3406,
      "ĠZah": 3407,
      "ĠZud": 3408,
      "ĠRuc": 3409,
      "ĠRih": 3410,
      "ĠBed": 3411,
      "ĠLic": 3412,
      "ĠQut": 3413,
      "ĠKah": 3414,
      "138": 3415,
      "ĠVit": 3416,
      "ĠHuh": 3417,
      "ĠSih": 3418,
      "ĠCad": 3419,
      "ĠYed": 3420,
      "ĠJeh": 3421,
      "ĠFah": 3422,
      "ĠFih": 3423,
      "ĠGuc": 3424,
      "207": 3425,
      "ĠNut": 3426,
      "ĠMut": 3427,
      "ĠBud": 3428,
      "ĠQat": 3429,
      "ĠQec": 3430,
      "ĠGat": 3431,
      "210": 3432,
      "ĠLod": 3433,
      "ĠLeh": 3434,
      "ĠVuc": 3435,
      "ĠHur": 3436,
      "ĠFet": 3437,
      "ĠPeh": 3438,
      "ĠSid": 3439,
      "ĠLah": 3440,
      "ĠHuc": 3441,
      "ĠZec": 3442,
      "ĠMah": 3443,
      "ĠBuc": 3444,
      "ĠCur": 3445,
      "ĠHic": 3446,
      "ĠWih": 3447,
      "427": 3448,
      "ĠSit": 3449,
      "ĠSuh": 3450,
      "ĠSec": 3451,
      "ĠCer": 3452,
      "ĠCet": 3453,
      "ĠLih": 3454,
      "ĠDec": 3455,
      "ĠPet": 3456,
      "128": 3457,
      "110": 3458,
      "406": 3459,
      "ĠQuh": 3460,
      "ĠYod": 3461,
      "ĠYec": 3462,
      "ĠKud": 3463,
      "ĠJuc": 3464,
      "925": 3465,
      "ĠTih": 3466,
      "ĠNoh": 3467,
      "ĠDuh": 3468,
      "ĠVah": 3469,
      "ĠVih": 3470,
      "ĠYad": 3471,
      "ĠKuc": 3472,
      "ĠFer": 3473,
      "ĠGic": 3474,
      "536": 3475,
      "ĠRoh": 3476,
      "356": 3477,
      "348": 3478,
      "425": 3479,
      "506": 3480,
      "ĠDoh": 3481,
      "ĠYah": 3482,
      "ĠYuc": 3483,
      "ĠKut": 3484,
      "ĠRic": 3485,
      "ĠCed": 3486,
      "ĠQit": 3487,
      "ĠJic": 3488,
      "224": 3489,
      "398": 3490,
      "ĠSoh": 3491,
      "ĠNah": 3492,
      "ĠBic": 3493,
      "ĠLid": 3494,
      "ĠDer": 3495,
      "ĠJer": 3496,
      "ĠXed": 3497,
      "404": 3498,
      "918": 3499,
      "ĠLed": 3500,
      "ĠYat": 3501,
      "ĠWod": 3502,
      "ĠWot": 3503,
      "ĠGut": 3504,
      "ĠZid": 3505,
      "ĠPad": 3506,
      "ĠPah": 3507,
      "910": 3508,
      "ĠNeh": 3509,
      "ĠRut": 3510,
      "ĠKat": 3511,
      "ĠSet": 3512,
      "226": 3513,
      "ĠQod": 3514,
      "ĠVec": 3515,
      "ĠHoh": 3516,
      "117": 3517,
      "ĠSod": 3518,
      "ĠTah": 3519,
      "ĠVad": 3520,
      "ĠVid": 3521,
      "ĠGah": 3522,
      "ĠXuc": 3523,
      "ĠZat": 3524,
      "ĠPur": 3525,
      "ĠMed": 3526,
      "ĠMod": 3527,
      "ĠRat": 3528,
      "ĠQet": 3529,
      "ĠHer": 3530,
      "ĠWit": 3531,
      "ĠGit": 3532,
      "ĠZih": 3533,
      "287": 3534,
      "423": 3535,
      "208": 3536,
      "ĠDit": 3537,
      "ĠVur": 3538,
      "ĠKet": 3539,
      "ĠFad": 3540,
      "ĠGer": 3541,
      "ĠZod": 3542,
      "446": 3543,
      "197": 3544,
      "ĠHah": 3545,
      "ĠHot": 3546,
      "ĠXod": 3547,
      "306": 3548,
      "ĠSah": 3549,
      "ĠTuc": 3550,
      "ĠNuc": 3551,
      "ĠNec": 3552,
      "ĠMeh": 3553,
      "ĠBit": 3554,
      "ĠVer": 3555,
      "ĠKad": 3556,
      "407": 3557,
      "508": 3558,
      "ĠYoh": 3559,
      "347": 3560,
      "496": 3561,
      "ĠMot": 3562,
      "ĠReh": 3563,
      "ĠVot": 3564,
      "ĠZut": 3565,
      "598": 3566,
      "ĠNad": 3567,
      "ĠLit": 3568,
      "ĠLet": 3569,
      "ĠJad": 3570,
      "ĠHit": 3571,
      "ĠZic": 3572,
      "ĠPuh": 3573,
      "318": 3574,
      "529": 3575,
      "908": 3576,
      "ĠMat": 3577,
      "ĠVod": 3578,
      "ĠYet": 3579,
      "ĠWer": 3580,
      "ĠPuc": 3581,
      "915": 3582,
      "996": 3583,
      "ĠNat": 3584,
      "503": 3585,
      "548": 3586,
      "997": 3587,
      "ĠTed": 3588,
      "ĠNud": 3589,
      "ĠMit": 3590,
      "ĠRit": 3591,
      "ĠWid": 3592,
      "ĠWec": 3593,
      "ĠZer": 3594,
      "414": 3595,
      "526": 3596,
      "ĠRud": 3597,
      "ĠBuh": 3598,
      "ĠBet": 3599,
      "ĠJot": 3600,
      "ĠWat": 3601,
      "ĠGet": 3602,
      "ĠXet": 3603,
      "123": 3604,
      "ĠSat": 3605,
      "ĠFud": 3606,
      "ĠXit": 3607,
      "ĠPud": 3608,
      "127": 3609,
      "546": 3610,
      "958": 3611,
      "904": 3612,
      "ĠVut": 3613,
      "ĠKur": 3614,
      "ĠJur": 3615,
      "ĠHet": 3616,
      "ĠFat": 3617,
      "ĠXer": 3618,
      "ĠXic": 3619,
      "227": 3620,
      "527": 3621,
      "907": 3622,
      "ĠTet": 3623,
      "ĠRet": 3624,
      "ĠDed": 3625,
      "ĠHut": 3626,
      "ĠXad": 3627,
      "ĠNet": 3628,
      "ĠBeh": 3629,
      "ĠDad": 3630,
      "ĠZad": 3631,
      "909": 3632,
      "917": 3633,
      "936": 3634,
      "ĠBoh": 3635,
      "ĠCid": 3636,
      "ĠQud": 3637,
      "ĠVed": 3638,
      "ĠKed": 3639,
      "ĠZed": 3640,
      "ĠZot": 3641,
      "336": 3642,
      "517": 3643,
      "924": 3644,
      "956": 3645,
      "ĠYud": 3646,
      "309": 3647,
      "937": 3648,
      "ĠPat": 3649,
      "416": 3650,
      "515": 3651,
      "906": 3652,
      "916": 3653,
      "ĠLud": 3654,
      "ĠQed": 3655,
      "ĠDuc": 3656,
      "ĠHud": 3657,
      "ĠFuc": 3658,
      "ĠPot": 3659,
      "509": 3660,
      "507": 3661,
      "516": 3662,
      "ĠLad": 3663,
      "ĠHod": 3664,
      "448": 3665,
      "524": 3666,
      "597": 3667,
      "ĠTit": 3668,
      "196": 3669,
      "ĠFid": 3670,
      "ĠFot": 3671,
      "415": 3672,
      "418": 3673,
      "213": 3674,
      "438": 3675,
      "ĠNot": 3676,
      "ĠQeh": 3677,
      "ĠVud": 3678,
      "225": 3679,
      "214": 3680,
      "327": 3681,
      "436": 3682,
      "502": 3683,
      "ĠSad": 3684,
      "ĠMud": 3685,
      "198": 3686,
      "ĠHat": 3687,
      "403": 3688,
      "458": 3689,
      "525": 3690,
      "513": 3691,
      "656": 3692,
      "ĠCat": 3693,
      "ĠXut": 3694,
      "315": 3695,
      "926": 3696,
      "ĠSut": 3697,
      "605": 3698,
      "927": 3699,
      "929": 3700,
      "396": 3701,
      "417": 3702,
      "547": 3703,
      "616": 3704,
      "707": 3705,
      "914": 3706,
      "346": 3707,
      "409": 3708,
      "314": 3709,
      "596": 3710,
      "617": 3711,
      "708": 3712,
      "304": 3713,
      "615": 3714,
      "657": 3715,
      "ĠPed": 3716,
      "514": 3717,
      "816": 3718,
      "903": 3719,
      "998": 3720,
      "316": 3721,
      "405": 3722,
      "402": 3723,
      "724": 3724,
      "947": 3725,
      "647": 3726,
      "ĠYot": 3727,
      "337": 3728,
      "424": 3729,
      "497": 3730,
      "510": 3731,
      "ĠCud": 3732,
      "447": 3733,
      "505": 3734,
      "538": 3735,
      "ĠCot": 3736,
      "ĠYuh": 3737,
      "ĠJit": 3738,
      "303": 3739,
      "626": 3740,
      "648": 3741,
      "948": 3742,
      "ĠGot": 3743,
      "305": 3744,
      "504": 3745,
      "716": 3746,
      "756": 3747,
      "923": 3748,
      "120": 3749,
      "338": 3750,
      "426": 3751,
      "603": 3752,
      "723": 3753,
      "118": 3754,
      "558": 3755,
      "ĠWet": 3756,
      "537": 3757,
      "957": 3758,
      "498": 3759,
      "698": 3760,
      "ĠRid": 3761,
      "902": 3762,
      "ĠLut": 3763,
      "413": 3764,
      "457": 3765,
      "717": 3766,
      "428": 3767,
      "557": 3768,
      "878": 3769,
      "228": 3770,
      "317": 3771,
      "313": 3772,
      "609": 3773,
      "627": 3774,
      "857": 3775,
      "938": 3776,
      "ĠWog": 3777,
      "608": 3778,
      "809": 3779,
      "928": 3780,
      "ĠWag": 3781,
      "325": 3782,
      "746": 3783,
      "824": 3784,
      "324": 3785,
      "429": 3786,
      "408": 3787,
      "528": 3788,
      "606": 3789,
      "624": 3790,
      "836": 3791,
      "913": 3792,
      "308": 3793,
      "625": 3794,
      "323": 3795,
      "715": 3796,
      "808": 3797,
      "ĠQid": 3798,
      "326": 3799,
      "358": 3800,
      "817": 3801,
      "307": 3802,
      "737": 3803,
      "ĠPug": 3804,
      "804": 3805,
      "896": 3806,
      "610": 3807,
      "646": 3808,
      "710": 3809,
      "709": 3810,
      "946": 3811,
      "919": 3812,
      "ĠGag": 3813,
      "727": 3814,
      "748": 3815,
      "768": 3816,
      "825": 3817,
      "ĠYeg": 3818,
      "637": 3819,
      "815": 3820,
      "ĠLig": 3821,
      "456": 3822,
      "ĠQog": 3823,
      "ĠJig": 3824,
      "704": 3825,
      "718": 3826,
      "810": 3827,
      "802": 3828,
      "220": 3829,
      "219": 3830,
      "697": 3831,
      "807": 3832,
      "920": 3833,
      "ĠNag": 3834,
      "329": 3835,
      "357": 3836,
      "397": 3837,
      "954": 3838,
      "437": 3839,
      "898": 3840,
      "868": 3841,
      "ĠDog": 3842,
      "604": 3843,
      "798": 3844,
      "310": 3845,
      "410": 3846,
      "856": 3847,
      "319": 3848,
      "638": 3849,
      "738": 3850,
      "806": 3851,
      "837": 3852,
      "ĠZeg": 3853,
      "ĠPag": 3854,
      "119": 3855,
      "847": 3856,
      "ĠDeg": 3857,
      "ĠYog": 3858,
      "ĠYug": 3859,
      "797": 3860,
      "823": 3861,
      "846": 3862,
      "ĠLog": 3863,
      "328": 3864,
      "814": 3865,
      "ĠBog": 3866,
      "ĠWeg": 3867,
      "607": 3868,
      "796": 3869,
      "933": 3870,
      "729": 3871,
      "ĠWig": 3872,
      "493": 3873,
      "758": 3874,
      "805": 3875,
      "877": 3876,
      "ĠSig": 3877,
      "302": 3878,
      "623": 3879,
      "658": 3880,
      "523": 3881,
      "668": 3882,
      "702": 3883,
      "827": 3884,
      "829": 3885,
      "ĠCir": 3886,
      "ĠFug": 3887,
      "636": 3888,
      "747": 3889,
      "706": 3890,
      "728": 3891,
      "ĠDug": 3892,
      "ĠJug": 3893,
      "ĠHag": 3894,
      "ĠGug": 3895,
      "ĠZag": 3896,
      "703": 3897,
      "ĠSag": 3898,
      "ĠMig": 3899,
      "ĠMir": 3900,
      "628": 3901,
      "ĠHog": 3902,
      "419": 3903,
      "813": 3904,
      "ĠTog": 3905,
      "ĠTeg": 3906,
      "ĠKig": 3907,
      "678": 3908,
      "677": 3909,
      "726": 3910,
      "994": 3911,
      "ĠRag": 3912,
      "ĠCag": 3913,
      "ĠCug": 3914,
      "ĠFir": 3915,
      "312": 3916,
      "713": 3917,
      "757": 3918,
      "838": 3919,
      "ĠCog": 3920,
      "ĠVug": 3921,
      "454": 3922,
      "620": 3923,
      "ĠMog": 3924,
      "ĠQig": 3925,
      "344": 3926,
      "412": 3927,
      "619": 3928,
      "819": 3929,
      "ĠZug": 3930,
      "ĠZig": 3931,
      "696": 3932,
      "818": 3933,
      "725": 3934,
      "953": 3935,
      "ĠSug": 3936,
      "ĠNug": 3937,
      "ĠLag": 3938,
      "420": 3939,
      "520": 3940,
      "512": 3941,
      "594": 3942,
      "613": 3943,
      "ĠGeg": 3944,
      "602": 3945,
      "633": 3946,
      "858": 3947,
      "ĠLug": 3948,
      "ĠKeg": 3949,
      "ĠFeg": 3950,
      "ĠXig": 3951,
      "494": 3952,
      "736": 3953,
      "848": 3954,
      "ĠHug": 3955,
      "618": 3956,
      "629": 3957,
      "778": 3958,
      "ĠWug": 3959,
      "901": 3960,
      "ĠJag": 3961,
      "ĠPig": 3962,
      "554": 3963,
      "614": 3964,
      "ĠTug": 3965,
      "ĠQug": 3966,
      "ĠVir": 3967,
      "ĠKug": 3968,
      "320": 3969,
      "301": 3970,
      "897": 3971,
      "ĠSeg": 3972,
      "ĠTig": 3973,
      "ĠBir": 3974,
      "ĠXug": 3975,
      "820": 3976,
      "ĠJog": 3977,
      "ĠWir": 3978,
      "ĠSir": 3979,
      "ĠNig": 3980,
      "ĠJeg": 3981,
      "ĠFag": 3982,
      "394": 3983,
      "826": 3984,
      "705": 3985,
      "828": 3986,
      "ĠCig": 3987,
      "ĠYag": 3988,
      "ĠGig": 3989,
      "533": 3990,
      "654": 3991,
      "ĠVog": 3992,
      "866": 3993,
      "ĠTag": 3994,
      "ĠLeg": 3995,
      "ĠQag": 3996,
      "803": 3997,
      "ĠXag": 3998,
      "112": 3999,
      "993": 4000,
      "ĠLir": 4001,
      "ĠDir": 4002,
      "655": 4003,
      "ĠNeg": 4004,
      "ĠXeg": 4005,
      "767": 4006,
      "ĠGir": 4007,
      "ĠSog": 4008,
      "ĠBeg": 4009,
      "593": 4010,
      "ĠNir": 4011,
      "ĠDag": 4012,
      "ĠHeg": 4013,
      "ĠQeg": 4014,
      "434": 4015,
      "766": 4016,
      "ĠVeg": 4017,
      "ĠXog": 4018,
      "211": 4019,
      "719": 4020,
      "714": 4021,
      "612": 4022,
      "793": 4023,
      "744": 4024,
      "867": 4025,
      "ĠHir": 4026,
      "455": 4027,
      "634": 4028,
      "ĠMeg": 4029,
      "ĠRog": 4030,
      "ĠZog": 4031,
      "433": 4032,
      "894": 4033,
      "ĠYir": 4034,
      "ĠKir": 4035,
      "694": 4036,
      "ĠNog": 4037,
      "ĠVig": 4038,
      "ĠYig": 4039,
      "ĠPir": 4040,
      "212": 4041,
      "354": 4042,
      "353": 4043,
      "599": 4044,
      "794": 4045,
      "ĠMug": 4046,
      "ĠJir": 4047,
      "393": 4048,
      "501": 4049,
      "601": 4050,
      "912": 4051,
      "ĠBug": 4052,
      "720": 4053,
      "ĠVag": 4054,
      "ĠKag": 4055,
      "733": 4056,
      "ĠRig": 4057,
      "ĠCeg": 4058,
      "ĠGog": 4059,
      "453": 4060,
      "693": 4061,
      "833": 4062,
      "ĠKog": 4063,
      "644": 4064,
      "ĠRir": 4065,
      "ĠBag": 4066,
      "ĠBig": 4067,
      "ĠPog": 4068,
      "499": 4069,
      "ĠMag": 4070,
      "553": 4071,
      "754": 4072,
      "ĠTir": 4073,
      "ĠFog": 4074,
      "712": 4075,
      "ĠQir": 4076,
      "ĠDig": 4077,
      "411": 4078,
      "755": 4079,
      "853": 4080,
      "399": 4081,
      "701": 4082,
      "ĠHig": 4083,
      "ĠFig": 4084,
      "ĠZir": 4085,
      "854": 4086,
      "911": 4087,
      "653": 4088,
      "ĠRug": 4089,
      "355": 4090,
      "699": 4091,
      "844": 4092,
      "834": 4093,
      "459": 4094,
      "695": 4095,
      "812": 4096,
      "ĠReg": 4097,
      "511": 4098,
      "003": 4099,
      "311": 4100,
      "ĠPeg": 4101,
      "743": 4102,
      "643": 4103,
      "753": 4104,
      "734": 4105,
      "ĠXir": 4106,
      "006": 4107,
      "495": 4108,
      "955": 4109,
      "899": 4110,
      "401": 4111,
      "855": 4112,
      "005": 4113,
      "711": 4114,
      "595": 4115,
      "811": 4116,
      "801": 4117,
      "795": 4118,
      "395": 4119,
      "859": 4120,
      "010": 4121,
      "893": 4122,
      "611": 4123,
      "649": 4124,
      "635": 4125,
      "843": 4126,
      "845": 4127,
      "739": 4128,
      "322": 4129,
      "659": 4130,
      "745": 4131,
      "895": 4132,
      "422": 4133,
      "799": 4134,
      "639": 4135,
      "749": 4136,
      "645": 4137,
      "008": 4138,
      "522": 4139,
      "822": 4140,
      "009": 4141,
      "839": 4142,
      "849": 4143,
      "922": 4144,
      "359": 4145,
      "759": 4146,
      "ĠSegi": 4147,
      "ĠBote": 4148,
      "ĠQuti": 4149,
      "ĠKoti": 4150,
      "004": 4151,
      "ĠBoli": 4152,
      "835": 4153,
      "192": 4154,
      "ĠVoli": 4155,
      "007": 4156,
      "ĠDuti": 4157,
      "735": 4158,
      "ĠBili": 4159,
      "252": 4160,
      "203": 4161,
      "ĠCore": 4162,
      "ĠCugi": 4163,
      "ĠDagi": 4164,
      "180": 4165,
      "ĠZove": 4166,
      "ĠDake": 4167,
      "ĠJode": 4168,
      "ĠZeke": 4169,
      "ĠMequ": 4170,
      "ĠQohe": 4171,
      "ĠKule": 4172,
      "ĠPigi": 4173,
      "102": 4174,
      "484": 4175,
      "ĠQogi": 4176,
      "ĠXali": 4177,
      "ĠSuke": 4178,
      "ĠNude": 4179,
      "ĠGoli": 4180,
      "ĠXuli": 4181,
      "387": 4182,
      "ĠRike": 4183,
      "ĠVoke": 4184,
      "ĠXule": 4185,
      "283": 4186,
      "400": 4187,
      "199": 4188,
      "ĠColi": 4189,
      "ĠQase": 4190,
      "ĠKote": 4191,
      "157": 4192,
      "471": 4193,
      "ĠSede": 4194,
      "ĠToke": 4195,
      "ĠJase": 4196,
      "ĠGure": 4197,
      "ĠXugi": 4198,
      "985": 4199,
      "ĠNefi": 4200,
      "ĠNute": 4201,
      "ĠQuqu": 4202,
      "ĠYenu": 4203,
      "ĠKefi": 4204,
      "ĠKake": 4205,
      "ĠJete": 4206,
      "ĠHugi": 4207,
      "ĠGiti": 4208,
      "ĠZoti": 4209,
      "105": 4210,
      "ĠNoti": 4211,
      "ĠNure": 4212,
      "ĠNede": 4213,
      "ĠBuqu": 4214,
      "ĠCike": 4215,
      "ĠVahe": 4216,
      "100": 4217,
      "276": 4218,
      "ĠTeti": 4219,
      "ĠRede": 4220,
      "ĠDahe": 4221,
      "ĠHuve": 4222,
      "991": 4223,
      "200": 4224,
      "209": 4225,
      "ĠBude": 4226,
      "ĠCihe": 4227,
      "ĠKade": 4228,
      "ĠJoli": 4229,
      "ĠWugi": 4230,
      "ĠPake": 4231,
      "ĠPeve": 4232,
      "151": 4233,
      "240": 4234,
      "ĠNuli": 4235,
      "ĠCude": 4236,
      "ĠCero": 4237,
      "ĠViqu": 4238,
      "ĠFafi": 4239,
      "562": 4240,
      "363": 4241,
      "900": 4242,
      "ĠSahe": 4243,
      "ĠTogi": 4244,
      "ĠMinu": 4245,
      "ĠMeli": 4246,
      "193": 4247,
      "ĠBuce": 4248,
      "566": 4249,
      "965": 4250,
      "530": 4251,
      "722": 4252,
      "800": 4253,
      "ĠSale": 4254,
      "ĠTeke": 4255,
      "ĠNal": 4256,
      "ĠBede": 4257,
      "ĠCahe": 4258,
      "ĠQahe": 4259,
      "ĠYuli": 4260,
      "490": 4261,
      "ĠTuke": 4262,
      "ĠNore": 4263,
      "ĠMefi": 4264,
      "ĠVufi": 4265,
      "ĠJihe": 4266,
      "ĠJece": 4267,
      "ĠWul": 4268,
      "ĠGoke": 4269,
      "ĠGeli": 4270,
      "122": 4271,
      "861": 4272,
      "ĠNuqu": 4273,
      "ĠBode": 4274,
      "ĠBegi": 4275,
      "ĠCole": 4276,
      "ĠLide": 4277,
      "ĠYol": 4278,
      "ĠHeli": 4279,
      "ĠFote": 4280,
      "ĠZeti": 4281,
      "115": 4282,
      "475": 4283,
      "478": 4284,
      "ĠCoti": 4285,
      "ĠCodu": 4286,
      "ĠLudu": 4287,
      "ĠLiri": 4288,
      "ĠVode": 4289,
      "ĠVali": 4290,
      "ĠYihe": 4291,
      "ĠKure": 4292,
      "ĠJoti": 4293,
      "ĠFoqu": 4294,
      "ĠFure": 4295,
      "ĠXaqu": 4296,
      "ĠXifi": 4297,
      "243": 4298,
      "380": 4299,
      "479": 4300,
      "362": 4301,
      "ĠSore": 4302,
      "ĠTure": 4303,
      "ĠNule": 4304,
      "ĠNire": 4305,
      "ĠNeve": 4306,
      "ĠLel": 4307,
      "ĠLure": 4308,
      "ĠYogi": 4309,
      "ĠJuke": 4310,
      "ĠHoli": 4311,
      "ĠZohe": 4312,
      "ĠZugi": 4313,
      "ĠPeti": 4314,
      "134": 4315,
      "237": 4316,
      "540": 4317,
      "ĠSake": 4318,
      "ĠSuli": 4319,
      "ĠBele": 4320,
      "ĠCale": 4321,
      "ĠCire": 4322,
      "ĠLeve": 4323,
      "ĠYali": 4324,
      "ĠYire": 4325,
      "ĠYeli": 4326,
      "ĠKove": 4327,
      "ĠHiqu": 4328,
      "ĠFoti": 4329,
      "ĠFuce": 4330,
      "ĠWuli": 4331,
      "ĠXol": 4332,
      "ĠZake": 4333,
      "106": 4334,
      "ĠSude": 4335,
      "ĠNote": 4336,
      "ĠMoli": 4337,
      "ĠBule": 4338,
      "ĠCule": 4339,
      "ĠLede": 4340,
      "ĠVohe": 4341,
      "ĠVeke": 4342,
      "ĠYule": 4343,
      "ĠJuti": 4344,
      "ĠJute": 4345,
      "ĠHuli": 4346,
      "ĠHore": 4347,
      "ĠHiri": 4348,
      "ĠFoke": 4349,
      "ĠGahe": 4350,
      "164": 4351,
      "588": 4352,
      "551": 4353,
      "841": 4354,
      "ĠMel": 4355,
      "ĠCequ": 4356,
      "ĠCegi": 4357,
      "ĠQafi": 4358,
      "ĠQire": 4359,
      "ĠQegu": 4360,
      "ĠKehe": 4361,
      "ĠJure": 4362,
      "ĠJite": 4363,
      "ĠHire": 4364,
      "ĠWal": 4365,
      "ĠZefi": 4366,
      "ĠZoli": 4367,
      "ĠZuli": 4368,
      "ĠZuti": 4369,
      "ĠZuce": 4370,
      "ĠZede": 4371,
      "153": 4372,
      "292": 4373,
      "949": 4374,
      "ĠSase": 4375,
      "ĠSel": 4376,
      "ĠTali": 4377,
      "ĠTagi": 4378,
      "ĠTequ": 4379,
      "ĠTehe": 4380,
      "ĠCali": 4381,
      "ĠQake": 4382,
      "ĠQeti": 4383,
      "ĠDave": 4384,
      "ĠDite": 4385,
      "ĠVuli": 4386,
      "ĠVore": 4387,
      "ĠYuke": 4388,
      "ĠKodu": 4389,
      "ĠJeli": 4390,
      "ĠHude": 4391,
      "ĠFeli": 4392,
      "ĠWude": 4393,
      "ĠWagi": 4394,
      "175": 4395,
      "545": 4396,
      "742": 4397,
      "ĠSiti": 4398,
      "ĠMihe": 4399,
      "ĠMeke": 4400,
      "ĠBoke": 4401,
      "ĠBeli": 4402,
      "ĠQel": 4403,
      "ĠQece": 4404,
      "ĠVove": 4405,
      "ĠJade": 4406,
      "ĠHul": 4407,
      "ĠFase": 4408,
      "ĠFare": 4409,
      "ĠWete": 4410,
      "ĠGaqu": 4411,
      "ĠZode": 4412,
      "111": 4413,
      "155": 4414,
      "255": 4415,
      "270": 4416,
      "465": 4417,
      "ĠSoti": 4418,
      "ĠTuqu": 4419,
      "ĠNili": 4420,
      "ĠMole": 4421,
      "ĠMuhe": 4422,
      "ĠRoli": 4423,
      "ĠQove": 4424,
      "ĠQude": 4425,
      "ĠQete": 4426,
      "ĠDere": 4427,
      "ĠDoti": 4428,
      "ĠVede": 4429,
      "ĠYefi": 4430,
      "ĠYugi": 4431,
      "ĠYede": 4432,
      "ĠKuli": 4433,
      "ĠKoke": 4434,
      "ĠJogi": 4435,
      "ĠHahe": 4436,
      "ĠFule": 4437,
      "ĠGul": 4438,
      "ĠXehe": 4439,
      "ĠZili": 4440,
      "ĠPihi": 4441,
      "113": 4442,
      "373": 4443,
      "570": 4444,
      "550": 4445,
      "ĠTafi": 4446,
      "ĠTuhi": 4447,
      "ĠNali": 4448,
      "ĠNade": 4449,
      "ĠNave": 4450,
      "ĠMuke": 4451,
      "ĠMuqu": 4452,
      "ĠRoqu": 4453,
      "ĠMafi": 4454,
      "ĠCuqu": 4455,
      "ĠQide": 4456,
      "ĠReti": 4457,
      "ĠVel": 4458,
      "ĠYequ": 4459,
      "ĠKali": 4460,
      "ĠKagu": 4461,
      "ĠHenu": 4462,
      "ĠWoqu": 4463,
      "ĠWede": 4464,
      "ĠGili": 4465,
      "129": 4466,
      "284": 4467,
      "246": 4468,
      "480": 4469,
      "932": 4470,
      "300": 4471,
      "ĠSade": 4472,
      "ĠTole": 4473,
      "ĠBigi": 4474,
      "ĠCeli": 4475,
      "ĠLeci": 4476,
      "ĠDifi": 4477,
      "ĠDequ": 4478,
      "ĠVave": 4479,
      "ĠYeke": 4480,
      "ĠYedu": 4481,
      "ĠHigi": 4482,
      "ĠGal": 4483,
      "ĠGede": 4484,
      "ĠXeli": 4485,
      "ĠZuqu": 4486,
      "ĠZagi": 4487,
      "ĠPeke": 4488,
      "ĠPehi": 4489,
      "970": 4490,
      "774": 4491,
      "ĠSol": 4492,
      "ĠSici": 4493,
      "ĠTece": 4494,
      "ĠNake": 4495,
      "ĠNoce": 4496,
      "ĠMoti": 4497,
      "190": 4498,
      "195": 4499,
      "ĠRude": 4500,
      "ĠMali": 4501,
      "ĠLode": 4502,
      "ĠLuve": 4503,
      "ĠLiti": 4504,
      "ĠDuke": 4505,
      "ĠVigi": 4506,
      "ĠYake": 4507,
      "ĠKeti": 4508,
      "ĠKeke": 4509,
      "ĠKete": 4510,
      "ĠJoqu": 4511,
      "ĠFire": 4512,
      "ĠFegi": 4513,
      "ĠWike": 4514,
      "ĠWola": 4515,
      "ĠGare": 4516,
      "ĠGufi": 4517,
      "ĠXuke": 4518,
      "ĠXahe": 4519,
      "ĠZol": 4520,
      "ĠZiqu": 4521,
      "ĠPuti": 4522,
      "104": 4523,
      "247": 4524,
      "236": 4525,
      "388": 4526,
      "ĠSere": 4527,
      "ĠSoli": 4528,
      "ĠSare": 4529,
      "ĠSodu": 4530,
      "ĠSili": 4531,
      "ĠToti": 4532,
      "ĠTifi": 4533,
      "ĠNole": 4534,
      "ĠBete": 4535,
      "ĠCehe": 4536,
      "ĠLore": 4537,
      "ĠLugi": 4538,
      "ĠDinu": 4539,
      "ĠDede": 4540,
      "ĠDele": 4541,
      "ĠVeti": 4542,
      "ĠKice": 4543,
      "ĠHase": 4544,
      "ĠHagu": 4545,
      "ĠFale": 4546,
      "ĠFece": 4547,
      "ĠWuti": 4548,
      "ĠWodu": 4549,
      "ĠWuhe": 4550,
      "ĠGove": 4551,
      "ĠGuke": 4552,
      "ĠXuqu": 4553,
      "ĠPequ": 4554,
      "ĠPenu": 4555,
      "187": 4556,
      "330": 4557,
      "790": 4558,
      "650": 4559,
      "ĠSal": 4560,
      "201": 4561,
      "ĠNinu": 4562,
      "ĠRare": 4563,
      "ĠRigi": 4564,
      "ĠBeke": 4565,
      "ĠCede": 4566,
      "ĠLali": 4567,
      "ĠLice": 4568,
      "ĠQuli": 4569,
      "ĠQure": 4570,
      "ĠQugi": 4571,
      "ĠQoce": 4572,
      "ĠReli": 4573,
      "ĠVuhe": 4574,
      "ĠVegi": 4575,
      "ĠKoqu": 4576,
      "ĠJare": 4577,
      "ĠHeke": 4578,
      "ĠWame": 4579,
      "ĠWade": 4580,
      "ĠGedu": 4581,
      "ĠXece": 4582,
      "ĠXele": 4583,
      "ĠPiti": 4584,
      "561": 4585,
      "461": 4586,
      "963": 4587,
      "968": 4588,
      "535": 4589,
      "930": 4590,
      "781": 4591,
      "421": 4592,
      "ĠTuli": 4593,
      "ĠTinu": 4594,
      "ĠNoke": 4595,
      "ĠNihe": 4596,
      "ĠMode": 4597,
      "ĠMehe": 4598,
      "ĠRuli": 4599,
      "ĠRute": 4600,
      "ĠBate": 4601,
      "ĠCuli": 4602,
      "ĠLinu": 4603,
      "ĠLeli": 4604,
      "ĠQate": 4605,
      "ĠQaqu": 4606,
      "ĠQudu": 4607,
      "ĠDali": 4608,
      "ĠDufi": 4609,
      "ĠVude": 4610,
      "ĠVeli": 4611,
      "ĠVero": 4612,
      "ĠYuro": 4613,
      "ĠKore": 4614,
      "ĠHiti": 4615,
      "ĠHide": 4616,
      "ĠFefi": 4617,
      "ĠFore": 4618,
      "ĠFuve": 4619,
      "ĠFequ": 4620,
      "ĠGuqu": 4621,
      "ĠGugi": 4622,
      "ĠXove": 4623,
      "ĠZifi": 4624,
      "ĠZeli": 4625,
      "ĠPote": 4626,
      "ĠPehe": 4627,
      "154": 4628,
      "250": 4629,
      "172": 4630,
      "384": 4631,
      "370": 4632,
      "378": 4633,
      "578": 4634,
      "942": 4635,
      "944": 4636,
      "335": 4637,
      "990": 4638,
      "864": 4639,
      "600": 4640,
      "ĠSefi": 4641,
      "ĠSogi": 4642,
      "ĠSece": 4643,
      "ĠTuti": 4644,
      "ĠTili": 4645,
      "ĠNuve": 4646,
      "ĠMase": 4647,
      "ĠMote": 4648,
      "ĠMenu": 4649,
      "ĠMedu": 4650,
      "ĠMare": 4651,
      "ĠBuke": 4652,
      "ĠCaqu": 4653,
      "ĠLive": 4654,
      "ĠLenu": 4655,
      "ĠQul": 4656,
      "ĠQace": 4657,
      "ĠQifi": 4658,
      "ĠDel": 4659,
      "ĠDogu": 4660,
      "ĠVike": 4661,
      "ĠVece": 4662,
      "ĠYare": 4663,
      "ĠKuke": 4664,
      "ĠJifi": 4665,
      "ĠFike": 4666,
      "ĠFeke": 4667,
      "ĠWuke": 4668,
      "ĠXole": 4669,
      "ĠZahe": 4670,
      "ĠZali": 4671,
      "ĠZidu": 4672,
      "ĠPal": 4673,
      "222": 4674,
      "468": 4675,
      "469": 4676,
      "559": 4677,
      "865": 4678,
      "752": 4679,
      "ĠTuce": 4680,
      "ĠNare": 4681,
      "ĠMili": 4682,
      "ĠMele": 4683,
      "ĠBire": 4684,
      "ĠCere": 4685,
      "ĠLuke": 4686,
      "ĠLuhe": 4687,
      "ĠQula": 4688,
      "ĠRegi": 4689,
      "ĠRegu": 4690,
      "ĠDide": 4691,
      "ĠVuce": 4692,
      "ĠVihe": 4693,
      "ĠYere": 4694,
      "ĠYole": 4695,
      "ĠYude": 4696,
      "ĠYiqu": 4697,
      "ĠYike": 4698,
      "ĠYeti": 4699,
      "ĠFuqu": 4700,
      "ĠWake": 4701,
      "ĠWeke": 4702,
      "ĠWehe": 4703,
      "ĠGode": 4704,
      "ĠGuve": 4705,
      "ĠGute": 4706,
      "ĠGiqu": 4707,
      "ĠGihi": 4708,
      "ĠXale": 4709,
      "ĠXedu": 4710,
      "ĠPore": 4711,
      "ĠPite": 4712,
      "114": 4713,
      "159": 4714,
      "170": 4715,
      "272": 4716,
      "441": 4717,
      "442": 4718,
      "340": 4719,
      "431": 4720,
      "ĠSinu": 4721,
      "ĠTede": 4722,
      "ĠMoqu": 4723,
      "ĠMigu": 4724,
      "ĠMeve": 4725,
      "ĠRuqu": 4726,
      "ĠBifi": 4727,
      "ĠCode": 4728,
      "ĠLoli": 4729,
      "ĠLade": 4730,
      "ĠQuke": 4731,
      "ĠQehe": 4732,
      "ĠVuve": 4733,
      "ĠYohe": 4734,
      "ĠKogi": 4735,
      "ĠKike": 4736,
      "ĠKegi": 4737,
      "ĠJake": 4738,
      "ĠJohe": 4739,
      "ĠHode": 4740,
      "ĠHuti": 4741,
      "ĠHufi": 4742,
      "ĠHogu": 4743,
      "ĠWale": 4744,
      "ĠWufi": 4745,
      "ĠWedu": 4746,
      "ĠGace": 4747,
      "ĠGehe": 4748,
      "ĠXere": 4749,
      "ĠXuhe": 4750,
      "ĠXequ": 4751,
      "ĠZute": 4752,
      "ĠPuce": 4753,
      "282": 4754,
      "132": 4755,
      "149": 4756,
      "982": 4757,
      "476": 4758,
      "966": 4759,
      "945": 4760,
      "450": 4761,
      "750": 4762,
      "204": 4763,
      "ĠNifi": 4764,
      "ĠNeli": 4765,
      "ĠMuce": 4766,
      "ĠMige": 4767,
      "ĠQave": 4768,
      "ĠQili": 4769,
      "ĠRequ": 4770,
      "ĠVequ": 4771,
      "ĠYafi": 4772,
      "ĠYuqu": 4773,
      "ĠYide": 4774,
      "ĠKase": 4775,
      "ĠJul": 4776,
      "ĠHici": 4777,
      "ĠHeve": 4778,
      "ĠFali": 4779,
      "ĠFade": 4780,
      "ĠXure": 4781,
      "ĠXihe": 4782,
      "ĠXili": 4783,
      "ĠZinu": 4784,
      "ĠZuro": 4785,
      "ĠPale": 4786,
      "125": 4787,
      "184": 4788,
      "131": 4789,
      "988": 4790,
      "477": 4791,
      "460": 4792,
      "368": 4793,
      "961": 4794,
      "885": 4795,
      "886": 4796,
      "491": 4797,
      "ĠSul": 4798,
      "ĠSihi": 4799,
      "194": 4800,
      "ĠRufi": 4801,
      "ĠBove": 4802,
      "ĠBafi": 4803,
      "ĠBenu": 4804,
      "ĠCure": 4805,
      "ĠCagu": 4806,
      "ĠLigi": 4807,
      "ĠRere": 4808,
      "ĠDul": 4809,
      "ĠDihe": 4810,
      "ĠVuke": 4811,
      "ĠYase": 4812,
      "ĠKafi": 4813,
      "ĠKuce": 4814,
      "ĠJude": 4815,
      "ĠJige": 4816,
      "ĠHol": 4817,
      "ĠHali": 4818,
      "ĠHodu": 4819,
      "ĠFufi": 4820,
      "ĠFihe": 4821,
      "ĠFiqu": 4822,
      "ĠFinu": 4823,
      "ĠXade": 4824,
      "ĠZafi": 4825,
      "ĠZule": 4826,
      "ĠZici": 4827,
      "ĠPive": 4828,
      "ĠPiqu": 4829,
      "ĠPede": 4830,
      "268": 4831,
      "229": 4832,
      "489": 4833,
      "361": 4834,
      "975": 4835,
      "959": 4836,
      "700": 4837,
      "ĠSice": 4838,
      "ĠSedu": 4839,
      "ĠTiqu": 4840,
      "ĠTenu": 4841,
      "ĠMuve": 4842,
      "ĠMeti": 4843,
      "ĠMegu": 4844,
      "ĠRal": 4845,
      "ĠRifi": 4846,
      "ĠMagi": 4847,
      "ĠBale": 4848,
      "ĠBoce": 4849,
      "ĠBufi": 4850,
      "ĠCedu": 4851,
      "ĠLahe": 4852,
      "ĠLuqu": 4853,
      "ĠLuce": 4854,
      "ĠQive": 4855,
      "ĠQale": 4856,
      "ĠQequ": 4857,
      "ĠDuli": 4858,
      "ĠJugi": 4859,
      "ĠHale": 4860,
      "ĠHohi": 4861,
      "ĠGogi": 4862,
      "ĠGoqu": 4863,
      "ĠGide": 4864,
      "ĠGete": 4865,
      "ĠXoke": 4866,
      "ĠZegu": 4867,
      "ĠPole": 4868,
      "ĠPadu": 4869,
      "158": 4870,
      "188": 4871,
      "278": 4872,
      "136": 4873,
      "145": 4874,
      "472": 4875,
      "589": 4876,
      "773": 4877,
      "432": 4878,
      "435": 4879,
      "ĠTake": 4880,
      "ĠTale": 4881,
      "ĠTugu": 4882,
      "ĠNuce": 4883,
      "ĠMude": 4884,
      "ĠMite": 4885,
      "ĠBuli": 4886,
      "ĠQagi": 4887,
      "ĠQufi": 4888,
      "ĠDati": 4889,
      "ĠViti": 4890,
      "ĠYoti": 4891,
      "ĠYudu": 4892,
      "ĠYuci": 4893,
      "ĠKeli": 4894,
      "ĠKece": 4895,
      "ĠJuli": 4896,
      "ĠJole": 4897,
      "ĠJogu": 4898,
      "ĠJinu": 4899,
      "ĠFagi": 4900,
      "ĠFave": 4901,
      "ĠGohe": 4902,
      "ĠGole": 4903,
      "ĠGadu": 4904,
      "ĠZal": 4905,
      "ĠZade": 4906,
      "ĠZaqu": 4907,
      "ĠPali": 4908,
      "ĠPare": 4909,
      "121": 4910,
      "150": 4911,
      "186": 4912,
      "275": 4913,
      "141": 4914,
      "264": 4915,
      "980": 4916,
      "967": 4917,
      "876": 4918,
      "ĠTal": 4919,
      "ĠTite": 4920,
      "ĠTici": 4921,
      "ĠNere": 4922,
      "ĠNehe": 4923,
      "ĠNece": 4924,
      "ĠMove": 4925,
      "ĠMete": 4926,
      "ĠRogu": 4927,
      "ĠMaqu": 4928,
      "ĠBave": 4929,
      "ĠBiqu": 4930,
      "ĠBigu": 4931,
      "ĠCare": 4932,
      "ĠLohe": 4933,
      "ĠLire": 4934,
      "ĠLige": 4935,
      "ĠLehi": 4936,
      "ĠVace": 4937,
      "ĠVute": 4938,
      "ĠYul": 4939,
      "ĠYagi": 4940,
      "ĠKigi": 4941,
      "ĠJuhe": 4942,
      "ĠJuce": 4943,
      "ĠJenu": 4944,
      "ĠJele": 4945,
      "ĠHake": 4946,
      "ĠHice": 4947,
      "ĠWode": 4948,
      "ĠWoce": 4949,
      "ĠGuli": 4950,
      "ĠGule": 4951,
      "ĠGite": 4952,
      "ĠXati": 4953,
      "ĠXoli": 4954,
      "ĠPoli": 4955,
      "ĠPoqu": 4956,
      "ĠPuhe": 4957,
      "ĠPike": 4958,
      "ĠPice": 4959,
      "181": 4960,
      "185": 4961,
      "992": 4962,
      "672": 4963,
      "341": 4964,
      "ĠSufi": 4965,
      "ĠSequ": 4966,
      "ĠNaqu": 4967,
      "ĠMuli": 4968,
      "ĠMure": 4969,
      "ĠRagi": 4970,
      "ĠRulo": 4971,
      "ĠMade": 4972,
      "ĠBiro": 4973,
      "ĠCice": 4974,
      "ĠLegu": 4975,
      "ĠQol": 4976,
      "ĠRehe": 4977,
      "ĠRenu": 4978,
      "ĠDire": 4979,
      "ĠVure": 4980,
      "ĠYace": 4981,
      "ĠKoli": 4982,
      "ĠKire": 4983,
      "ĠKifi": 4984,
      "ĠKite": 4985,
      "ĠKenu": 4986,
      "ĠHate": 4987,
      "ĠHaqu": 4988,
      "ĠHike": 4989,
      "ĠHeti": 4990,
      "ĠFahe": 4991,
      "ĠFuhi": 4992,
      "ĠGogu": 4993,
      "ĠGahi": 4994,
      "ĠXode": 4995,
      "ĠXogi": 4996,
      "ĠXagu": 4997,
      "ĠXala": 4998,
      "ĠZufi": 4999,
      "234": 5000,
      "377": 5001,
      "485": 5002,
      "462": 5003,
      "587": 5004,
      "579": 5005,
      "973": 5006,
      "555": 5007,
      "ĠSate": 5008,
      "ĠSohe": 5009,
      "ĠSeve": 5010,
      "ĠTere": 5011,
      "ĠToqu": 5012,
      "ĠTugi": 5013,
      "ĠTiti": 5014,
      "ĠTehi": 5015,
      "202": 5016,
      "ĠNiqu": 5017,
      "ĠNugu": 5018,
      "ĠNegu": 5019,
      "ĠMute": 5020,
      "ĠMide": 5021,
      "ĠBal": 5022,
      "ĠBehe": 5023,
      "ĠCuti": 5024,
      "ĠCinu": 5025,
      "ĠLoti": 5026,
      "ĠLule": 5027,
      "ĠLele": 5028,
      "ĠLero": 5029,
      "ĠQite": 5030,
      "ĠQulo": 5031,
      "ĠDade": 5032,
      "ĠDili": 5033,
      "ĠDigi": 5034,
      "ĠVase": 5035,
      "ĠVice": 5036,
      "ĠYoli": 5037,
      "ĠYili": 5038,
      "ĠKadu": 5039,
      "ĠKace": 5040,
      "ĠKede": 5041,
      "ĠJove": 5042,
      "ĠJadu": 5043,
      "ĠHove": 5044,
      "ĠFohe": 5045,
      "ĠFude": 5046,
      "ĠFugi": 5047,
      "ĠFiti": 5048,
      "ĠWove": 5049,
      "ĠGel": 5050,
      "ĠGifi": 5051,
      "ĠPove": 5052,
      "ĠPohe": 5053,
      "ĠPire": 5054,
      "ĠPedu": 5055,
      "124": 5056,
      "152": 5057,
      "179": 5058,
      "139": 5059,
      "262": 5060,
      "560": 5061,
      "983": 5062,
      "584": 5063,
      "541": 5064,
      "531": 5065,
      "443": 5066,
      "830": 5067,
      "622": 5068,
      "ĠSadu": 5069,
      "ĠSave": 5070,
      "ĠSugu": 5071,
      "ĠTode": 5072,
      "ĠTote": 5073,
      "ĠTire": 5074,
      "ĠNigu": 5075,
      "ĠMive": 5076,
      "ĠMuhi": 5077,
      "ĠRule": 5078,
      "ĠRuro": 5079,
      "ĠBuhe": 5080,
      "ĠCul": 5081,
      "ĠLare": 5082,
      "ĠLete": 5083,
      "ĠQeke": 5084,
      "ĠRece": 5085,
      "ĠVuti": 5086,
      "ĠYove": 5087,
      "ĠYadu": 5088,
      "ĠYaqu": 5089,
      "ĠKequ": 5090,
      "ĠJafi": 5091,
      "ĠJali": 5092,
      "ĠJave": 5093,
      "ĠHal": 5094,
      "ĠFake": 5095,
      "ĠWeti": 5096,
      "ĠGafi": 5097,
      "ĠGuti": 5098,
      "ĠGuhe": 5099,
      "ĠGeve": 5100,
      "ĠXate": 5101,
      "ĠZire": 5102,
      "ĠZegi": 5103,
      "ĠPogu": 5104,
      "281": 5105,
      "163": 5106,
      "295": 5107,
      "981": 5108,
      "741": 5109,
      "ĠSuve": 5110,
      "ĠSute": 5111,
      "ĠTuve": 5112,
      "ĠTahi": 5113,
      "ĠTele": 5114,
      "ĠNel": 5115,
      "ĠNugi": 5116,
      "ĠNufi": 5117,
      "ĠMire": 5118,
      "ĠMiqu": 5119,
      "ĠRode": 5120,
      "ĠRudu": 5121,
      "ĠBel": 5122,
      "ĠBogi": 5123,
      "ĠBore": 5124,
      "ĠBugu": 5125,
      "ĠCase": 5126,
      "ĠCefi": 5127,
      "ĠCuhe": 5128,
      "ĠCave": 5129,
      "ĠLuti": 5130,
      "ĠLadu": 5131,
      "ĠQede": 5132,
      "ĠQeci": 5133,
      "ĠDude": 5134,
      "ĠDuce": 5135,
      "ĠDuci": 5136,
      "ĠVale": 5137,
      "ĠVudu": 5138,
      "ĠVuro": 5139,
      "ĠValo": 5140,
      "ĠKahe": 5141,
      "ĠKuhe": 5142,
      "ĠKili": 5143,
      "ĠJate": 5144,
      "ĠJire": 5145,
      "ĠHote": 5146,
      "ĠHoke": 5147,
      "ĠHule": 5148,
      "ĠHigu": 5149,
      "ĠHehi": 5150,
      "ĠFudu": 5151,
      "ĠWici": 5152,
      "ĠWele": 5153,
      "ĠGale": 5154,
      "ĠGave": 5155,
      "ĠGiro": 5156,
      "ĠGequ": 5157,
      "ĠGehi": 5158,
      "ĠXake": 5159,
      "ĠXafi": 5160,
      "ĠXide": 5161,
      "ĠXiro": 5162,
      "ĠXede": 5163,
      "ĠPahe": 5164,
      "107": 5165,
      "116": 5166,
      "178": 5167,
      "277": 5168,
      "367": 5169,
      "976": 5170,
      "687": 5171,
      "740": 5172,
      "321": 5173,
      "ĠSite": 5174,
      "ĠSage": 5175,
      "ĠTel": 5176,
      "ĠTahe": 5177,
      "ĠNudu": 5178,
      "ĠNahi": 5179,
      "ĠRate": 5180,
      "ĠMate": 5181,
      "ĠBati": 5182,
      "ĠBeti": 5183,
      "ĠCili": 5184,
      "ĠCeke": 5185,
      "ĠLole": 5186,
      "ĠLuge": 5187,
      "ĠLegi": 5188,
      "ĠQode": 5189,
      "ĠQule": 5190,
      "ĠQihe": 5191,
      "ĠQigi": 5192,
      "ĠDase": 5193,
      "ĠVadu": 5194,
      "ĠVinu": 5195,
      "ĠYuhe": 5196,
      "ĠKal": 5197,
      "ĠKel": 5198,
      "ĠJel": 5199,
      "ĠJore": 5200,
      "ĠFate": 5201,
      "ĠFili": 5202,
      "ĠFala": 5203,
      "ĠWute": 5204,
      "ĠWide": 5205,
      "ĠGere": 5206,
      "ĠGoti": 5207,
      "ĠGiri": 5208,
      "ĠXote": 5209,
      "ĠXel": 5210,
      "ĠXuro": 5211,
      "ĠZadu": 5212,
      "ĠZiti": 5213,
      "ĠZenu": 5214,
      "ĠPugi": 5215,
      "ĠPihe": 5216,
      "ĠPeli": 5217,
      "257": 5218,
      "279": 5219,
      "147": 5220,
      "371": 5221,
      "374": 5222,
      "473": 5223,
      "464": 5224,
      "332": 5225,
      "681": 5226,
      "ĠSure": 5227,
      "ĠSuti": 5228,
      "ĠSike": 5229,
      "ĠSeli": 5230,
      "ĠNuke": 5231,
      "ĠNohe": 5232,
      "ĠNiti": 5233,
      "ĠMifi": 5234,
      "ĠRohe": 5235,
      "ĠRaqu": 5236,
      "ĠBere": 5237,
      "ĠBoqu": 5238,
      "ĠCace": 5239,
      "ĠCulo": 5240,
      "ĠCeti": 5241,
      "ĠLol": 5242,
      "ĠRete": 5243,
      "ĠReke": 5244,
      "ĠDale": 5245,
      "ĠDute": 5246,
      "ĠDeti": 5247,
      "ĠVugi": 5248,
      "ĠVoce": 5249,
      "ĠYuti": 5250,
      "ĠKuro": 5251,
      "ĠJahe": 5252,
      "ĠJuqu": 5253,
      "ĠJide": 5254,
      "ĠJike": 5255,
      "ĠJuhi": 5256,
      "ĠJegu": 5257,
      "ĠHure": 5258,
      "ĠHili": 5259,
      "ĠFite": 5260,
      "ĠXace": 5261,
      "ĠXiqu": 5262,
      "ĠXidu": 5263,
      "ĠZihe": 5264,
      "ĠZice": 5265,
      "ĠPele": 5266,
      "291": 5267,
      "296": 5268,
      "375": 5269,
      "482": 5270,
      "360": 5271,
      "580": 5272,
      "661": 5273,
      "ĠSole": 5274,
      "ĠTufi": 5275,
      "ĠTuro": 5276,
      "ĠTete": 5277,
      "ĠNate": 5278,
      "ĠNove": 5279,
      "ĠNiri": 5280,
      "ĠRase": 5281,
      "ĠRol": 5282,
      "ĠRoti": 5283,
      "ĠRure": 5284,
      "ĠRuhe": 5285,
      "ĠRiti": 5286,
      "ĠRiqu": 5287,
      "ĠBadu": 5288,
      "ĠCate": 5289,
      "ĠCote": 5290,
      "ĠCake": 5291,
      "ĠCogi": 5292,
      "ĠCiqu": 5293,
      "ĠCehi": 5294,
      "ĠLase": 5295,
      "ĠLoke": 5296,
      "ĠLici": 5297,
      "ĠQuci": 5298,
      "ĠRel": 5299,
      "ĠDode": 5300,
      "ĠDive": 5301,
      "ĠDare": 5302,
      "ĠDuro": 5303,
      "ĠVoqu": 5304,
      "ĠVule": 5305,
      "ĠVifi": 5306,
      "ĠVuci": 5307,
      "ĠViro": 5308,
      "ĠVici": 5309,
      "ĠVige": 5310,
      "ĠVeve": 5311,
      "ĠYodu": 5312,
      "ĠYoce": 5313,
      "ĠKude": 5314,
      "ĠKiti": 5315,
      "ĠKeve": 5316,
      "ĠJefi": 5317,
      "ĠJage": 5318,
      "ĠHade": 5319,
      "ĠHihe": 5320,
      "ĠFifi": 5321,
      "ĠGefi": 5322,
      "ĠGuce": 5323,
      "ĠGire": 5324,
      "ĠXufi": 5325,
      "ĠZoke": 5326,
      "165": 5327,
      "166": 5328,
      "167": 5329,
      "568": 5330,
      "984": 5331,
      "470": 5332,
      "960": 5333,
      "974": 5334,
      "333": 5335,
      "783": 5336,
      "592": 5337,
      "521": 5338,
      "ĠSifi": 5339,
      "ĠSiqu": 5340,
      "ĠSigi": 5341,
      "ĠSele": 5342,
      "ĠMol": 5343,
      "ĠMul": 5344,
      "ĠMece": 5345,
      "ĠRogi": 5346,
      "ĠRihe": 5347,
      "ĠButi": 5348,
      "ĠBihi": 5349,
      "ĠCele": 5350,
      "ĠLugu": 5351,
      "ĠRelo": 5352,
      "ĠDuqu": 5353,
      "ĠDoce": 5354,
      "ĠDiqu": 5355,
      "ĠVul": 5356,
      "ĠYal": 5357,
      "ĠYigi": 5358,
      "ĠYeve": 5359,
      "ĠHoti": 5360,
      "ĠHifi": 5361,
      "ĠFaqu": 5362,
      "ĠFoge": 5363,
      "ĠFuge": 5364,
      "ĠWece": 5365,
      "ĠGohi": 5366,
      "ĠXal": 5367,
      "ĠXul": 5368,
      "ĠXoti": 5369,
      "ĠXoce": 5370,
      "ĠXenu": 5371,
      "ĠXeve": 5372,
      "ĠZudu": 5373,
      "137": 5374,
      "140": 5375,
      "389": 5376,
      "486": 5377,
      "466": 5378,
      "572": 5379,
      "532": 5380,
      "539": 5381,
      "685": 5382,
      "632": 5383,
      "921": 5384,
      "ĠSala": 5385,
      "ĠSidu": 5386,
      "ĠTeve": 5387,
      "ĠNogi": 5388,
      "ĠNuhe": 5389,
      "ĠNegi": 5390,
      "ĠRale": 5391,
      "ĠBihe": 5392,
      "ĠBogu": 5393,
      "ĠBide": 5394,
      "ĠLale": 5395,
      "ĠLite": 5396,
      "ĠQoli": 5397,
      "ĠQade": 5398,
      "ĠQuhe": 5399,
      "ĠQiri": 5400,
      "ĠDohi": 5401,
      "ĠDike": 5402,
      "ĠDeke": 5403,
      "ĠDegi": 5404,
      "ĠYuve": 5405,
      "ĠYufi": 5406,
      "ĠYiri": 5407,
      "ĠKihe": 5408,
      "ĠKuci": 5409,
      "ĠKici": 5410,
      "ĠJequ": 5411,
      "ĠHefi": 5412,
      "ĠHegi": 5413,
      "ĠHece": 5414,
      "ĠFenu": 5415,
      "ĠWote": 5416,
      "ĠWoti": 5417,
      "ĠWafi": 5418,
      "ĠWole": 5419,
      "ĠWagu": 5420,
      "ĠWihi": 5421,
      "ĠXore": 5422,
      "ĠXegi": 5423,
      "ĠXeci": 5424,
      "ĠZul": 5425,
      "ĠPete": 5426,
      "173": 5427,
      "232": 5428,
      "986": 5429,
      "585": 5430,
      "941": 5431,
      "784": 5432,
      "787": 5433,
      "391": 5434,
      "205": 5435,
      "ĠNace": 5436,
      "ĠNagu": 5437,
      "ĠNenu": 5438,
      "ĠMede": 5439,
      "ĠRuke": 5440,
      "ĠRafi": 5441,
      "ĠBike": 5442,
      "ĠBidu": 5443,
      "ĠLedu": 5444,
      "ĠQuve": 5445,
      "ĠQute": 5446,
      "ĠQohi": 5447,
      "ĠDohe": 5448,
      "ĠDiro": 5449,
      "ĠYale": 5450,
      "ĠYegi": 5451,
      "ĠYegu": 5452,
      "ĠKele": 5453,
      "ĠJule": 5454,
      "ĠHite": 5455,
      "ĠHiro": 5456,
      "ĠFace": 5457,
      "ĠWefi": 5458,
      "ĠWuqu": 5459,
      "ĠWegu": 5460,
      "ĠGake": 5461,
      "ĠXoqu": 5462,
      "ĠZate": 5463,
      "ĠZure": 5464,
      "ĠPogi": 5465,
      "ĠPafi": 5466,
      "ĠPave": 5467,
      "ĠPace": 5468,
      "ĠPudu": 5469,
      "ĠPici": 5470,
      "ĠPiri": 5471,
      "103": 5472,
      "189": 5473,
      "177": 5474,
      "290": 5475,
      "379": 5476,
      "575": 5477,
      "680": 5478,
      "684": 5479,
      "776": 5480,
      "999": 5481,
      "674": 5482,
      "769": 5483,
      "452": 5484,
      "792": 5485,
      "690": 5486,
      "ĠSote": 5487,
      "ĠTore": 5488,
      "ĠTodu": 5489,
      "ĠTigi": 5490,
      "ĠNoli": 5491,
      "ĠNele": 5492,
      "ĠMici": 5493,
      "ĠRinu": 5494,
      "ĠCelo": 5495,
      "ĠLaqu": 5496,
      "ĠLave": 5497,
      "ĠLidu": 5498,
      "ĠQali": 5499,
      "ĠQele": 5500,
      "ĠDoqu": 5501,
      "ĠDeli": 5502,
      "ĠDece": 5503,
      "ĠYute": 5504,
      "ĠJol": 5505,
      "ĠHuhe": 5506,
      "ĠFul": 5507,
      "ĠFagu": 5508,
      "ĠFigi": 5509,
      "ĠFedu": 5510,
      "ĠWati": 5511,
      "ĠWifi": 5512,
      "ĠWigu": 5513,
      "ĠGade": 5514,
      "ĠGagi": 5515,
      "ĠGeti": 5516,
      "ĠPoti": 5517,
      "ĠPuli": 5518,
      "ĠPuke": 5519,
      "242": 5520,
      "148": 5521,
      "376": 5522,
      "487": 5523,
      "365": 5524,
      "780": 5525,
      "669": 5526,
      "670": 5527,
      "451": 5528,
      "630": 5529,
      "ĠSode": 5530,
      "ĠSagi": 5531,
      "ĠSuro": 5532,
      "ĠTade": 5533,
      "ĠTegu": 5534,
      "ĠNete": 5535,
      "ĠMegi": 5536,
      "ĠRiri": 5537,
      "ĠBul": 5538,
      "ĠBero": 5539,
      "ĠCoqu": 5540,
      "ĠCuve": 5541,
      "ĠLake": 5542,
      "ĠDore": 5543,
      "ĠDole": 5544,
      "ĠVaqu": 5545,
      "ĠKuqu": 5546,
      "ĠKegu": 5547,
      "ĠJuve": 5548,
      "ĠFive": 5549,
      "ĠFiri": 5550,
      "ĠFede": 5551,
      "ĠWoli": 5552,
      "ĠWaqu": 5553,
      "ĠWihe": 5554,
      "ĠWinu": 5555,
      "ĠGoce": 5556,
      "ĠXuti": 5557,
      "ĠXuve": 5558,
      "ĠZuke": 5559,
      "ĠZace": 5560,
      "ĠZehe": 5561,
      "251": 5562,
      "259": 5563,
      "245": 5564,
      "144": 5565,
      "267": 5566,
      "299": 5567,
      "567": 5568,
      "586": 5569,
      "573": 5570,
      "574": 5571,
      "331": 5572,
      "785": 5573,
      "449": 5574,
      "889": 5575,
      "671": 5576,
      "679": 5577,
      "ĠSuce": 5578,
      "ĠSuci": 5579,
      "ĠTaqu": 5580,
      "ĠNogu": 5581,
      "ĠNedu": 5582,
      "ĠMogi": 5583,
      "ĠRire": 5584,
      "ĠMace": 5585,
      "ĠBoti": 5586,
      "ĠCoke": 5587,
      "ĠCiti": 5588,
      "ĠCiri": 5589,
      "ĠLeke": 5590,
      "ĠLehe": 5591,
      "ĠQare": 5592,
      "ĠQegi": 5593,
      "ĠDate": 5594,
      "ĠVogi": 5595,
      "ĠVire": 5596,
      "ĠVulo": 5597,
      "ĠVele": 5598,
      "ĠYahi": 5599,
      "ĠKate": 5600,
      "ĠKuve": 5601,
      "ĠKide": 5602,
      "ĠKula": 5603,
      "ĠJote": 5604,
      "ĠJagi": 5605,
      "ĠJigu": 5606,
      "ĠJeti": 5607,
      "ĠHive": 5608,
      "ĠHere": 5609,
      "ĠHogi": 5610,
      "ĠFode": 5611,
      "ĠFodu": 5612,
      "ĠWali": 5613,
      "ĠWudu": 5614,
      "ĠWire": 5615,
      "ĠGage": 5616,
      "ĠXase": 5617,
      "ĠZite": 5618,
      "ĠZele": 5619,
      "ĠZeci": 5620,
      "ĠPuve": 5621,
      "ĠPinu": 5622,
      "ĠPigu": 5623,
      "156": 5624,
      "161": 5625,
      "168": 5626,
      "233": 5627,
      "239": 5628,
      "372": 5629,
      "467": 5630,
      "962": 5631,
      "549": 5632,
      "939": 5633,
      "591": 5634,
      "392": 5635,
      "351": 5636,
      "621": 5637,
      "ĠSihe": 5638,
      "ĠTive": 5639,
      "ĠToli": 5640,
      "ĠTula": 5641,
      "ĠNigi": 5642,
      "ĠMoke": 5643,
      "ĠRote": 5644,
      "ĠRake": 5645,
      "ĠRoce": 5646,
      "ĠRahi": 5647,
      "ĠMahe": 5648,
      "ĠBola": 5649,
      "ĠCohe": 5650,
      "ĠCigi": 5651,
      "ĠColo": 5652,
      "ĠCidu": 5653,
      "ĠCete": 5654,
      "ĠDuhe": 5655,
      "ĠDiti": 5656,
      "ĠVenu": 5657,
      "ĠYate": 5658,
      "ĠYele": 5659,
      "ĠKale": 5660,
      "ĠKare": 5661,
      "ĠKagi": 5662,
      "ĠKedu": 5663,
      "ĠKero": 5664,
      "ĠJili": 5665,
      "ĠHadu": 5666,
      "ĠHero": 5667,
      "ĠFoli": 5668,
      "ĠFove": 5669,
      "ĠWel": 5670,
      "ĠWigi": 5671,
      "ĠGagu": 5672,
      "ĠXeti": 5673,
      "ĠZase": 5674,
      "ĠZale": 5675,
      "ĠZuve": 5676,
      "ĠZequ": 5677,
      "ĠZege": 5678,
      "108": 5679,
      "171": 5680,
      "160": 5681,
      "162": 5682,
      "235": 5683,
      "381": 5684,
      "385": 5685,
      "989": 5686,
      "369": 5687,
      "964": 5688,
      "977": 5689,
      "786": 5690,
      "789": 5691,
      "676": 5692,
      "590": 5693,
      "873": 5694,
      "874": 5695,
      "760": 5696,
      "492": 5697,
      "842": 5698,
      "890": 5699,
      "ĠSohi": 5700,
      "ĠTase": 5701,
      "ĠTiro": 5702,
      "ĠTulo": 5703,
      "ĠMere": 5704,
      "ĠMoge": 5705,
      "191": 5706,
      "ĠRodu": 5707,
      "ĠRuce": 5708,
      "ĠLafi": 5709,
      "ĠLeti": 5710,
      "ĠQiro": 5711,
      "ĠDure": 5712,
      "ĠDafi": 5713,
      "ĠDeve": 5714,
      "ĠVake": 5715,
      "ĠVodu": 5716,
      "ĠVide": 5717,
      "ĠVugu": 5718,
      "ĠVidu": 5719,
      "ĠViri": 5720,
      "ĠYifi": 5721,
      "ĠKave": 5722,
      "ĠKute": 5723,
      "ĠKeci": 5724,
      "ĠJaqu": 5725,
      "ĠHeci": 5726,
      "ĠWore": 5727,
      "ĠGihe": 5728,
      "ĠXagi": 5729,
      "ĠXici": 5730,
      "ĠXehi": 5731,
      "ĠZati": 5732,
      "ĠZude": 5733,
      "109": 5734,
      "258": 5735,
      "289": 5736,
      "142": 5737,
      "146": 5738,
      "263": 5739,
      "563": 5740,
      "565": 5741,
      "581": 5742,
      "978": 5743,
      "542": 5744,
      "543": 5745,
      "775": 5746,
      "764": 5747,
      "500": 5748,
      "ĠSide": 5749,
      "ĠSenu": 5750,
      "ĠSete": 5751,
      "ĠMagu": 5752,
      "ĠCive": 5753,
      "ĠCadu": 5754,
      "ĠLifi": 5755,
      "ĠQere": 5756,
      "ĠDadu": 5757,
      "ĠDoge": 5758,
      "ĠDete": 5759,
      "ĠVoti": 5760,
      "ĠVafi": 5761,
      "ĠVade": 5762,
      "ĠVeci": 5763,
      "ĠYote": 5764,
      "ĠKode": 5765,
      "ĠKehi": 5766,
      "ĠJoke": 5767,
      "ĠJace": 5768,
      "ĠJiti": 5769,
      "ĠJiqu": 5770,
      "ĠJihi": 5771,
      "ĠHinu": 5772,
      "ĠHulo": 5773,
      "ĠFol": 5774,
      "ĠFero": 5775,
      "ĠWalo": 5776,
      "ĠGodu": 5777,
      "ĠGice": 5778,
      "ĠGidu": 5779,
      "ĠGuge": 5780,
      "ĠGece": 5781,
      "ĠXodu": 5782,
      "ĠXeke": 5783,
      "ĠZugu": 5784,
      "ĠZiro": 5785,
      "ĠPefi": 5786,
      "ĠPel": 5787,
      "ĠPure": 5788,
      "256": 5789,
      "280": 5790,
      "286": 5791,
      "383": 5792,
      "366": 5793,
      "583": 5794,
      "342": 5795,
      "ĠSeke": 5796,
      "ĠTol": 5797,
      "ĠTove": 5798,
      "ĠTule": 5799,
      "ĠToce": 5800,
      "ĠNiro": 5801,
      "ĠNeke": 5802,
      "ĠRore": 5803,
      "ĠRade": 5804,
      "ĠRoge": 5805,
      "ĠBade": 5806,
      "ĠBequ": 5807,
      "ĠBece": 5808,
      "ĠCal": 5809,
      "ĠCove": 5810,
      "ĠCuke": 5811,
      "ĠCafi": 5812,
      "ĠCagi": 5813,
      "ĠCeci": 5814,
      "ĠLate": 5815,
      "ĠLagi": 5816,
      "ĠLece": 5817,
      "ĠQame": 5818,
      "ĠQole": 5819,
      "ĠQugu": 5820,
      "ĠVili": 5821,
      "ĠYece": 5822,
      "ĠYete": 5823,
      "ĠKinu": 5824,
      "ĠKuhi": 5825,
      "ĠHudu": 5826,
      "ĠHequ": 5827,
      "ĠFuli": 5828,
      "ĠGike": 5829,
      "ĠZere": 5830,
      "174": 5831,
      "176": 5832,
      "569": 5833,
      "987": 5834,
      "940": 5835,
      "339": 5836,
      "788": 5837,
      "444": 5838,
      "951": 5839,
      "ĠSoqu": 5840,
      "ĠTeli": 5841,
      "ĠNohi": 5842,
      "ĠNike": 5843,
      "ĠNulo": 5844,
      "ĠMohe": 5845,
      "ĠMugi": 5846,
      "ĠBahe": 5847,
      "ĠBole": 5848,
      "ĠBite": 5849,
      "ĠCula": 5850,
      "ĠCegu": 5851,
      "ĠQal": 5852,
      "ĠQeve": 5853,
      "ĠDugi": 5854,
      "ĠDuve": 5855,
      "ĠDalo": 5856,
      "ĠVoge": 5857,
      "ĠVigu": 5858,
      "ĠYore": 5859,
      "ĠYiti": 5860,
      "ĠKame": 5861,
      "ĠKere": 5862,
      "ĠKiro": 5863,
      "ĠKihi": 5864,
      "ĠJedu": 5865,
      "ĠHel": 5866,
      "ĠHafi": 5867,
      "ĠHute": 5868,
      "ĠFole": 5869,
      "ĠFide": 5870,
      "ĠWiti": 5871,
      "ĠWidu": 5872,
      "ĠGase": 5873,
      "ĠGegi": 5874,
      "ĠXire": 5875,
      "ĠXohi": 5876,
      "ĠZare": 5877,
      "ĠPere": 5878,
      "ĠPaqu": 5879,
      "ĠPide": 5880,
      "183": 5881,
      "297": 5882,
      "463": 5883,
      "689": 5884,
      "349": 5885,
      "ĠSule": 5886,
      "ĠTefi": 5887,
      "ĠTohe": 5888,
      "ĠTegi": 5889,
      "ĠNodu": 5890,
      "ĠNuhi": 5891,
      "ĠMufi": 5892,
      "ĠMiro": 5893,
      "ĠMela": 5894,
      "ĠRace": 5895,
      "ĠBali": 5896,
      "ĠBagi": 5897,
      "ĠBuro": 5898,
      "ĠBulo": 5899,
      "ĠBeve": 5900,
      "ĠCici": 5901,
      "ĠCenu": 5902,
      "ĠCeve": 5903,
      "ĠLace": 5904,
      "ĠLohi": 5905,
      "ĠLolo": 5906,
      "ĠQola": 5907,
      "ĠDodu": 5908,
      "ĠDola": 5909,
      "ĠVegu": 5910,
      "ĠKul": 5911,
      "ĠKaqu": 5912,
      "ĠHole": 5913,
      "ĠFehe": 5914,
      "ĠWase": 5915,
      "ĠWili": 5916,
      "ĠGote": 5917,
      "ĠXive": 5918,
      "ĠXave": 5919,
      "ĠZuhe": 5920,
      "ĠZike": 5921,
      "ĠZero": 5922,
      "ĠPase": 5923,
      "ĠPuqu": 5924,
      "386": 5925,
      "364": 5926,
      "534": 5927,
      "352": 5928,
      "ĠSafi": 5929,
      "ĠSugi": 5930,
      "ĠSehe": 5931,
      "ĠNite": 5932,
      "ĠNidu": 5933,
      "ĠNeti": 5934,
      "ĠNimo": 5935,
      "ĠNeci": 5936,
      "ĠMiti": 5937,
      "ĠMimo": 5938,
      "ĠRidu": 5939,
      "ĠRige": 5940,
      "ĠBure": 5941,
      "ĠBegu": 5942,
      "ĠLiqu": 5943,
      "ĠQoke": 5944,
      "ĠQore": 5945,
      "ĠQadu": 5946,
      "ĠQuhi": 5947,
      "ĠDove": 5948,
      "ĠDule": 5949,
      "ĠDolo": 5950,
      "ĠDedu": 5951,
      "ĠYoke": 5952,
      "ĠYugu": 5953,
      "ĠKudu": 5954,
      "ĠKiqu": 5955,
      "ĠJiri": 5956,
      "ĠHuke": 5957,
      "ĠHare": 5958,
      "ĠFogu": 5959,
      "ĠFohi": 5960,
      "ĠFele": 5961,
      "ĠWohe": 5962,
      "ĠWugu": 5963,
      "ĠWite": 5964,
      "ĠGigi": 5965,
      "ĠXiti": 5966,
      "ĠZigi": 5967,
      "ĠZala": 5968,
      "ĠZuge": 5969,
      "ĠZedu": 5970,
      "ĠPate": 5971,
      "ĠPufi": 5972,
      "182": 5973,
      "135": 5974,
      "238": 5975,
      "382": 5976,
      "682": 5977,
      "440": 5978,
      "880": 5979,
      "952": 5980,
      "721": 5981,
      "ĠSove": 5982,
      "ĠSuge": 5983,
      "ĠTuhe": 5984,
      "ĠTide": 5985,
      "ĠMice": 5986,
      "ĠMuge": 5987,
      "ĠRadu": 5988,
      "ĠRuci": 5989,
      "ĠBinu": 5990,
      "ĠBuge": 5991,
      "ĠLoge": 5992,
      "ĠQiqu": 5993,
      "ĠRela": 5994,
      "ĠRefi": 5995,
      "ĠRele": 5996,
      "ĠDol": 5997,
      "ĠDaqu": 5998,
      "ĠDici": 5999,
      "ĠVal": 6000,
      "ĠVege": 6001,
      "ĠYuce": 6002,
      "ĠYagu": 6003,
      "ĠYidu": 6004,
      "ĠYalo": 6005,
      "ĠKalo": 6006,
      "ĠKage": 6007,
      "ĠJuci": 6008,
      "ĠHagi": 6009,
      "ĠGugu": 6010,
      "ĠGici": 6011,
      "ĠGigu": 6012,
      "ĠXigu": 6013,
      "ĠZore": 6014,
      "ĠZide": 6015,
      "ĠZola": 6016,
      "ĠPoce": 6017,
      "ĠPifi": 6018,
      "288": 6019,
      "230": 6020,
      "261": 6021,
      "582": 6022,
      "779": 6023,
      "445": 6024,
      "675": 6025,
      "765": 6026,
      "791": 6027,
      "ĠSali": 6028,
      "ĠSire": 6029,
      "ĠTero": 6030,
      "ĠNagi": 6031,
      "ĠNequ": 6032,
      "ĠRuti": 6033,
      "ĠMadu": 6034,
      "ĠBake": 6035,
      "ĠLuli": 6036,
      "ĠLili": 6037,
      "ĠLike": 6038,
      "ĠQahi": 6039,
      "ĠQihi": 6040,
      "ĠQedu": 6041,
      "ĠDice": 6042,
      "ĠVite": 6043,
      "ĠVihi": 6044,
      "ĠKati": 6045,
      "ĠJehe": 6046,
      "ĠHegu": 6047,
      "ĠFere": 6048,
      "ĠFute": 6049,
      "ĠFola": 6050,
      "ĠWace": 6051,
      "ĠWula": 6052,
      "ĠWequ": 6053,
      "ĠGinu": 6054,
      "ĠXude": 6055,
      "ĠZete": 6056,
      "ĠPati": 6057,
      "ĠPidu": 6058,
      "ĠPula": 6059,
      "ĠPiro": 6060,
      "273": 6061,
      "260": 6062,
      "294": 6063,
      "564": 6064,
      "979": 6065,
      "ĠTul": 6066,
      "ĠTare": 6067,
      "ĠTadu": 6068,
      "ĠTedu": 6069,
      "ĠNoqu": 6070,
      "ĠNahe": 6071,
      "ĠRive": 6072,
      "ĠRave": 6073,
      "ĠMalo": 6074,
      "ĠLul": 6075,
      "ĠQefi": 6076,
      "ĠQinu": 6077,
      "ĠDefi": 6078,
      "ĠVare": 6079,
      "ĠYahe": 6080,
      "ĠYinu": 6081,
      "ĠYula": 6082,
      "ĠKelo": 6083,
      "ĠJugu": 6084,
      "ĠJede": 6085,
      "ĠJehi": 6086,
      "ĠHedu": 6087,
      "ĠFeve": 6088,
      "ĠWule": 6089,
      "ĠWohi": 6090,
      "ĠWeve": 6091,
      "ĠGali": 6092,
      "ĠGulo": 6093,
      "ĠXohe": 6094,
      "ĠXero": 6095,
      "ĠPala": 6096,
      "101": 6097,
      "244": 6098,
      "293": 6099,
      "576": 6100,
      "943": 6101,
      "935": 6102,
      "772": 6103,
      "870": 6104,
      "863": 6105,
      "390": 6106,
      "731": 6107,
      "ĠTace": 6108,
      "ĠTidu": 6109,
      "ĠMudu": 6110,
      "ĠMike": 6111,
      "ĠRove": 6112,
      "ĠRide": 6113,
      "ĠMage": 6114,
      "ĠBaqu": 6115,
      "ĠBohi": 6116,
      "ĠBici": 6117,
      "ĠCudu": 6118,
      "ĠCide": 6119,
      "ĠLati": 6120,
      "ĠLere": 6121,
      "ĠLuci": 6122,
      "ĠLequ": 6123,
      "ĠYohi": 6124,
      "ĠYuhi": 6125,
      "ĠKol": 6126,
      "ĠKoce": 6127,
      "ĠKoge": 6128,
      "ĠJal": 6129,
      "ĠJoce": 6130,
      "ĠJice": 6131,
      "ĠJulo": 6132,
      "ĠHela": 6133,
      "ĠWare": 6134,
      "ĠWuve": 6135,
      "ĠWelo": 6136,
      "ĠGimo": 6137,
      "ĠXare": 6138,
      "ĠXudu": 6139,
      "ĠXike": 6140,
      "ĠXiri": 6141,
      "ĠXege": 6142,
      "ĠZive": 6143,
      "ĠZoce": 6144,
      "ĠZave": 6145,
      "ĠPulo": 6146,
      "ĠPelo": 6147,
      "241": 6148,
      "481": 6149,
      "969": 6150,
      "667": 6151,
      "881": 6152,
      "862": 6153,
      "762": 6154,
      "350": 6155,
      "831": 6156,
      "851": 6157,
      "ĠSahi": 6158,
      "ĠMuti": 6159,
      "ĠRoke": 6160,
      "ĠRiro": 6161,
      "ĠRihi": 6162,
      "ĠCuce": 6163,
      "ĠQenu": 6164,
      "ĠDudu": 6165,
      "ĠDegu": 6166,
      "ĠVere": 6167,
      "ĠVagi": 6168,
      "ĠYive": 6169,
      "ĠKela": 6170,
      "ĠHuce": 6171,
      "ĠHete": 6172,
      "ĠFugu": 6173,
      "ĠFege": 6174,
      "ĠWate": 6175,
      "ĠWegi": 6176,
      "ĠGati": 6177,
      "ĠGelo": 6178,
      "ĠPode": 6179,
      "ĠPegu": 6180,
      "274": 6181,
      "931": 6182,
      "875": 6183,
      "ĠSeti": 6184,
      "ĠTate": 6185,
      "ĠTiri": 6186,
      "ĠMore": 6187,
      "ĠMidu": 6188,
      "ĠRagu": 6189,
      "ĠRolo": 6190,
      "ĠRice": 6191,
      "ĠMahi": 6192,
      "ĠLote": 6193,
      "ĠLulo": 6194,
      "ĠQiti": 6195,
      "ĠQoge": 6196,
      "ĠQolo": 6197,
      "ĠQeli": 6198,
      "ĠDagu": 6199,
      "ĠDuhi": 6200,
      "ĠKohi": 6201,
      "ĠJati": 6202,
      "ĠJodu": 6203,
      "ĠJela": 6204,
      "ĠFati": 6205,
      "ĠFice": 6206,
      "ĠFeti": 6207,
      "ĠFeci": 6208,
      "ĠWave": 6209,
      "ĠWuce": 6210,
      "ĠWiro": 6211,
      "ĠXugu": 6212,
      "ĠPili": 6213,
      "ĠPoge": 6214,
      "ĠPece": 6215,
      "253": 6216,
      "169": 6217,
      "133": 6218,
      "248": 6219,
      "265": 6220,
      "934": 6221,
      "770": 6222,
      "950": 6223,
      "732": 6224,
      "641": 6225,
      "631": 6226,
      "652": 6227,
      "ĠSuhe": 6228,
      "ĠTudu": 6229,
      "ĠNafi": 6230,
      "ĠRahe": 6231,
      "ĠRuve": 6232,
      "ĠBive": 6233,
      "ĠBol": 6234,
      "ĠBare": 6235,
      "ĠBugi": 6236,
      "ĠBiti": 6237,
      "ĠCufi": 6238,
      "ĠCiro": 6239,
      "ĠLufi": 6240,
      "ĠQoti": 6241,
      "ĠQodu": 6242,
      "ĠQike": 6243,
      "ĠQice": 6244,
      "ĠDogi": 6245,
      "ĠDahi": 6246,
      "ĠDage": 6247,
      "ĠDiri": 6248,
      "ĠVole": 6249,
      "ĠYati": 6250,
      "ĠYure": 6251,
      "ĠYade": 6252,
      "ĠKufi": 6253,
      "ĠJidu": 6254,
      "ĠHave": 6255,
      "ĠHace": 6256,
      "ĠHahi": 6257,
      "ĠHele": 6258,
      "ĠFula": 6259,
      "ĠFete": 6260,
      "ĠWive": 6261,
      "ĠGuhi": 6262,
      "ĠGege": 6263,
      "ĠZote": 6264,
      "ĠZoge": 6265,
      "ĠZalo": 6266,
      "254": 6267,
      "221": 6268,
      "972": 6269,
      "995": 6270,
      "883": 6271,
      "871": 6272,
      "879": 6273,
      "642": 6274,
      "ĠSudu": 6275,
      "ĠSogu": 6276,
      "ĠTave": 6277,
      "ĠNive": 6278,
      "ĠNide": 6279,
      "ĠNola": 6280,
      "ĠModu": 6281,
      "ĠMelo": 6282,
      "ĠBuci": 6283,
      "ĠBalo": 6284,
      "ĠBiri": 6285,
      "ĠBehi": 6286,
      "ĠBelo": 6287,
      "ĠCoce": 6288,
      "ĠCigu": 6289,
      "ĠLefi": 6290,
      "ĠLute": 6291,
      "ĠQuce": 6292,
      "ĠReci": 6293,
      "ĠDidu": 6294,
      "ĠVuqu": 6295,
      "ĠYite": 6296,
      "ĠYero": 6297,
      "ĠKege": 6298,
      "ĠJagu": 6299,
      "ĠJuro": 6300,
      "ĠJeve": 6301,
      "ĠFuhe": 6302,
      "ĠFage": 6303,
      "ĠWere": 6304,
      "ĠXefi": 6305,
      "ĠZuci": 6306,
      "ĠZiri": 6307,
      "ĠZece": 6308,
      "ĠPame": 6309,
      "ĠPagi": 6310,
      "ĠPuge": 6311,
      "271": 6312,
      "663": 6313,
      "887": 6314,
      "430": 6315,
      "869": 6316,
      "730": 6317,
      "640": 6318,
      "ĠSoce": 6319,
      "ĠRala": 6320,
      "ĠMale": 6321,
      "ĠBudu": 6322,
      "ĠBela": 6323,
      "ĠCugu": 6324,
      "ĠLuro": 6325,
      "ĠLigu": 6326,
      "ĠDal": 6327,
      "ĠDoke": 6328,
      "ĠDenu": 6329,
      "ĠDero": 6330,
      "ĠVefi": 6331,
      "ĠVagu": 6332,
      "ĠKuti": 6333,
      "ĠJale": 6334,
      "ĠWadu": 6335,
      "ĠWolo": 6336,
      "ĠWice": 6337,
      "ĠWuge": 6338,
      "ĠGude": 6339,
      "ĠGenu": 6340,
      "ĠXute": 6341,
      "ĠXihi": 6342,
      "ĠPul": 6343,
      "285": 6344,
      "483": 6345,
      "334": 6346,
      "782": 6347,
      "832": 6348,
      "ĠSuqu": 6349,
      "ĠSaqu": 6350,
      "ĠSalo": 6351,
      "ĠTude": 6352,
      "ĠTute": 6353,
      "ĠRati": 6354,
      "ĠBice": 6355,
      "ĠCade": 6356,
      "ĠLude": 6357,
      "ĠLiro": 6358,
      "ĠLela": 6359,
      "ĠDehe": 6360,
      "ĠDeci": 6361,
      "ĠVahi": 6362,
      "ĠYel": 6363,
      "ĠKola": 6364,
      "ĠJudu": 6365,
      "ĠJeci": 6366,
      "ĠHoqu": 6367,
      "ĠFuti": 6368,
      "ĠWahe": 6369,
      "ĠWiqu": 6370,
      "ĠWela": 6371,
      "ĠXete": 6372,
      "ĠZohi": 6373,
      "266": 6374,
      "666": 6375,
      "345": 6376,
      "761": 6377,
      "ĠSegu": 6378,
      "ĠTalo": 6379,
      "ĠMati": 6380,
      "ĠMoce": 6381,
      "ĠMohi": 6382,
      "ĠCoge": 6383,
      "ĠQati": 6384,
      "ĠQagu": 6385,
      "ĠQidu": 6386,
      "ĠDame": 6387,
      "ĠVame": 6388,
      "ĠYode": 6389,
      "ĠYoqu": 6390,
      "ĠYala": 6391,
      "ĠYola": 6392,
      "ĠYici": 6393,
      "ĠKive": 6394,
      "ĠJahi": 6395,
      "ĠJala": 6396,
      "ĠJici": 6397,
      "ĠHugu": 6398,
      "ĠHehe": 6399,
      "ĠGudu": 6400,
      "ĠXinu": 6401,
      "ĠZel": 6402,
      "ĠPute": 6403,
      "ĠPuhi": 6404,
      "577": 6405,
      "664": 6406,
      "888": 6407,
      "872": 6408,
      "ĠSati": 6409,
      "ĠSemo": 6410,
      "ĠNul": 6411,
      "ĠNela": 6412,
      "ĠMuro": 6413,
      "ĠMehi": 6414,
      "ĠRite": 6415,
      "ĠBame": 6416,
      "ĠBuhi": 6417,
      "ĠBala": 6418,
      "ĠCite": 6419,
      "ĠLodu": 6420,
      "ĠQogu": 6421,
      "ĠRehi": 6422,
      "ĠDace": 6423,
      "ĠDela": 6424,
      "ĠYice": 6425,
      "ĠKole": 6426,
      "ĠJero": 6427,
      "ĠHati": 6428,
      "ĠHola": 6429,
      "ĠFel": 6430,
      "ĠFuke": 6431,
      "ĠFige": 6432,
      "ĠFelo": 6433,
      "ĠGol": 6434,
      "ĠXelo": 6435,
      "ĠPol": 6436,
      "ĠPule": 6437,
      "ĠPade": 6438,
      "ĠPude": 6439,
      "ĠPagu": 6440,
      "ĠPugu": 6441,
      "249": 6442,
      "474": 6443,
      "488": 6444,
      "662": 6445,
      "882": 6446,
      "673": 6447,
      "891": 6448,
      "ĠName": 6449,
      "ĠNol": 6450,
      "ĠMuci": 6451,
      "ĠRili": 6452,
      "ĠRigu": 6453,
      "ĠMal": 6454,
      "ĠBodu": 6455,
      "ĠBute": 6456,
      "ĠCute": 6457,
      "ĠLal": 6458,
      "ĠQoqu": 6459,
      "ĠQigu": 6460,
      "ĠDote": 6461,
      "ĠDihi": 6462,
      "ĠVol": 6463,
      "ĠYiro": 6464,
      "ĠYehi": 6465,
      "ĠKemo": 6466,
      "ĠJere": 6467,
      "ĠJohi": 6468,
      "ĠJegi": 6469,
      "ĠHuci": 6470,
      "ĠHuro": 6471,
      "ĠHolo": 6472,
      "ĠHihi": 6473,
      "ĠFahi": 6474,
      "ĠFuro": 6475,
      "ĠWulo": 6476,
      "ĠGeke": 6477,
      "ĠPodu": 6478,
      "ĠPela": 6479,
      "571": 6480,
      "651": 6481,
      "ĠSula": 6482,
      "ĠSero": 6483,
      "ĠTame": 6484,
      "ĠNase": 6485,
      "ĠNale": 6486,
      "ĠMugu": 6487,
      "ĠBohe": 6488,
      "ĠCohi": 6489,
      "ĠCihi": 6490,
      "ĠLagu": 6491,
      "ĠLuhi": 6492,
      "ĠLage": 6493,
      "ĠQehi": 6494,
      "ĠDigu": 6495,
      "ĠVehe": 6496,
      "ĠHame": 6497,
      "ĠHuqu": 6498,
      "ĠHede": 6499,
      "ĠWuci": 6500,
      "ĠWahi": 6501,
      "ĠGela": 6502,
      "ĠXolo": 6503,
      "ĠZihi": 6504,
      "ĠPoke": 6505,
      "683": 6506,
      "852": 6507,
      "ĠSulo": 6508,
      "ĠSimo": 6509,
      "ĠTihe": 6510,
      "ĠNuti": 6511,
      "ĠRul": 6512,
      "ĠRage": 6513,
      "ĠBuve": 6514,
      "ĠBeci": 6515,
      "ĠCage": 6516,
      "ĠDala": 6517,
      "ĠVote": 6518,
      "ĠYige": 6519,
      "ĠKuge": 6520,
      "ĠJufi": 6521,
      "ĠHohe": 6522,
      "ĠHidu": 6523,
      "ĠFegu": 6524,
      "ĠGegu": 6525,
      "ĠXuci": 6526,
      "ĠXula": 6527,
      "ĠZogi": 6528,
      "130": 6529,
      "343": 6530,
      "ĠNadu": 6531,
      "ĠMolo": 6532,
      "ĠRohi": 6533,
      "ĠRugu": 6534,
      "ĠBace": 6535,
      "ĠBula": 6536,
      "ĠCogu": 6537,
      "ĠCece": 6538,
      "ĠLogi": 6539,
      "ĠLihe": 6540,
      "ĠLalo": 6541,
      "ĠQala": 6542,
      "ĠRege": 6543,
      "ĠVive": 6544,
      "ĠYela": 6545,
      "ĠJigi": 6546,
      "ĠJolo": 6547,
      "ĠJula": 6548,
      "ĠJege": 6549,
      "ĠHuge": 6550,
      "ĠFadu": 6551,
      "ĠFoce": 6552,
      "ĠGore": 6553,
      "ĠGalo": 6554,
      "ĠXola": 6555,
      "ĠZogu": 6556,
      "ĠZehi": 6557,
      "ĠPige": 6558,
      "552": 6559,
      "884": 6560,
      "439": 6561,
      "840": 6562,
      "691": 6563,
      "ĠSuhi": 6564,
      "ĠNuro": 6565,
      "ĠNice": 6566,
      "ĠNehi": 6567,
      "ĠMege": 6568,
      "ĠRuge": 6569,
      "ĠCifi": 6570,
      "ĠCuhi": 6571,
      "ĠLoqu": 6572,
      "ĠLege": 6573,
      "ĠDugu": 6574,
      "ĠYame": 6575,
      "ĠJive": 6576,
      "ĠJiro": 6577,
      "ĠFuci": 6578,
      "ĠFici": 6579,
      "ĠWoke": 6580,
      "ĠWoge": 6581,
      "ĠWuhi": 6582,
      "ĠGige": 6583,
      "ĠGeci": 6584,
      "ĠXadu": 6585,
      "ĠXigi": 6586,
      "ĠZoqu": 6587,
      "ĠZolo": 6588,
      "ĠPahi": 6589,
      "544": 6590,
      "688": 6591,
      "771": 6592,
      "821": 6593,
      "ives": 6594,
      "ĠTogu": 6595,
      "ĠTigu": 6596,
      "ĠMigi": 6597,
      "ĠBahi": 6598,
      "ĠCol": 6599,
      "ĠLoce": 6600,
      "ĠDege": 6601,
      "ĠYihi": 6602,
      "ĠKidu": 6603,
      "ĠWero": 6604,
      "ĠPegi": 6605,
      "143": 6606,
      "298": 6607,
      "686": 6608,
      "777": 6609,
      "660": 6610,
      "751": 6611,
      "692": 6612,
      "ĠSoke": 6613,
      "ĠSigu": 6614,
      "ĠNuci": 6615,
      "ĠRula": 6616,
      "ĠMave": 6617,
      "ĠCahi": 6618,
      "ĠVage": 6619,
      "ĠYogu": 6620,
      "ĠYulo": 6621,
      "ĠKahi": 6622,
      "ĠJelo": 6623,
      "ĠFalo": 6624,
      "ĠGate": 6625,
      "ĠGula": 6626,
      "ĠXuce": 6627,
      "971": 6628,
      "ĠTike": 6629,
      "ĠTage": 6630,
      "ĠNero": 6631,
      "ĠQuro": 6632,
      "ĠQalo": 6633,
      "ĠQero": 6634,
      "ĠDoli": 6635,
      "ĠVogu": 6636,
      "ĠVete": 6637,
      "ĠVehi": 6638,
      "ĠKogu": 6639,
      "ĠKiri": 6640,
      "ĠHuhi": 6641,
      "ĠHimo": 6642,
      "ĠHemo": 6643,
      "ĠGele": 6644,
      "ĠXahi": 6645,
      "ĠXegu": 6646,
      "ĠZigu": 6647,
      "ĠZelo": 6648,
      "ĠPuro": 6649,
      "860": 6650,
      "763": 6651,
      "ĠSola": 6652,
      "ĠSehi": 6653,
      "ĠNula": 6654,
      "ĠNalo": 6655,
      "ĠNici": 6656,
      "ĠNege": 6657,
      "ĠMeci": 6658,
      "ĠBase": 6659,
      "ĠCala": 6660,
      "ĠLogu": 6661,
      "ĠLala": 6662,
      "ĠQote": 6663,
      "ĠQelo": 6664,
      "ĠDemo": 6665,
      "ĠVula": 6666,
      "ĠYigu": 6667,
      "ĠYemo": 6668,
      "ĠHala": 6669,
      "ĠFogi": 6670,
      "ĠFigu": 6671,
      "ĠFehi": 6672,
      "ĠWogu": 6673,
      "ĠWeli": 6674,
      "ĠXuhi": 6675,
      "ĠZole": 6676,
      "ĠTola": 6677,
      "ĠNoge": 6678,
      "ĠNihi": 6679,
      "ĠMiri": 6680,
      "ĠCati": 6681,
      "ĠQage": 6682,
      "ĠQici": 6683,
      "ĠQuge": 6684,
      "ĠRedu": 6685,
      "ĠYuge": 6686,
      "ĠHage": 6687,
      "ĠHege": 6688,
      "ĠXice": 6689,
      "ĠXela": 6690,
      "ĠZimo": 6691,
      "231": 6692,
      "ĠTohi": 6693,
      "ĠNelo": 6694,
      "ĠMule": 6695,
      "ĠBolo": 6696,
      "ĠCuro": 6697,
      "ĠCige": 6698,
      "ĠLihi": 6699,
      "ĠRero": 6700,
      "ĠVohi": 6701,
      "ĠYeci": 6702,
      "ĠKohe": 6703,
      "ĠFulo": 6704,
      "ĠWala": 6705,
      "ĠXite": 6706,
      "ĠXoge": 6707,
      "ĠTice": 6708,
      "ĠTihi": 6709,
      "ĠBoge": 6710,
      "ĠDuge": 6711,
      "ĠYave": 6712,
      "ĠYelo": 6713,
      "ĠKugi": 6714,
      "ĠKugu": 6715,
      "ĠJame": 6716,
      "ĠFimo": 6717,
      "ĠWenu": 6718,
      "ĠGuci": 6719,
      "ĠZame": 6720,
      "ĠSiro": 6721,
      "ĠSeci": 6722,
      "ĠSela": 6723,
      "ĠTala": 6724,
      "ĠRugi": 6725,
      "ĠLove": 6726,
      "ĠLahi": 6727,
      "ĠLelo": 6728,
      "ĠVimo": 6729,
      "ĠYoge": 6730,
      "ĠKulo": 6731,
      "ĠJola": 6732,
      "ĠFidu": 6733,
      "ĠFemo": 6734,
      "ĠWogi": 6735,
      "ĠWiri": 6736,
      "ĠWehi": 6737,
      "ĠWege": 6738,
      "ĠGive": 6739,
      "ĠZage": 6740,
      "ĠSege": 6741,
      "ĠNala": 6742,
      "ĠBagu": 6743,
      "ĠBage": 6744,
      "ĠCalo": 6745,
      "ĠDula": 6746,
      "ĠVuge": 6747,
      "ĠVela": 6748,
      "ĠYolo": 6749,
      "ĠYage": 6750,
      "ĠJeke": 6751,
      "ĠFame": 6752,
      "ĠWol": 6753,
      "ĠPalo": 6754,
      "ĠPege": 6755,
      "892": 6756,
      "ĠSace": 6757,
      "ĠTati": 6758,
      "ĠNati": 6759,
      "ĠCel": 6760,
      "ĠDehi": 6761,
      "ĠKolo": 6762,
      "ĠKigu": 6763,
      "ĠZuhi": 6764,
      "ĠPohi": 6765,
      "ĠPimo": 6766,
      "ĠSive": 6767,
      "ĠTimo": 6768,
      "ĠTege": 6769,
      "ĠTela": 6770,
      "ĠMula": 6771,
      "ĠLame": 6772,
      "ĠLula": 6773,
      "ĠWure": 6774,
      "ĠXage": 6775,
      "ĠXuge": 6776,
      "ĠZahi": 6777,
      "ĠZula": 6778,
      "ĠZeve": 6779,
      "269": 6780,
      "ĠSige": 6781,
      "ĠNolo": 6782,
      "ĠLemo": 6783,
      "ĠReve": 6784,
      "ĠVedu": 6785,
      "ĠYege": 6786,
      "ĠWage": 6787,
      "ĠXemo": 6788,
      "ĠPuci": 6789,
      "850": 6790,
      "ahis": 6791,
      "ĠTagu": 6792,
      "ĠNage": 6793,
      "ĠRuhi": 6794,
      "ĠRici": 6795,
      "ĠRimo": 6796,
      "ĠBefi": 6797,
      "ĠCuge": 6798,
      "ĠCege": 6799,
      "ĠCemo": 6800,
      "ĠVala": 6801,
      "ĠFiro": 6802,
      "ĠGuro": 6803,
      "ĠZela": 6804,
      "ĠZemo": 6805,
      "ĠPola": 6806,
      "ĠMola": 6807,
      "ĠRame": 6808,
      "ĠRali": 6809,
      "ĠBige": 6810,
      "ĠBemo": 6811,
      "ĠVate": 6812,
      "ĠVati": 6813,
      "ĠKala": 6814,
      "ĠKimo": 6815,
      "ĠFal": 6816,
      "ĠXame": 6817,
      "ĠZagu": 6818,
      "ĠPage": 6819,
      "ĠToge": 6820,
      "ĠTolo": 6821,
      "ĠMogu": 6822,
      "ĠBege": 6823,
      "ĠDige": 6824,
      "ĠVuhi": 6825,
      "ĠVolo": 6826,
      "ĠXalo": 6827,
      "ĠPero": 6828,
      "ĠMero": 6829,
      "ĠCola": 6830,
      "ĠJalo": 6831,
      "ĠHalo": 6832,
      "ĠWeci": 6833,
      "ĠGolo": 6834,
      "ĠGero": 6835,
      "ĠXogu": 6836,
      "ĠSame": 6837,
      "ĠSoge": 6838,
      "ĠSelo": 6839,
      "ĠTuci": 6840,
      "ĠNemo": 6841,
      "ĠMala": 6842,
      "ĠYehe": 6843,
      "ĠHige": 6844,
      "ĠZodu": 6845,
      "665": 6846,
      "ĠTeci": 6847,
      "ĠMihi": 6848,
      "ĠRole": 6849,
      "ĠBedu": 6850,
      "ĠQemo": 6851,
      "ĠJoge": 6852,
      "ĠJemo": 6853,
      "ĠNuge": 6854,
      "ĠRalo": 6855,
      "ĠCuci": 6856,
      "ĠQela": 6857,
      "ĠWimo": 6858,
      "ĠGola": 6859,
      "ĠGemo": 6860,
      "ĠXige": 6861,
      "ĠCame": 6862,
      "ĠVola": 6863,
      "ĠJuge": 6864,
      "ĠFihi": 6865,
      "ĠWige": 6866,
      "ĠPeci": 6867,
      "ĠSiri": 6868,
      "ĠTige": 6869,
      "ĠLimo": 6870,
      "agan": 6871,
      "upan": 6872,
      "ĠNige": 6873,
      "ĠBimo": 6874,
      "ĠDelo": 6875,
      "ĠKige": 6876,
      "ipan": 6877,
      "ulow": 6878,
      "ĠFela": 6879,
      "ĠGoge": 6880,
      "ĠZulo": 6881,
      "ĠSagu": 6882,
      "ĠTelo": 6883,
      "ĠCimo": 6884,
      "ĠHoge": 6885,
      "ĠHula": 6886,
      "ĠRola": 6887,
      "ĠMamo": 6888,
      "ĠQimo": 6889,
      "ĠGame": 6890,
      "019": 6891,
      "002": 6892,
      "ĠDulo": 6893,
      "ĠPemo": 6894,
      "ĠRemo": 6895,
      "ĠHoce": 6896,
      "ĠWuro": 6897,
      "ĠPolo": 6898,
      "ĠVelo": 6899,
      "ĠXulo": 6900,
      "alow": 6901,
      "ĠLola": 6902,
      "ĠVemo": 6903,
      "ĠQige": 6904,
      "ĠYimo": 6905,
      "ĠGala": 6906,
      "opan": 6907,
      "ĠTuge": 6908,
      "ĠCela": 6909,
      "ĠHelo": 6910,
      "ĠFolo": 6911,
      "uces": 6912,
      "ĠDimo": 6913,
      "uves": 6914,
      "ĠWemo": 6915,
      "020": 6916,
      "elow": 6917,
      "ĠSolo": 6918,
      "ĠQege": 6919,
      "ĠJimo": 6920,
      "ĠZige": 6921,
      "ugan": 6922,
      "olow": 6923,
      "ĠTemo": 6924,
      "aces": 6925,
      "ices": 6926,
      "ihis": 6927,
      "ĠXimo": 6928,
      "uhis": 6929,
      "apan": 6930,
      "ĠMemo": 6931,
      "oves": 6932,
      "ohis": 6933,
      "iduc": 6934,
      "ĠMulo": 6935,
      "aves": 6936,
      "igan": 6937,
      "apor": 6938,
      "eves": 6939,
      "epan": 6940,
      "opor": 6941,
      "oces": 6942,
      "ehis": 6943,
      "eces": 6944,
      "ĠDile": 6945,
      "012": 6946,
      "egan": 6947,
      "uduc": 6948,
      "001": 6949,
      "ocor": 6950,
      "ĠFava": 6951,
      "ĠKava": 6952,
      "ucor": 6953,
      "icor": 6954,
      "iter": 6955,
      "oduc": 6956,
      "ogan": 6957,
      "ĠHile": 6958,
      "educ": 6959,
      "upor": 6960,
      "uted": 6961,
      "ĠLava": 6962,
      "ĠYile": 6963,
      "ĠWome": 6964,
      "ihed": 6965,
      "ĠSava": 6966,
      "ĠCava": 6967,
      "ĠWile": 6968,
      "uter": 6969,
      "ĠTava": 6970,
      "epor": 6971,
      "ited": 6972,
      "ĠNile": 6973,
      "ĠBile": 6974,
      "ĠVile": 6975,
      "ĠGile": 6976,
      "ĠZile": 6977,
      "ĠMile": 6978,
      "ĠCile": 6979,
      "ĠYava": 6980,
      "ĠGava": 6981,
      "ater": 6982,
      "ipor": 6983,
      "ĠKeri": 6984,
      "ecor": 6985,
      "ĠKile": 6986,
      "oted": 6987,
      "ĠTile": 6988,
      "011": 6989,
      "ired": 6990,
      "ucur": 6991,
      "ĠHava": 6992,
      "ĠHome": 6993,
      "ĠPile": 6994,
      "ĠWava": 6995,
      "ĠWata": 6996,
      "ided": 6997,
      "ohed": 6998,
      "ĠMepi": 6999,
      "ĠDome": 7000,
      "ĠJile": 7001,
      "ĠWomu": 7002,
      "ĠNava": 7003,
      "ĠRile": 7004,
      "ĠQile": 7005,
      "ĠJava": 7006,
      "aduc": 7007,
      "ĠLile": 7008,
      "ĠTeri": 7009,
      "ĠZava": 7010,
      "ĠPava": 7011,
      "acor": 7012,
      "ahed": 7013,
      "eted": 7014,
      "ĠHeri": 7015,
      "aded": 7016,
      "ecur": 7017,
      "ĠBava": 7018,
      "ĠXile": 7019,
      "uded": 7020,
      "ĠNeri": 7021,
      "ĠFile": 7022,
      "ĠGeri": 7023,
      "ĠTome": 7024,
      "ĠReri": 7025,
      "ĠLeri": 7026,
      "ĠQava": 7027,
      "ĠQiki": 7028,
      "ĠFaye": 7029,
      "ĠWeri": 7030,
      "ĠPome": 7031,
      "ĠMeri": 7032,
      "ĠCata": 7033,
      "ĠCowe": 7034,
      "ĠVava": 7035,
      "ĠVome": 7036,
      "ĠXava": 7037,
      "ĠZafe": 7038,
      "oter": 7039,
      "ĠFata": 7040,
      "ered": 7041,
      "eded": 7042,
      "ured": 7043,
      "ĠSile": 7044,
      "ĠRava": 7045,
      "ĠRise": 7046,
      "ĠLome": 7047,
      "ĠVevo": 7048,
      "icur": 7049,
      "ĠTebo": 7050,
      "ĠMome": 7051,
      "ĠLexe": 7052,
      "ĠXuxu": 7053,
      "ĠRosi": 7054,
      "ĠBiye": 7055,
      "ĠCome": 7056,
      "ĠQata": 7057,
      "ĠQibe": 7058,
      "ĠDipe": 7059,
      "ĠKuru": 7060,
      "ĠFopu": 7061,
      "ĠWesu": 7062,
      "ĠZura": 7063,
      "ĠZeza": 7064,
      "ĠPexa": 7065,
      "ehed": 7066,
      "ĠSeri": 7067,
      "ĠMino": 7068,
      "ĠRiqi": 7069,
      "ĠBixi": 7070,
      "ĠBiva": 7071,
      "ĠLafu": 7072,
      "ĠLika": 7073,
      "ĠYeri": 7074,
      "ĠGata": 7075,
      "ĠXamu": 7076,
      "ĠPani": 7077,
      "ĠPebu": 7078,
      "uhed": 7079,
      "ucer": 7080,
      "ĠTawa": 7081,
      "ĠNuya": 7082,
      "ĠMucu": 7083,
      "ĠQome": 7084,
      "ĠDima": 7085,
      "ĠVuyu": 7086,
      "ĠYika": 7087,
      "ĠKipu": 7088,
      "ĠGezo": 7089,
      "ĠXacu": 7090,
      "ored": 7091,
      "ĠSata": 7092,
      "ĠTope": 7093,
      "ĠBeki": 7094,
      "ĠBepo": 7095,
      "ĠCoki": 7096,
      "ĠLewu": 7097,
      "ĠVawo": 7098,
      "ĠYoxa": 7099,
      "ĠZini": 7100,
      "ĠToxe": 7101,
      "ĠTepe": 7102,
      "ĠNome": 7103,
      "ĠBune": 7104,
      "ĠBime": 7105,
      "ĠCaci": 7106,
      "ĠLeba": 7107,
      "ĠDita": 7108,
      "ĠYoxu": 7109,
      "ĠYume": 7110,
      "ĠKuqa": 7111,
      "ĠJome": 7112,
      "ĠFebo": 7113,
      "ĠWizi": 7114,
      "ĠPoga": 7115,
      "ĠPeki": 7116,
      "eter": 7117,
      "ocer": 7118,
      "ĠNatu": 7119,
      "ĠNobo": 7120,
      "ĠMuqo": 7121,
      "ĠRata": 7122,
      "ĠRoze": 7123,
      "ĠRaxo": 7124,
      "ĠMabe": 7125,
      "ĠBega": 7126,
      "ĠLatu": 7127,
      "ĠLuko": 7128,
      "ĠQeyu": 7129,
      "ĠDevi": 7130,
      "ĠVazi": 7131,
      "ĠVuxu": 7132,
      "ĠVeje": 7133,
      "ĠJuwo": 7134,
      "ĠPeri": 7135,
      "ĠSozo": 7136,
      "ĠSivi": 7137,
      "ĠTiji": 7138,
      "ĠNaze": 7139,
      "ĠNaba": 7140,
      "ĠNani": 7141,
      "ĠNaqo": 7142,
      "ĠNexo": 7143,
      "ĠMone": 7144,
      "ĠMecu": 7145,
      "ĠBopa": 7146,
      "ĠBeku": 7147,
      "ĠCotu": 7148,
      "ĠLoxi": 7149,
      "ĠLolu": 7150,
      "ĠLana": 7151,
      "ĠReta": 7152,
      "ĠDeki": 7153,
      "ĠVopa": 7154,
      "ĠVoqe": 7155,
      "ĠYaze": 7156,
      "ĠJuso": 7157,
      "ĠJuco": 7158,
      "ĠHuja": 7159,
      "ĠFuze": 7160,
      "ĠFixu": 7161,
      "ĠFeza": 7162,
      "ĠFeya": 7163,
      "ĠFego": 7164,
      "ĠWowa": 7165,
      "ĠWafa": 7166,
      "ĠWuqe": 7167,
      "ĠWiba": 7168,
      "ĠGine": 7169,
      "ĠXovo": 7170,
      "ĠXano": 7171,
      "ĠPata": 7172,
      "ĠPebe": 7173,
      "ĠRefu": 7174,
      "ĠSedi": 7175,
      "ĠTebe": 7176,
      "ĠNapo": 7177,
      "ĠNeva": 7178,
      "ĠMoze": 7179,
      "ĠMupo": 7180,
      "ĠRome": 7181,
      "ĠBuxo": 7182,
      "ĠBina": 7183,
      "ĠBeru": 7184,
      "ĠBese": 7185,
      "ĠQini": 7186,
      "ĠDava": 7187,
      "ĠDuri": 7188,
      "ĠDujo": 7189,
      "ĠVewo": 7190,
      "ĠYube": 7191,
      "ĠYina": 7192,
      "ĠKiji": 7193,
      "ĠKene": 7194,
      "ĠKepi": 7195,
      "ĠJune": 7196,
      "ĠJimi": 7197,
      "ĠJeba": 7198,
      "ĠHalu": 7199,
      "ĠHaqe": 7200,
      "ĠHizi": 7201,
      "ĠHiki": 7202,
      "ĠWuta": 7203,
      "ĠGoco": 7204,
      "ĠZani": 7205,
      "ĠPahu": 7206,
      "ĠSufo": 7207,
      "ĠTata": 7208,
      "ĠTofi": 7209,
      "ĠTobu": 7210,
      "ĠMise": 7211,
      "ĠRosa": 7212,
      "ĠRowo": 7213,
      "ĠRura": 7214,
      "ĠCamo": 7215,
      "ĠCifo": 7216,
      "ĠLepo": 7217,
      "ĠQifu": 7218,
      "ĠDisu": 7219,
      "ĠVuma": 7220,
      "ĠYome": 7221,
      "ĠYoci": 7222,
      "ĠYiva": 7223,
      "ĠKilo": 7224,
      "ĠJata": 7225,
      "ĠJotu": 7226,
      "ĠJose": 7227,
      "ĠJuwi": 7228,
      "ĠJuki": 7229,
      "ĠFaqa": 7230,
      "ĠFoyo": 7231,
      "ĠFecu": 7232,
      "ĠWuzi": 7233,
      "ĠGuso": 7234,
      "ĠGisa": 7235,
      "ĠGivi": 7236,
      "ĠXata": 7237,
      "ĠXowu": 7238,
      "ĠXulu": 7239,
      "ĠZome": 7240,
      "ĠZohu": 7241,
      "ĠPasi": 7242,
      "ĠPiga": 7243,
      "ĠSome": 7244,
      "ĠSoba": 7245,
      "ĠSufu": 7246,
      "ĠSezi": 7247,
      "ĠSevi": 7248,
      "ĠToye": 7249,
      "ĠTeza": 7250,
      "ĠNojo": 7251,
      "ĠNewe": 7252,
      "ĠMoyo": 7253,
      "ĠMipu": 7254,
      "ĠRuqi": 7255,
      "ĠBuvo": 7256,
      "ĠBoro": 7257,
      "ĠCone": 7258,
      "ĠCihu": 7259,
      "ĠLata": 7260,
      "ĠLuho": 7261,
      "ĠLubi": 7262,
      "ĠQofa": 7263,
      "ĠQono": 7264,
      "ĠQafa": 7265,
      "ĠQazi": 7266,
      "ĠQino": 7267,
      "ĠQevu": 7268,
      "ĠQeqi": 7269,
      "ĠQeqo": 7270,
      "ĠDune": 7271,
      "ĠDuqo": 7272,
      "ĠVova": 7273,
      "ĠVino": 7274,
      "ĠVivu": 7275,
      "ĠYata": 7276,
      "ĠYoro": 7277,
      "ĠYuta": 7278,
      "ĠYezu": 7279,
      "ĠKomo": 7280,
      "ĠKaqa": 7281,
      "ĠKoru": 7282,
      "ĠJona": 7283,
      "ĠJara": 7284,
      "ĠJawi": 7285,
      "ĠJefa": 7286,
      "ĠHivo": 7287,
      "ĠHisu": 7288,
      "ĠHipi": 7289,
      "ĠHiya": 7290,
      "ĠHivu": 7291,
      "ĠFori": 7292,
      "ĠWigo": 7293,
      "ĠWiqe": 7294,
      "ĠGonu": 7295,
      "ĠGova": 7296,
      "ĠXugo": 7297,
      "ĠXiju": 7298,
      "ĠXipo": 7299,
      "ĠZuju": 7300,
      "ĠZubi": 7301,
      "ĠPiwu": 7302,
      "ĠPifa": 7303,
      "ĠSiwa": 7304,
      "ĠNoqo": 7305,
      "ĠNusu": 7306,
      "ĠNixo": 7307,
      "ĠNebi": 7308,
      "ĠMunu": 7309,
      "ĠMebu": 7310,
      "ĠMewo": 7311,
      "ĠRacu": 7312,
      "ĠRobo": 7313,
      "ĠRowe": 7314,
      "ĠRilo": 7315,
      "ĠMaxo": 7316,
      "ĠBefo": 7317,
      "ĠLoco": 7318,
      "ĠLaqi": 7319,
      "ĠLuvo": 7320,
      "ĠLitu": 7321,
      "ĠLexu": 7322,
      "ĠQemu": 7323,
      "ĠDofe": 7324,
      "ĠDaho": 7325,
      "ĠDahu": 7326,
      "ĠDudo": 7327,
      "ĠDuye": 7328,
      "ĠVaju": 7329,
      "ĠVita": 7330,
      "ĠVitu": 7331,
      "ĠYumi": 7332,
      "ĠJaho": 7333,
      "ĠJudo": 7334,
      "ĠJiqi": 7335,
      "ĠHuka": 7336,
      "ĠFamu": 7337,
      "ĠFovu": 7338,
      "ĠFuco": 7339,
      "ĠFuyo": 7340,
      "ĠFiha": 7341,
      "ĠWowo": 7342,
      "ĠWiqi": 7343,
      "ĠGezi": 7344,
      "ĠXome": 7345,
      "ĠZega": 7346,
      "ĠPota": 7347,
      "ĠPoyu": 7348,
      "ĠPipu": 7349,
      "ĠPimu": 7350,
      "ĠPeba": 7351,
      "ĠPepe": 7352,
      "ĠSasu": 7353,
      "ĠSoki": 7354,
      "ĠSuga": 7355,
      "ĠSiho": 7356,
      "ĠSidi": 7357,
      "ĠSeze": 7358,
      "ĠSeka": 7359,
      "ĠTulu": 7360,
      "ĠNata": 7361,
      "ĠMomi": 7362,
      "ĠMobe": 7363,
      "ĠMixi": 7364,
      "ĠMefu": 7365,
      "ĠMeho": 7366,
      "ĠRijo": 7367,
      "ĠBaku": 7368,
      "ĠBika": 7369,
      "ĠBico": 7370,
      "ĠCari": 7371,
      "ĠCiko": 7372,
      "ĠCene": 7373,
      "ĠLope": 7374,
      "ĠLilo": 7375,
      "ĠQapi": 7376,
      "ĠQosu": 7377,
      "ĠQema": 7378,
      "ĠDoyo": 7379,
      "ĠDuqe": 7380,
      "ĠDuga": 7381,
      "ĠDivo": 7382,
      "ĠViyu": 7383,
      "ĠVija": 7384,
      "ĠVeso": 7385,
      "ĠVepa": 7386,
      "ĠVeqe": 7387,
      "ĠYasi": 7388,
      "ĠYayi": 7389,
      "ĠYuco": 7390,
      "ĠYiko": 7391,
      "ĠYigo": 7392,
      "ĠKodo": 7393,
      "ĠKupo": 7394,
      "ĠKiru": 7395,
      "ĠJaha": 7396,
      "ĠJubu": 7397,
      "ĠHaja": 7398,
      "ĠHajo": 7399,
      "ĠHixo": 7400,
      "ĠHiba": 7401,
      "ĠHefa": 7402,
      "ĠFome": 7403,
      "ĠFacu": 7404,
      "ĠFope": 7405,
      "ĠFowe": 7406,
      "ĠFura": 7407,
      "ĠFiqo": 7408,
      "ĠFedo": 7409,
      "ĠWone": 7410,
      "ĠWapu": 7411,
      "ĠWoxi": 7412,
      "ĠWusi": 7413,
      "ĠWida": 7414,
      "ĠGawo": 7415,
      "ĠGano": 7416,
      "ĠGufa": 7417,
      "ĠGibi": 7418,
      "ĠGera": 7419,
      "ĠGexo": 7420,
      "ĠXoto": 7421,
      "ĠZuma": 7422,
      "ĠZifo": 7423,
      "ĠZeba": 7424,
      "ĠZeka": 7425,
      "ĠPabe": 7426,
      "ĠPori": 7427,
      "ĠPixo": 7428,
      "ĠPesa": 7429,
      "ĠPeze": 7430,
      "ĠSobi": 7431,
      "ĠSusu": 7432,
      "ĠSahu": 7433,
      "ĠSutu": 7434,
      "ĠSipa": 7435,
      "ĠNowo": 7436,
      "ĠNayo": 7437,
      "ĠMoto": 7438,
      "ĠMipi": 7439,
      "ĠMetu": 7440,
      "ĠRoqa": 7441,
      "ĠRipo": 7442,
      "ĠBajo": 7443,
      "ĠBoqa": 7444,
      "ĠBigo": 7445,
      "ĠCuqo": 7446,
      "ĠCini": 7447,
      "ĠLofe": 7448,
      "ĠLoqi": 7449,
      "ĠLuxu": 7450,
      "ĠQuna": 7451,
      "ĠQaca": 7452,
      "ĠQaka": 7453,
      "ĠQezu": 7454,
      "ĠReku": 7455,
      "ĠRema": 7456,
      "ĠDaju": 7457,
      "ĠDuma": 7458,
      "ĠDiyu": 7459,
      "ĠDepe": 7460,
      "ĠDeku": 7461,
      "ĠVaho": 7462,
      "ĠVisi": 7463,
      "ĠViwe": 7464,
      "ĠVije": 7465,
      "ĠYoco": 7466,
      "ĠYuri": 7467,
      "ĠYupo": 7468,
      "ĠYeje": 7469,
      "ĠYeqo": 7470,
      "ĠKoya": 7471,
      "ĠKoja": 7472,
      "ĠKova": 7473,
      "ĠKeyu": 7474,
      "ĠKelu": 7475,
      "ĠJifo": 7476,
      "ĠJiju": 7477,
      "ĠJihu": 7478,
      "ĠHovu": 7479,
      "ĠHuho": 7480,
      "ĠFomu": 7481,
      "ĠFoma": 7482,
      "ĠFoyi": 7483,
      "ĠFuqe": 7484,
      "ĠFumu": 7485,
      "ĠFeni": 7486,
      "ĠFebi": 7487,
      "ĠWaxa": 7488,
      "ĠWami": 7489,
      "ĠWuji": 7490,
      "ĠWixe": 7491,
      "ĠWivi": 7492,
      "ĠGixa": 7493,
      "ĠGeso": 7494,
      "ĠXoso": 7495,
      "ĠXaza": 7496,
      "ĠZofu": 7497,
      "ĠZuvu": 7498,
      "ĠPuko": 7499,
      "ĠPeho": 7500,
      "ĠPeto": 7501,
      "ĠSaja": 7502,
      "ĠSayo": 7503,
      "ĠSaxi": 7504,
      "ĠSuyo": 7505,
      "ĠSuzo": 7506,
      "ĠTudi": 7507,
      "ĠTexe": 7508,
      "ĠNuno": 7509,
      "ĠNiho": 7510,
      "ĠNemu": 7511,
      "ĠNeja": 7512,
      "ĠMowo": 7513,
      "ĠMexo": 7514,
      "ĠRasu": 7515,
      "ĠRoji": 7516,
      "ĠRoko": 7517,
      "ĠRoki": 7518,
      "ĠRulu": 7519,
      "ĠRixo": 7520,
      "ĠMapi": 7521,
      "ĠMawa": 7522,
      "ĠBari": 7523,
      "ĠBono": 7524,
      "ĠBoru": 7525,
      "ĠBabu": 7526,
      "ĠBufa": 7527,
      "ĠBivo": 7528,
      "ĠBiru": 7529,
      "ĠCofa": 7530,
      "ĠCane": 7531,
      "ĠCidi": 7532,
      "ĠCime": 7533,
      "ĠLixe": 7534,
      "ĠQaja": 7535,
      "ĠQepa": 7536,
      "ĠQewa": 7537,
      "ĠRexa": 7538,
      "ĠRexi": 7539,
      "ĠDozu": 7540,
      "ĠDolu": 7541,
      "ĠDoxe": 7542,
      "ĠVafu": 7543,
      "ĠYomo": 7544,
      "ĠYuma": 7545,
      "ĠYana": 7546,
      "ĠYuda": 7547,
      "ĠYeda": 7548,
      "ĠYeko": 7549,
      "ĠKome": 7550,
      "ĠKato": 7551,
      "ĠKasu": 7552,
      "ĠKusa": 7553,
      "ĠKayi": 7554,
      "ĠKefu": 7555,
      "ĠJuxi": 7556,
      "ĠJipu": 7557,
      "ĠJeja": 7558,
      "ĠHubu": 7559,
      "ĠHeki": 7560,
      "ĠHeva": 7561,
      "ĠHeya": 7562,
      "ĠFazi": 7563,
      "ĠFusi": 7564,
      "ĠFevu": 7565,
      "ĠFega": 7566,
      "ĠWaya": 7567,
      "ĠWose": 7568,
      "ĠWori": 7569,
      "ĠWimi": 7570,
      "ĠGone": 7571,
      "ĠGopa": 7572,
      "ĠGota": 7573,
      "ĠGoqe": 7574,
      "ĠGupu": 7575,
      "ĠGena": 7576,
      "ĠXapu": 7577,
      "ĠXafa": 7578,
      "ĠXuzi": 7579,
      "ĠXiwa": 7580,
      "ĠZeri": 7581,
      "ĠZopo": 7582,
      "ĠZucu": 7583,
      "ĠZixo": 7584,
      "ĠZizo": 7585,
      "ĠZiwe": 7586,
      "ĠPayo": 7587,
      "ĠPeha": 7588,
      "ared": 7589,
      "ĠSapo": 7590,
      "ĠSiko": 7591,
      "ĠSicu": 7592,
      "ĠTayo": 7593,
      "ĠTuqi": 7594,
      "ĠTeyu": 7595,
      "ĠNune": 7596,
      "ĠNijo": 7597,
      "ĠNibe": 7598,
      "ĠMara": 7599,
      "ĠMaro": 7600,
      "ĠMosa": 7601,
      "ĠMane": 7602,
      "ĠManu": 7603,
      "ĠMuvu": 7604,
      "ĠMexa": 7605,
      "ĠMedi": 7606,
      "ĠMepu": 7607,
      "ĠRalu": 7608,
      "ĠRuqo": 7609,
      "ĠRuva": 7610,
      "ĠRiko": 7611,
      "ĠBato": 7612,
      "ĠBuha": 7613,
      "ĠBiga": 7614,
      "ĠBiha": 7615,
      "ĠCito": 7616,
      "ĠCovi": 7617,
      "ĠCube": 7618,
      "ĠCisi": 7619,
      "ĠCiya": 7620,
      "ĠCeba": 7621,
      "ĠCeki": 7622,
      "ĠLafa": 7623,
      "ĠLadi": 7624,
      "ĠLaqa": 7625,
      "ĠLoyo": 7626,
      "ĠLiko": 7627,
      "ĠLipa": 7628,
      "ĠLiju": 7629,
      "ĠLesa": 7630,
      "ĠLeje": 7631,
      "ĠQuji": 7632,
      "ĠQuda": 7633,
      "ĠQivo": 7634,
      "ĠDeri": 7635,
      "ĠDaki": 7636,
      "ĠDeqo": 7637,
      "ĠVosi": 7638,
      "ĠVipu": 7639,
      "ĠVene": 7640,
      "ĠYomi": 7641,
      "ĠYowo": 7642,
      "ĠYaba": 7643,
      "ĠYesu": 7644,
      "ĠKosi": 7645,
      "ĠKuvo": 7646,
      "ĠKifa": 7647,
      "ĠKemu": 7648,
      "ĠKemi": 7649,
      "ĠJamu": 7650,
      "ĠJoci": 7651,
      "ĠJetu": 7652,
      "ĠHacu": 7653,
      "ĠHanu": 7654,
      "ĠHuze": 7655,
      "ĠHihu": 7656,
      "ĠFaku": 7657,
      "ĠWomi": 7658,
      "ĠWamu": 7659,
      "ĠGaru": 7660,
      "ĠGuma": 7661,
      "ĠGiju": 7662,
      "ĠGepo": 7663,
      "ĠGezu": 7664,
      "ĠXaci": 7665,
      "ĠXiye": 7666,
      "ĠZaca": 7667,
      "ĠZoba": 7668,
      "ĠZoxa": 7669,
      "ĠZijo": 7670,
      "ĠPaso": 7671,
      "ĠPixe": 7672,
      "ĠPixi": 7673,
      "ĠSaze": 7674,
      "ĠSuru": 7675,
      "ĠSupa": 7676,
      "ĠSifo": 7677,
      "ĠSigo": 7678,
      "ĠTuna": 7679,
      "ĠTako": 7680,
      "ĠTaye": 7681,
      "ĠTozo": 7682,
      "ĠTovo": 7683,
      "ĠTifo": 7684,
      "ĠTeyo": 7685,
      "ĠNoji": 7686,
      "ĠNawu": 7687,
      "ĠNowu": 7688,
      "ĠNoru": 7689,
      "ĠNesu": 7690,
      "ĠNeqi": 7691,
      "ĠMuwe": 7692,
      "ĠMepo": 7693,
      "ĠRaco": 7694,
      "ĠRaki": 7695,
      "ĠRoje": 7696,
      "ĠRuho": 7697,
      "ĠRubu": 7698,
      "ĠRifo": 7699,
      "ĠRimu": 7700,
      "ĠBeri": 7701,
      "ĠBazu": 7702,
      "ĠBuhu": 7703,
      "ĠBuzu": 7704,
      "ĠBini": 7705,
      "ĠBeqa": 7706,
      "ĠCopa": 7707,
      "ĠCamu": 7708,
      "ĠCovo": 7709,
      "ĠCezo": 7710,
      "ĠLoji": 7711,
      "ĠLefu": 7712,
      "ĠLedo": 7713,
      "ĠLeku": 7714,
      "ĠQatu": 7715,
      "ĠQoza": 7716,
      "ĠQiqi": 7717,
      "ĠQifo": 7718,
      "ĠQiyu": 7719,
      "ĠDavi": 7720,
      "ĠDepo": 7721,
      "ĠDeza": 7722,
      "ĠDeze": 7723,
      "ĠVaxi": 7724,
      "ĠViha": 7725,
      "ĠVize": 7726,
      "ĠVese": 7727,
      "ĠVeqo": 7728,
      "ĠVewe": 7729,
      "ĠYaso": 7730,
      "ĠYaki": 7731,
      "ĠYoko": 7732,
      "ĠYiqo": 7733,
      "ĠYeya": 7734,
      "ĠKoni": 7735,
      "ĠKawe": 7736,
      "ĠKopi": 7737,
      "ĠKaxe": 7738,
      "ĠKiqe": 7739,
      "ĠKewu": 7740,
      "ĠKeme": 7741,
      "ĠKepe": 7742,
      "ĠJacu": 7743,
      "ĠJago": 7744,
      "ĠJitu": 7745,
      "ĠJibi": 7746,
      "ĠJese": 7747,
      "ĠJeqi": 7748,
      "ĠJega": 7749,
      "ĠHobi": 7750,
      "ĠHupi": 7751,
      "ĠHuxu": 7752,
      "ĠFama": 7753,
      "ĠFoqo": 7754,
      "ĠFafu": 7755,
      "ĠFoko": 7756,
      "ĠFuxo": 7757,
      "ĠFipa": 7758,
      "ĠWawa": 7759,
      "ĠWoku": 7760,
      "ĠWoqo": 7761,
      "ĠWane": 7762,
      "ĠGico": 7763,
      "ĠGeya": 7764,
      "ĠXuku": 7765,
      "ĠXuxi": 7766,
      "ĠXipi": 7767,
      "ĠXifu": 7768,
      "ĠZata": 7769,
      "ĠZasi": 7770,
      "ĠZawi": 7771,
      "ĠZaqi": 7772,
      "ĠZapi": 7773,
      "ĠZibo": 7774,
      "ĠPowo": 7775,
      "ĠPora": 7776,
      "ĠPuqo": 7777,
      "ĠSuna": 7778,
      "ĠSawi": 7779,
      "ĠSowi": 7780,
      "ĠSavo": 7781,
      "ĠSago": 7782,
      "ĠSufa": 7783,
      "ĠSubi": 7784,
      "ĠSemu": 7785,
      "ĠSeqi": 7786,
      "ĠToju": 7787,
      "ĠTeqi": 7788,
      "ĠTeji": 7789,
      "ĠNotu": 7790,
      "ĠNoka": 7791,
      "ĠNogo": 7792,
      "ĠNuto": 7793,
      "ĠNiyu": 7794,
      "ĠNiva": 7795,
      "ĠNemi": 7796,
      "ĠMuna": 7797,
      "ĠMovo": 7798,
      "ĠMudo": 7799,
      "ĠMumi": 7800,
      "ĠMiji": 7801,
      "ĠRobu": 7802,
      "ĠRabe": 7803,
      "ĠRapi": 7804,
      "ĠRiru": 7805,
      "ĠBoji": 7806,
      "ĠBobu": 7807,
      "ĠBavo": 7808,
      "ĠBafo": 7809,
      "ĠBupa": 7810,
      "ĠBebo": 7811,
      "ĠBeqe": 7812,
      "ĠCobu": 7813,
      "ĠCako": 7814,
      "ĠCajo": 7815,
      "ĠCudo": 7816,
      "ĠCuqi": 7817,
      "ĠCupa": 7818,
      "ĠCebu": 7819,
      "ĠCeyi": 7820,
      "ĠLono": 7821,
      "ĠLota": 7822,
      "ĠLosa": 7823,
      "ĠLobi": 7824,
      "ĠLoyu": 7825,
      "ĠLuse": 7826,
      "ĠLuzo": 7827,
      "ĠLuka": 7828,
      "ĠLiwa": 7829,
      "ĠLexa": 7830,
      "ĠLesu": 7831,
      "ĠLeta": 7832,
      "ĠQeri": 7833,
      "ĠRexu": 7834,
      "ĠRetu": 7835,
      "ĠDoza": 7836,
      "ĠDowu": 7837,
      "ĠDavo": 7838,
      "ĠDoso": 7839,
      "ĠDeru": 7840,
      "ĠVobo": 7841,
      "ĠVota": 7842,
      "ĠVane": 7843,
      "ĠVoxu": 7844,
      "ĠVemu": 7845,
      "ĠVewu": 7846,
      "ĠYuwi": 7847,
      "ĠYuji": 7848,
      "ĠYiga": 7849,
      "ĠYifa": 7850,
      "ĠYeme": 7851,
      "ĠKoba": 7852,
      "ĠKoyi": 7853,
      "ĠKito": 7854,
      "ĠKufo": 7855,
      "ĠKugo": 7856,
      "ĠKiyu": 7857,
      "ĠKepu": 7858,
      "ĠJoco": 7859,
      "ĠJaje": 7860,
      "ĠJuja": 7861,
      "ĠJida": 7862,
      "ĠJebi": 7863,
      "ĠHomo": 7864,
      "ĠHoho": 7865,
      "ĠHoro": 7866,
      "ĠHuha": 7867,
      "ĠHise": 7868,
      "ĠHiva": 7869,
      "ĠHeni": 7870,
      "ĠFawi": 7871,
      "ĠFapu": 7872,
      "ĠFaxo": 7873,
      "ĠFaji": 7874,
      "ĠFizi": 7875,
      "ĠFika": 7876,
      "ĠFeno": 7877,
      "ĠFetu": 7878,
      "ĠFema": 7879,
      "ĠFeko": 7880,
      "ĠWavi": 7881,
      "ĠWusa": 7882,
      "ĠWani": 7883,
      "ĠWusu": 7884,
      "ĠWahu": 7885,
      "ĠWimu": 7886,
      "ĠWihu": 7887,
      "ĠWexi": 7888,
      "ĠWehu": 7889,
      "ĠGotu": 7890,
      "ĠGuzi": 7891,
      "ĠGuje": 7892,
      "ĠXasi": 7893,
      "ĠXomo": 7894,
      "ĠXaja": 7895,
      "ĠXobo": 7896,
      "ĠXapa": 7897,
      "ĠXani": 7898,
      "ĠXuxo": 7899,
      "ĠXiku": 7900,
      "ĠXeji": 7901,
      "ĠZowi": 7902,
      "ĠZaye": 7903,
      "ĠZamo": 7904,
      "ĠZiva": 7905,
      "ĠZeqe": 7906,
      "ĠPucu": 7907,
      "ĠPema": 7908,
      "ĠSaya": 7909,
      "ĠSoga": 7910,
      "ĠSilo": 7911,
      "ĠSaxe": 7912,
      "ĠSuzi": 7913,
      "ĠSodo": 7914,
      "ĠSito": 7915,
      "ĠSuya": 7916,
      "ĠSeko": 7917,
      "ĠToxo": 7918,
      "ĠTiho": 7919,
      "ĠTipi": 7920,
      "ĠTefe": 7921,
      "ĠNofa": 7922,
      "ĠNusa": 7923,
      "ĠNaga": 7924,
      "ĠNuza": 7925,
      "ĠNuru": 7926,
      "ĠNume": 7927,
      "ĠNisi": 7928,
      "ĠNihu": 7929,
      "ĠNefu": 7930,
      "ĠMata": 7931,
      "ĠMofe": 7932,
      "ĠMoza": 7933,
      "ĠMojo": 7934,
      "ĠMopo": 7935,
      "ĠMubu": 7936,
      "ĠMuxi": 7937,
      "ĠMija": 7938,
      "ĠRayu": 7939,
      "ĠRasa": 7940,
      "ĠRawa": 7941,
      "ĠRape": 7942,
      "ĠRume": 7943,
      "ĠMaqi": 7944,
      "ĠBowi": 7945,
      "ĠBuwa": 7946,
      "ĠBisu": 7947,
      "ĠBiqo": 7948,
      "ĠBeyi": 7949,
      "ĠCofu": 7950,
      "ĠComa": 7951,
      "ĠCowa": 7952,
      "ĠCisu": 7953,
      "ĠCevu": 7954,
      "ĠCeqa": 7955,
      "ĠLazu": 7956,
      "ĠLapu": 7957,
      "ĠLohu": 7958,
      "ĠLocu": 7959,
      "ĠLopo": 7960,
      "ĠLuye": 7961,
      "ĠLuki": 7962,
      "ĠLeha": 7963,
      "ĠQapo": 7964,
      "ĠQolu": 7965,
      "ĠQamo": 7966,
      "ĠQogo": 7967,
      "ĠQuzu": 7968,
      "ĠQixi": 7969,
      "ĠQeru": 7970,
      "ĠRevi": 7971,
      "ĠDaci": 7972,
      "ĠDota": 7973,
      "ĠDaxo": 7974,
      "ĠDife": 7975,
      "ĠDijo": 7976,
      "ĠDezu": 7977,
      "ĠDepi": 7978,
      "ĠVoye": 7979,
      "ĠVoxi": 7980,
      "ĠVobi": 7981,
      "ĠVuku": 7982,
      "ĠViqi": 7983,
      "ĠVima": 7984,
      "ĠViva": 7985,
      "ĠVexu": 7986,
      "ĠVedo": 7987,
      "ĠYamu": 7988,
      "ĠYoku": 7989,
      "ĠYugo": 7990,
      "ĠYumo": 7991,
      "ĠYiho": 7992,
      "ĠYijo": 7993,
      "ĠYizo": 7994,
      "ĠYiha": 7995,
      "ĠYeza": 7996,
      "ĠKope": 7997,
      "ĠKoga": 7998,
      "ĠKoqo": 7999,
      "ĠKadi": 8000,
      "ĠKaho": 8001,
      "ĠKoqa": 8002,
      "ĠKeni": 8003,
      "ĠJawe": 8004,
      "ĠJilo": 8005,
      "ĠJoqe": 8006,
      "ĠJosu": 8007,
      "ĠJogo": 8008,
      "ĠJube": 8009,
      "ĠJiha": 8010,
      "ĠHavu": 8011,
      "ĠHodo": 8012,
      "ĠHube": 8013,
      "ĠHine": 8014,
      "ĠHiju": 8015,
      "ĠHevu": 8016,
      "ĠHeza": 8017,
      "ĠFeri": 8018,
      "ĠFofi": 8019,
      "ĠFoba": 8020,
      "ĠFayu": 8021,
      "ĠFobe": 8022,
      "ĠFoxe": 8023,
      "ĠFivo": 8024,
      "ĠFiqe": 8025,
      "ĠWuno": 8026,
      "ĠWowe": 8027,
      "ĠWaju": 8028,
      "ĠWopu": 8029,
      "ĠWufo": 8030,
      "ĠWiko": 8031,
      "ĠWera": 8032,
      "ĠWemu": 8033,
      "ĠWema": 8034,
      "ĠWepi": 8035,
      "ĠWezi": 8036,
      "ĠGome": 8037,
      "ĠGaci": 8038,
      "ĠGona": 8039,
      "ĠGoyu": 8040,
      "ĠGoja": 8041,
      "ĠGovo": 8042,
      "ĠGoha": 8043,
      "ĠGeca": 8044,
      "ĠGeqa": 8045,
      "ĠXonu": 8046,
      "ĠXasa": 8047,
      "ĠXozi": 8048,
      "ĠXoxu": 8049,
      "ĠXudo": 8050,
      "ĠXuwo": 8051,
      "ĠXuwe": 8052,
      "ĠXiji": 8053,
      "ĠXebo": 8054,
      "ĠXeko": 8055,
      "ĠZowa": 8056,
      "ĠZaba": 8057,
      "ĠZoyi": 8058,
      "ĠZuri": 8059,
      "ĠZuya": 8060,
      "ĠZuwo": 8061,
      "ĠPara": 8062,
      "ĠPeru": 8063,
      "ĠPesi": 8064,
      "ĠPego": 8065,
      "ĠSatu": 8066,
      "ĠSato": 8067,
      "ĠSaru": 8068,
      "ĠSoze": 8069,
      "ĠSoso": 8070,
      "ĠSotu": 8071,
      "ĠSoqa": 8072,
      "ĠSuwi": 8073,
      "ĠSuyu": 8074,
      "ĠSime": 8075,
      "ĠSexu": 8076,
      "ĠSeju": 8077,
      "ĠSelu": 8078,
      "ĠTaca": 8079,
      "ĠTobo": 8080,
      "ĠTawe": 8081,
      "ĠTavi": 8082,
      "ĠTajo": 8083,
      "ĠTaka": 8084,
      "ĠTuyo": 8085,
      "ĠTuvi": 8086,
      "ĠTuto": 8087,
      "ĠTidi": 8088,
      "ĠTibu": 8089,
      "ĠTica": 8090,
      "ĠNama": 8091,
      "ĠNoyi": 8092,
      "ĠNolu": 8093,
      "ĠNilu": 8094,
      "ĠNuji": 8095,
      "ĠNuwo": 8096,
      "ĠNiko": 8097,
      "ĠNidi": 8098,
      "ĠNiyo": 8099,
      "ĠNewo": 8100,
      "ĠMaru": 8101,
      "ĠMota": 8102,
      "ĠMozi": 8103,
      "ĠMulu": 8104,
      "ĠMifa": 8105,
      "ĠMiqe": 8106,
      "ĠMeba": 8107,
      "ĠMefe": 8108,
      "ĠRaje": 8109,
      "ĠRoci": 8110,
      "ĠRane": 8111,
      "ĠRugo": 8112,
      "ĠRuto": 8113,
      "ĠRuwa": 8114,
      "ĠRipi": 8115,
      "ĠRixe": 8116,
      "ĠRiwe": 8117,
      "ĠBaxi": 8118,
      "ĠBopu": 8119,
      "ĠBuqo": 8120,
      "ĠBufe": 8121,
      "ĠBisi": 8122,
      "ĠBiki": 8123,
      "ĠBipe": 8124,
      "ĠBepu": 8125,
      "ĠBeko": 8126,
      "ĠCalu": 8127,
      "ĠCuye": 8128,
      "ĠCuba": 8129,
      "ĠCifu": 8130,
      "ĠCiqe": 8131,
      "ĠLaba": 8132,
      "ĠLine": 8133,
      "ĠLuzu": 8134,
      "ĠLiji": 8135,
      "ĠLime": 8136,
      "ĠLese": 8137,
      "ĠLebo": 8138,
      "ĠQofe": 8139,
      "ĠQopu": 8140,
      "ĠQocu": 8141,
      "ĠQufe": 8142,
      "ĠQuto": 8143,
      "ĠQidi": 8144,
      "ĠQika": 8145,
      "ĠQise": 8146,
      "ĠQipi": 8147,
      "ĠQiji": 8148,
      "ĠQija": 8149,
      "ĠQeno": 8150,
      "ĠQeho": 8151,
      "ĠDato": 8152,
      "ĠDone": 8153,
      "ĠDawi": 8154,
      "ĠDope": 8155,
      "ĠDaba": 8156,
      "ĠDabu": 8157,
      "ĠDubu": 8158,
      "ĠDubo": 8159,
      "ĠDupa": 8160,
      "ĠDuxe": 8161,
      "ĠDeja": 8162,
      "ĠDeca": 8163,
      "ĠDevo": 8164,
      "ĠVato": 8165,
      "ĠVonu": 8166,
      "ĠVomi": 8167,
      "ĠVowa": 8168,
      "ĠVife": 8169,
      "ĠViju": 8170,
      "ĠViqa": 8171,
      "ĠVime": 8172,
      "ĠVebu": 8173,
      "ĠVego": 8174,
      "ĠYago": 8175,
      "ĠYuko": 8176,
      "ĠYuha": 8177,
      "ĠYiwi": 8178,
      "ĠYiqe": 8179,
      "ĠYiza": 8180,
      "ĠKose": 8181,
      "ĠKami": 8182,
      "ĠKoro": 8183,
      "ĠKuwi": 8184,
      "ĠKufu": 8185,
      "ĠKoha": 8186,
      "ĠKena": 8187,
      "ĠJofi": 8188,
      "ĠJoze": 8189,
      "ĠJaku": 8190,
      "ĠJaji": 8191,
      "ĠJolu": 8192,
      "ĠJuku": 8193,
      "ĠJuxa": 8194,
      "ĠJiho": 8195,
      "ĠJiza": 8196,
      "ĠJesa": 8197,
      "ĠJeya": 8198,
      "ĠJeyo": 8199,
      "ĠHaju": 8200,
      "ĠHoru": 8201,
      "ĠHuyo": 8202,
      "ĠHupo": 8203,
      "ĠHixu": 8204,
      "ĠHexu": 8205,
      "ĠFaru": 8206,
      "ĠFona": 8207,
      "ĠFuto": 8208,
      "ĠFuwu": 8209,
      "ĠFeyu": 8210,
      "ĠFejo": 8211,
      "ĠWatu": 8212,
      "ĠWaci": 8213,
      "ĠWosi": 8214,
      "ĠWaro": 8215,
      "ĠWoya": 8216,
      "ĠWoko": 8217,
      "ĠWova": 8218,
      "ĠWuqi": 8219,
      "ĠWuju": 8220,
      "ĠWixu": 8221,
      "ĠWipi": 8222,
      "ĠWife": 8223,
      "ĠWiyi": 8224,
      "ĠWeyu": 8225,
      "ĠGosa": 8226,
      "ĠGuvu": 8227,
      "ĠGiqo": 8228,
      "ĠGicu": 8229,
      "ĠGeyo": 8230,
      "ĠXadi": 8231,
      "ĠXuye": 8232,
      "ĠXila": 8233,
      "ĠXida": 8234,
      "ĠXido": 8235,
      "ĠXisi": 8236,
      "ĠXeki": 8237,
      "ĠZofe": 8238,
      "ĠZito": 8239,
      "ĠZudi": 8240,
      "ĠZina": 8241,
      "ĠZida": 8242,
      "ĠZepo": 8243,
      "ĠZebe": 8244,
      "ĠPomo": 8245,
      "ĠPabi": 8246,
      "ĠPaxi": 8247,
      "ĠPoja": 8248,
      "ĠPumi": 8249,
      "ĠPeqi": 8250,
      "ĠPeyo": 8251,
      "ecer": 8252,
      "ĠSabe": 8253,
      "ĠSazi": 8254,
      "ĠSuye": 8255,
      "ĠSuku": 8256,
      "ĠSiva": 8257,
      "ĠSejo": 8258,
      "ĠSeco": 8259,
      "ĠTaso": 8260,
      "ĠTilu": 8261,
      "ĠTada": 8262,
      "ĠTuxi": 8263,
      "ĠTiyu": 8264,
      "ĠTiwe": 8265,
      "ĠTivi": 8266,
      "ĠTezi": 8267,
      "ĠNoco": 8268,
      "ĠNoku": 8269,
      "ĠNoga": 8270,
      "ĠNazo": 8271,
      "ĠNoje": 8272,
      "ĠNoha": 8273,
      "ĠNuqe": 8274,
      "ĠNupi": 8275,
      "ĠNuzo": 8276,
      "ĠNujo": 8277,
      "ĠNika": 8278,
      "ĠNixe": 8279,
      "ĠNimu": 8280,
      "ĠMari": 8281,
      "ĠMilo": 8282,
      "ĠModo": 8283,
      "ĠMupu": 8284,
      "ĠMuba": 8285,
      "ĠMuka": 8286,
      "ĠMiho": 8287,
      "ĠMisu": 8288,
      "ĠMefa": 8289,
      "ĠMeza": 8290,
      "ĠMeko": 8291,
      "ĠMeku": 8292,
      "ĠRapu": 8293,
      "ĠRayo": 8294,
      "ĠRuru": 8295,
      "ĠRisi": 8296,
      "ĠRiye": 8297,
      "ĠRiqo": 8298,
      "ĠMava": 8299,
      "ĠMaxu": 8300,
      "ĠBowa": 8301,
      "ĠBoko": 8302,
      "ĠBufo": 8303,
      "ĠBima": 8304,
      "ĠBiwe": 8305,
      "ĠBiku": 8306,
      "ĠBexa": 8307,
      "ĠBeje": 8308,
      "ĠBeya": 8309,
      "ĠCozu": 8310,
      "ĠCazo": 8311,
      "ĠColu": 8312,
      "ĠCupu": 8313,
      "ĠCuga": 8314,
      "ĠCiho": 8315,
      "ĠCebo": 8316,
      "ĠLuni": 8317,
      "ĠLaga": 8318,
      "ĠLuri": 8319,
      "ĠLido": 8320,
      "ĠLivo": 8321,
      "ĠLixo": 8322,
      "ĠLivi": 8323,
      "ĠLeqe": 8324,
      "ĠQavi": 8325,
      "ĠQoyo": 8326,
      "ĠQivu": 8327,
      "ĠQetu": 8328,
      "ĠQeca": 8329,
      "ĠRewe": 8330,
      "ĠDopa": 8331,
      "ĠDayi": 8332,
      "ĠDocu": 8333,
      "ĠDilu": 8334,
      "ĠDuca": 8335,
      "ĠDiso": 8336,
      "ĠDezi": 8337,
      "ĠDeyi": 8338,
      "ĠVoni": 8339,
      "ĠVozu": 8340,
      "ĠVura": 8341,
      "ĠVuvo": 8342,
      "ĠVupu": 8343,
      "ĠVijo": 8344,
      "ĠVeva": 8345,
      "ĠVezu": 8346,
      "ĠYofo": 8347,
      "ĠYoqa": 8348,
      "ĠYuxa": 8349,
      "ĠYitu": 8350,
      "ĠYisi": 8351,
      "ĠYiyo": 8352,
      "ĠKata": 8353,
      "ĠKaso": 8354,
      "ĠKoji": 8355,
      "ĠKoxo": 8356,
      "ĠKavo": 8357,
      "ĠKaji": 8358,
      "ĠKoxu": 8359,
      "ĠKamo": 8360,
      "ĠKopo": 8361,
      "ĠKuco": 8362,
      "ĠKufe": 8363,
      "ĠKiqo": 8364,
      "ĠKizu": 8365,
      "ĠKeca": 8366,
      "ĠJoni": 8367,
      "ĠJomo": 8368,
      "ĠJojo": 8369,
      "ĠJuqa": 8370,
      "ĠJufu": 8371,
      "ĠJuze": 8372,
      "ĠJuto": 8373,
      "ĠJima": 8374,
      "ĠJika": 8375,
      "ĠJivi": 8376,
      "ĠJesi": 8377,
      "ĠHato": 8378,
      "ĠHaci": 8379,
      "ĠHaku": 8380,
      "ĠHamo": 8381,
      "ĠHoka": 8382,
      "ĠHuri": 8383,
      "ĠHana": 8384,
      "ĠHuju": 8385,
      "ĠHiqa": 8386,
      "ĠHica": 8387,
      "ĠHeba": 8388,
      "ĠHeju": 8389,
      "ĠHemi": 8390,
      "ĠHega": 8391,
      "ĠFuna": 8392,
      "ĠFara": 8393,
      "ĠFowi": 8394,
      "ĠFavo": 8395,
      "ĠFuhu": 8396,
      "ĠFuya": 8397,
      "ĠFuvi": 8398,
      "ĠFewi": 8399,
      "ĠWacu": 8400,
      "ĠWuma": 8401,
      "ĠWoyo": 8402,
      "ĠWuyi": 8403,
      "ĠWume": 8404,
      "ĠWise": 8405,
      "ĠWiwo": 8406,
      "ĠWexo": 8407,
      "ĠGato": 8408,
      "ĠGomi": 8409,
      "ĠGuhu": 8410,
      "ĠGitu": 8411,
      "ĠGipi": 8412,
      "ĠGiwi": 8413,
      "ĠXoya": 8414,
      "ĠXotu": 8415,
      "ĠXura": 8416,
      "ĠXixe": 8417,
      "ĠXixi": 8418,
      "ĠXibu": 8419,
      "ĠXebu": 8420,
      "ĠZawe": 8421,
      "ĠZoga": 8422,
      "ĠZoye": 8423,
      "ĠZabe": 8424,
      "ĠZiho": 8425,
      "ĠZisu": 8426,
      "ĠZiqa": 8427,
      "ĠZiza": 8428,
      "ĠZeki": 8429,
      "ĠPuna": 8430,
      "ĠPuni": 8431,
      "ĠPuse": 8432,
      "ĠPogo": 8433,
      "ĠPupi": 8434,
      "ĠPuwe": 8435,
      "ĠPifo": 8436,
      "ĠPedo": 8437,
      "ĠPeyi": 8438,
      "ĠPeta": 8439,
      "ĠSozi": 8440,
      "ĠSubo": 8441,
      "ĠSuqe": 8442,
      "ĠSina": 8443,
      "ĠSibe": 8444,
      "ĠSiwe": 8445,
      "ĠSipo": 8446,
      "ĠSico": 8447,
      "ĠSebo": 8448,
      "ĠSeye": 8449,
      "ĠTaxi": 8450,
      "ĠTaxo": 8451,
      "ĠToko": 8452,
      "ĠTudo": 8453,
      "ĠTufo": 8454,
      "ĠTuxa": 8455,
      "ĠTixo": 8456,
      "ĠTiha": 8457,
      "ĠTeki": 8458,
      "ĠTesi": 8459,
      "ĠTeje": 8460,
      "ĠTewe": 8461,
      "ĠNosi": 8462,
      "ĠNafe": 8463,
      "ĠNadi": 8464,
      "ĠNuyi": 8465,
      "ĠNuxi": 8466,
      "ĠNida": 8467,
      "ĠNizi": 8468,
      "ĠNedo": 8469,
      "ĠNevo": 8470,
      "ĠMato": 8471,
      "ĠMuku": 8472,
      "ĠMijo": 8473,
      "ĠMiya": 8474,
      "ĠMeqi": 8475,
      "ĠRoba": 8476,
      "ĠRube": 8477,
      "ĠRuxo": 8478,
      "ĠRiyu": 8479,
      "ĠMazu": 8480,
      "ĠBope": 8481,
      "ĠBako": 8482,
      "ĠBabi": 8483,
      "ĠBobe": 8484,
      "ĠBocu": 8485,
      "ĠBova": 8486,
      "ĠBito": 8487,
      "ĠBuyo": 8488,
      "ĠBitu": 8489,
      "ĠBixo": 8490,
      "ĠBiba": 8491,
      "ĠCoji": 8492,
      "ĠCaco": 8493,
      "ĠCopu": 8494,
      "ĠCura": 8495,
      "ĠCoqi": 8496,
      "ĠCoqe": 8497,
      "ĠCoxe": 8498,
      "ĠCugo": 8499,
      "ĠCizi": 8500,
      "ĠCipa": 8501,
      "ĠCedo": 8502,
      "ĠCeno": 8503,
      "ĠCeho": 8504,
      "ĠLunu": 8505,
      "ĠLodi": 8506,
      "ĠLoxa": 8507,
      "ĠLozu": 8508,
      "ĠLanu": 8509,
      "ĠLuza": 8510,
      "ĠLuvu": 8511,
      "ĠLuxa": 8512,
      "ĠLuxe": 8513,
      "ĠLumu": 8514,
      "ĠLena": 8515,
      "ĠLeme": 8516,
      "ĠLeko": 8517,
      "ĠLehu": 8518,
      "ĠQoya": 8519,
      "ĠQope": 8520,
      "ĠQozo": 8521,
      "ĠQahu": 8522,
      "ĠQovi": 8523,
      "ĠQima": 8524,
      "ĠQiwa": 8525,
      "ĠQefa": 8526,
      "ĠQelu": 8527,
      "ĠRehu": 8528,
      "ĠRewa": 8529,
      "ĠDofa": 8530,
      "ĠDomi": 8531,
      "ĠDaxa": 8532,
      "ĠDori": 8533,
      "ĠDiqi": 8534,
      "ĠDika": 8535,
      "ĠDiju": 8536,
      "ĠDira": 8537,
      "ĠDexa": 8538,
      "ĠDeme": 8539,
      "ĠVine": 8540,
      "ĠVeyo": 8541,
      "ĠYobu": 8542,
      "ĠYaco": 8543,
      "ĠYuyi": 8544,
      "ĠYita": 8545,
      "ĠYuki": 8546,
      "ĠYupe": 8547,
      "ĠYiku": 8548,
      "ĠYexe": 8549,
      "ĠYeso": 8550,
      "ĠYema": 8551,
      "ĠYega": 8552,
      "ĠYeka": 8553,
      "ĠKako": 8554,
      "ĠKazi": 8555,
      "ĠKubu": 8556,
      "ĠKuyu": 8557,
      "ĠKuxu": 8558,
      "ĠKipa": 8559,
      "ĠKime": 8560,
      "ĠKeki": 8561,
      "ĠKeqa": 8562,
      "ĠKeqe": 8563,
      "ĠJopa": 8564,
      "ĠJaxa": 8565,
      "ĠJaxi": 8566,
      "ĠJoho": 8567,
      "ĠJine": 8568,
      "ĠJumo": 8569,
      "ĠJifa": 8570,
      "ĠJeni": 8571,
      "ĠJepi": 8572,
      "ĠJejo": 8573,
      "ĠHota": 8574,
      "ĠHoxa": 8575,
      "ĠHoqo": 8576,
      "ĠHaji": 8577,
      "ĠHaqo": 8578,
      "ĠHuye": 8579,
      "ĠHuqa": 8580,
      "ĠHuba": 8581,
      "ĠHiwi": 8582,
      "ĠHexe": 8583,
      "ĠHewi": 8584,
      "ĠFobi": 8585,
      "ĠFexu": 8586,
      "ĠFeqo": 8587,
      "ĠWasi": 8588,
      "ĠWoji": 8589,
      "ĠWuto": 8590,
      "ĠWuwe": 8591,
      "ĠWipo": 8592,
      "ĠWeba": 8593,
      "ĠGasi": 8594,
      "ĠGoku": 8595,
      "ĠGodi": 8596,
      "ĠGuqo": 8597,
      "ĠGulu": 8598,
      "ĠGixi": 8599,
      "ĠGira": 8600,
      "ĠGeda": 8601,
      "ĠXosi": 8602,
      "ĠXaqe": 8603,
      "ĠXoyu": 8604,
      "ĠXojo": 8605,
      "ĠXuqa": 8606,
      "ĠXipa": 8607,
      "ĠXife": 8608,
      "ĠXiha": 8609,
      "ĠXiwo": 8610,
      "ĠXifa": 8611,
      "ĠXene": 8612,
      "ĠXema": 8613,
      "ĠXebi": 8614,
      "ĠXeya": 8615,
      "ĠXeze": 8616,
      "ĠZayu": 8617,
      "ĠZowu": 8618,
      "ĠZumi": 8619,
      "ĠZube": 8620,
      "ĠZita": 8621,
      "ĠZubu": 8622,
      "ĠZibi": 8623,
      "ĠPofo": 8624,
      "ĠPoba": 8625,
      "ĠPubi": 8626,
      "ĠPefu": 8627,
      "ĠPewo": 8628,
      "ĠSoza": 8629,
      "ĠSoqo": 8630,
      "ĠSaki": 8631,
      "ĠSopo": 8632,
      "ĠSudo": 8633,
      "ĠSiwi": 8634,
      "ĠSetu": 8635,
      "ĠTodi": 8636,
      "ĠTaga": 8637,
      "ĠTuma": 8638,
      "ĠTaki": 8639,
      "ĠTado": 8640,
      "ĠTuye": 8641,
      "ĠTupi": 8642,
      "ĠTuwo": 8643,
      "ĠTuje": 8644,
      "ĠTida": 8645,
      "ĠTiwo": 8646,
      "ĠTiso": 8647,
      "ĠTeba": 8648,
      "ĠNoni": 8649,
      "ĠNomi": 8650,
      "ĠNaqi": 8651,
      "ĠNozo": 8652,
      "ĠNuhu": 8653,
      "ĠNuxa": 8654,
      "ĠNiwi": 8655,
      "ĠMoni": 8656,
      "ĠMoji": 8657,
      "ĠMuvo": 8658,
      "ĠMufo": 8659,
      "ĠMogo": 8660,
      "ĠMuga": 8661,
      "ĠMiqi": 8662,
      "ĠMibu": 8663,
      "ĠMizo": 8664,
      "ĠRuna": 8665,
      "ĠRako": 8666,
      "ĠRose": 8667,
      "ĠRaxe": 8668,
      "ĠRosu": 8669,
      "ĠRila": 8670,
      "ĠRuxi": 8671,
      "ĠRivo": 8672,
      "ĠMaza": 8673,
      "ĠBowe": 8674,
      "ĠBavu": 8675,
      "ĠBibe": 8676,
      "ĠBezo": 8677,
      "ĠBecu": 8678,
      "ĠCoya": 8679,
      "ĠCoku": 8680,
      "ĠCoho": 8681,
      "ĠCumi": 8682,
      "ĠCucu": 8683,
      "ĠCina": 8684,
      "ĠCivi": 8685,
      "ĠCepo": 8686,
      "ĠLacu": 8687,
      "ĠLasu": 8688,
      "ĠLawu": 8689,
      "ĠLoqa": 8690,
      "ĠLuja": 8691,
      "ĠLini": 8692,
      "ĠLida": 8693,
      "ĠLera": 8694,
      "ĠLefa": 8695,
      "ĠLefo": 8696,
      "ĠQofu": 8697,
      "ĠQopa": 8698,
      "ĠQoma": 8699,
      "ĠQoji": 8700,
      "ĠQowi": 8701,
      "ĠQado": 8702,
      "ĠQube": 8703,
      "ĠQusi": 8704,
      "ĠQife": 8705,
      "ĠQisi": 8706,
      "ĠQimu": 8707,
      "ĠQeji": 8708,
      "ĠQebe": 8709,
      "ĠRezu": 8710,
      "ĠReki": 8711,
      "ĠRevu": 8712,
      "ĠReda": 8713,
      "ĠReni": 8714,
      "ĠDamu": 8715,
      "ĠDozi": 8716,
      "ĠDuku": 8717,
      "ĠDini": 8718,
      "ĠDebo": 8719,
      "ĠDewi": 8720,
      "ĠVofi": 8721,
      "ĠVowe": 8722,
      "ĠVayi": 8723,
      "ĠVuse": 8724,
      "ĠVahu": 8725,
      "ĠVuya": 8726,
      "ĠVupe": 8727,
      "ĠVutu": 8728,
      "ĠVipi": 8729,
      "ĠVexe": 8730,
      "ĠVebo": 8731,
      "ĠYofi": 8732,
      "ĠYuni": 8733,
      "ĠYaja": 8734,
      "ĠYoji": 8735,
      "ĠYowa": 8736,
      "ĠYafe": 8737,
      "ĠYaxo": 8738,
      "ĠYuwu": 8739,
      "ĠYini": 8740,
      "ĠYiwu": 8741,
      "ĠYeba": 8742,
      "ĠYebu": 8743,
      "ĠYeho": 8744,
      "ĠYepu": 8745,
      "ĠYeta": 8746,
      "ĠKayu": 8747,
      "ĠKoku": 8748,
      "ĠKavu": 8749,
      "ĠKotu": 8750,
      "ĠKaqo": 8751,
      "ĠKine": 8752,
      "ĠKidi": 8753,
      "ĠKifo": 8754,
      "ĠKija": 8755,
      "ĠKexu": 8756,
      "ĠKebi": 8757,
      "ĠKevo": 8758,
      "ĠJoxa": 8759,
      "ĠJufe": 8760,
      "ĠJeze": 8761,
      "ĠHofi": 8762,
      "ĠHawu": 8763,
      "ĠHora": 8764,
      "ĠHaha": 8765,
      "ĠHuqi": 8766,
      "ĠHuji": 8767,
      "ĠHuki": 8768,
      "ĠHufa": 8769,
      "ĠHuva": 8770,
      "ĠHife": 8771,
      "ĠHiru": 8772,
      "ĠHibi": 8773,
      "ĠHebe": 8774,
      "ĠHego": 8775,
      "ĠHeta": 8776,
      "ĠHelu": 8777,
      "ĠFapa": 8778,
      "ĠFusa": 8779,
      "ĠFoqi": 8780,
      "ĠFito": 8781,
      "ĠFuwo": 8782,
      "ĠFuda": 8783,
      "ĠFujo": 8784,
      "ĠFipo": 8785,
      "ĠWofe": 8786,
      "ĠWopi": 8787,
      "ĠWajo": 8788,
      "ĠWoda": 8789,
      "ĠWuse": 8790,
      "ĠWamo": 8791,
      "ĠWana": 8792,
      "ĠWita": 8793,
      "ĠWubu": 8794,
      "ĠWuwo": 8795,
      "ĠWuha": 8796,
      "ĠWeme": 8797,
      "ĠWevo": 8798,
      "ĠGaso": 8799,
      "ĠGopu": 8800,
      "ĠGoqa": 8801,
      "ĠGewe": 8802,
      "ĠXoze": 8803,
      "ĠXota": 8804,
      "ĠXaye": 8805,
      "ĠXoqa": 8806,
      "ĠXazi": 8807,
      "ĠXuyi": 8808,
      "ĠXupo": 8809,
      "ĠXuyu": 8810,
      "ĠXumu": 8811,
      "ĠXujo": 8812,
      "ĠXewu": 8813,
      "ĠZune": 8814,
      "ĠZona": 8815,
      "ĠZonu": 8816,
      "ĠZopa": 8817,
      "ĠZosa": 8818,
      "ĠZoyu": 8819,
      "ĠZaza": 8820,
      "ĠZilo": 8821,
      "ĠZovo": 8822,
      "ĠZada": 8823,
      "ĠZulu": 8824,
      "ĠZuki": 8825,
      "ĠZuvi": 8826,
      "ĠZeru": 8827,
      "ĠZema": 8828,
      "ĠZepu": 8829,
      "ĠPozo": 8830,
      "ĠPuza": 8831,
      "ĠPila": 8832,
      "ĠPumu": 8833,
      "ĠPicu": 8834,
      "ĠPeme": 8835,
      "ĠPezi": 8836,
      "ĠSusa": 8837,
      "ĠSuco": 8838,
      "ĠSuri": 8839,
      "ĠSucu": 8840,
      "ĠSudi": 8841,
      "ĠSeki": 8842,
      "ĠSema": 8843,
      "ĠSezu": 8844,
      "ĠTofa": 8845,
      "ĠTomo": 8846,
      "ĠToma": 8847,
      "ĠTawi": 8848,
      "ĠToze": 8849,
      "ĠTani": 8850,
      "ĠTapi": 8851,
      "ĠToqa": 8852,
      "ĠTuta": 8853,
      "ĠTufu": 8854,
      "ĠTisu": 8855,
      "ĠTigo": 8856,
      "ĠTeno": 8857,
      "ĠTeva": 8858,
      "ĠTezu": 8859,
      "ĠTeho": 8860,
      "ĠNaci": 8861,
      "ĠNaca": 8862,
      "ĠNaye": 8863,
      "ĠNora": 8864,
      "ĠNaxe": 8865,
      "ĠNuzu": 8866,
      "ĠNupo": 8867,
      "ĠNisa": 8868,
      "ĠNiki": 8869,
      "ĠNije": 8870,
      "ĠNime": 8871,
      "ĠNiya": 8872,
      "ĠNejo": 8873,
      "ĠModa": 8874,
      "ĠMoqa": 8875,
      "ĠMupi": 8876,
      "ĠMira": 8877,
      "ĠMesu": 8878,
      "ĠMehu": 8879,
      "ĠRasi": 8880,
      "ĠRomo": 8881,
      "ĠRoku": 8882,
      "ĠRoye": 8883,
      "ĠRowu": 8884,
      "ĠRusu": 8885,
      "ĠRada": 8886,
      "ĠRuki": 8887,
      "ĠRubo": 8888,
      "ĠRida": 8889,
      "ĠMazo": 8890,
      "ĠMabu": 8891,
      "ĠBoza": 8892,
      "ĠBoyo": 8893,
      "ĠBaza": 8894,
      "ĠBapi": 8895,
      "ĠBoja": 8896,
      "ĠBahu": 8897,
      "ĠBuri": 8898,
      "ĠBila": 8899,
      "ĠBuyi": 8900,
      "ĠBube": 8901,
      "ĠBusi": 8902,
      "ĠBana": 8903,
      "ĠBuxa": 8904,
      "ĠBije": 8905,
      "ĠBeza": 8906,
      "ĠCofe": 8907,
      "ĠCazu": 8908,
      "ĠCowu": 8909,
      "ĠCoxo": 8910,
      "ĠCavu": 8911,
      "ĠCori": 8912,
      "ĠCuxo": 8913,
      "ĠCubu": 8914,
      "ĠCufu": 8915,
      "ĠCiso": 8916,
      "ĠCeso": 8917,
      "ĠLofa": 8918,
      "ĠLomo": 8919,
      "ĠLawe": 8920,
      "ĠLozo": 8921,
      "ĠLowu": 8922,
      "ĠLufe": 8923,
      "ĠLumi": 8924,
      "ĠLifo": 8925,
      "ĠLima": 8926,
      "ĠLiya": 8927,
      "ĠLivu": 8928,
      "ĠLeru": 8929,
      "ĠLeni": 8930,
      "ĠLeno": 8931,
      "ĠLeju": 8932,
      "ĠQosi": 8933,
      "ĠQaqe": 8934,
      "ĠQoyu": 8935,
      "ĠQoxu": 8936,
      "ĠQusu": 8937,
      "ĠQuza": 8938,
      "ĠQuho": 8939,
      "ĠQupu": 8940,
      "ĠQuje": 8941,
      "ĠQibi": 8942,
      "ĠQedo": 8943,
      "ĠQeha": 8944,
      "ĠQezo": 8945,
      "ĠQevi": 8946,
      "ĠQepu": 8947,
      "ĠQeya": 8948,
      "ĠReqe": 8949,
      "ĠReyi": 8950,
      "ĠDofi": 8951,
      "ĠDuna": 8952,
      "ĠDono": 8953,
      "ĠDaye": 8954,
      "ĠDabi": 8955,
      "ĠDowa": 8956,
      "ĠDoyi": 8957,
      "ĠDilo": 8958,
      "ĠDopo": 8959,
      "ĠDeqe": 8960,
      "ĠVafe": 8961,
      "ĠVoje": 8962,
      "ĠVoka": 8963,
      "ĠVexo": 8964,
      "ĠVemi": 8965,
      "ĠYaci": 8966,
      "ĠYoye": 8967,
      "ĠYoxo": 8968,
      "ĠYuju": 8969,
      "ĠYuwo": 8970,
      "ĠYira": 8971,
      "ĠYipo": 8972,
      "ĠYivi": 8973,
      "ĠYexo": 8974,
      "ĠKavi": 8975,
      "ĠKoyo": 8976,
      "ĠKahu": 8977,
      "ĠKuzi": 8978,
      "ĠKoka": 8979,
      "ĠKuji": 8980,
      "ĠKuwe": 8981,
      "ĠKise": 8982,
      "ĠKisu": 8983,
      "ĠKipi": 8984,
      "ĠKico": 8985,
      "ĠKefa": 8986,
      "ĠKeva": 8987,
      "ĠJoza": 8988,
      "ĠJaqa": 8989,
      "ĠJobe": 8990,
      "ĠJoja": 8991,
      "ĠJuza": 8992,
      "ĠJipo": 8993,
      "ĠJeha": 8994,
      "ĠJewi": 8995,
      "ĠJeqe": 8996,
      "ĠHoza": 8997,
      "ĠHobu": 8998,
      "ĠHama": 8999,
      "ĠHoku": 9000,
      "ĠHako": 9001,
      "ĠHaqa": 9002,
      "ĠHoxu": 9003,
      "ĠHahu": 9004,
      "ĠHado": 9005,
      "ĠHuto": 9006,
      "ĠHiyu": 9007,
      "ĠHizo": 9008,
      "ĠHipe": 9009,
      "ĠHesi": 9010,
      "ĠHepu": 9011,
      "ĠFazu": 9012,
      "ĠFugo": 9013,
      "ĠFubo": 9014,
      "ĠFudi": 9015,
      "ĠFuka": 9016,
      "ĠFixa": 9017,
      "ĠFiqa": 9018,
      "ĠFipu": 9019,
      "ĠFiyo": 9020,
      "ĠFiku": 9021,
      "ĠFexa": 9022,
      "ĠFene": 9023,
      "ĠFeca": 9024,
      "ĠWawe": 9025,
      "ĠWoye": 9026,
      "ĠWavu": 9027,
      "ĠWago": 9028,
      "ĠWumi": 9029,
      "ĠWubo": 9030,
      "ĠWudi": 9031,
      "ĠWujo": 9032,
      "ĠWisu": 9033,
      "ĠWexa": 9034,
      "ĠWeja": 9035,
      "ĠWeto": 9036,
      "ĠGuno": 9037,
      "ĠGane": 9038,
      "ĠGago": 9039,
      "ĠGuco": 9040,
      "ĠGuwi": 9041,
      "ĠGibu": 9042,
      "ĠGiyi": 9043,
      "ĠGedi": 9044,
      "ĠGesi": 9045,
      "ĠGeqi": 9046,
      "ĠGepi": 9047,
      "ĠXato": 9048,
      "ĠXofu": 9049,
      "ĠXaku": 9050,
      "ĠXayo": 9051,
      "ĠXabo": 9052,
      "ĠXusi": 9053,
      "ĠXuxa": 9054,
      "ĠXudi": 9055,
      "ĠXeru": 9056,
      "ĠXevu": 9057,
      "ĠZapo": 9058,
      "ĠZama": 9059,
      "ĠZopi": 9060,
      "ĠZaga": 9061,
      "ĠZoho": 9062,
      "ĠZilu": 9063,
      "ĠZovi": 9064,
      "ĠZuva": 9065,
      "ĠZizi": 9066,
      "ĠZiwo": 9067,
      "ĠZihu": 9068,
      "ĠZewo": 9069,
      "ĠZeqo": 9070,
      "ĠZeya": 9071,
      "ĠPoku": 9072,
      "ĠPowa": 9073,
      "ĠPoye": 9074,
      "ĠPufe": 9075,
      "ĠPufa": 9076,
      "ĠPipa": 9077,
      "ĠPiju": 9078,
      "ĠPiqa": 9079,
      "ĠPepo": 9080,
      "ĠPevu": 9081,
      "ĠPezu": 9082,
      "ĠSofi": 9083,
      "ĠSofu": 9084,
      "ĠSuni": 9085,
      "ĠSafe": 9086,
      "ĠSami": 9087,
      "ĠSila": 9088,
      "ĠSuwu": 9089,
      "ĠSuwa": 9090,
      "ĠSiqa": 9091,
      "ĠSiyi": 9092,
      "ĠSefe": 9093,
      "ĠSexe": 9094,
      "ĠSesa": 9095,
      "ĠSeme": 9096,
      "ĠSega": 9097,
      "ĠTaze": 9098,
      "ĠTaje": 9099,
      "ĠTafa": 9100,
      "ĠTaho": 9101,
      "ĠTura": 9102,
      "ĠTuvo": 9103,
      "ĠTuja": 9104,
      "ĠTuha": 9105,
      "ĠTebi": 9106,
      "ĠNavo": 9107,
      "ĠNovu": 9108,
      "ĠNuma": 9109,
      "ĠNago": 9110,
      "ĠNubo": 9111,
      "ĠNuba": 9112,
      "ĠNini": 9113,
      "ĠNipa": 9114,
      "ĠNisu": 9115,
      "ĠNizo": 9116,
      "ĠNivi": 9117,
      "ĠNiyi": 9118,
      "ĠNesi": 9119,
      "ĠNetu": 9120,
      "ĠNewu": 9121,
      "ĠNeyi": 9122,
      "ĠNega": 9123,
      "ĠNeye": 9124,
      "ĠMoso": 9125,
      "ĠMoho": 9126,
      "ĠMovu": 9127,
      "ĠMoje": 9128,
      "ĠMoju": 9129,
      "ĠMixe": 9130,
      "ĠMiqa": 9131,
      "ĠMije": 9132,
      "ĠMiyo": 9133,
      "ĠMema": 9134,
      "ĠMeja": 9135,
      "ĠMevi": 9136,
      "ĠMeye": 9137,
      "ĠMeka": 9138,
      "ĠRofo": 9139,
      "ĠRozo": 9140,
      "ĠRoso": 9141,
      "ĠRito": 9142,
      "ĠRufa": 9143,
      "ĠRuvi": 9144,
      "ĠRumu": 9145,
      "ĠRiho": 9146,
      "ĠRiwu": 9147,
      "ĠMape": 9148,
      "ĠBama": 9149,
      "ĠBapu": 9150,
      "ĠBopi": 9151,
      "ĠBozo": 9152,
      "ĠBuso": 9153,
      "ĠBujo": 9154,
      "ĠBixu": 9155,
      "ĠCeri": 9156,
      "ĠCacu": 9157,
      "ĠCaru": 9158,
      "ĠCosa": 9159,
      "ĠCaho": 9160,
      "ĠCohu": 9161,
      "ĠCoko": 9162,
      "ĠCopo": 9163,
      "ĠCuki": 9164,
      "ĠCijo": 9165,
      "ĠCiwi": 9166,
      "ĠCiki": 9167,
      "ĠCimi": 9168,
      "ĠCiyi": 9169,
      "ĠCefe": 9170,
      "ĠCexe": 9171,
      "ĠCeva": 9172,
      "ĠCego": 9173,
      "ĠCecu": 9174,
      "ĠLawi": 9175,
      "ĠLama": 9176,
      "ĠLoxo": 9177,
      "ĠLane": 9178,
      "ĠLoxe": 9179,
      "ĠLoki": 9180,
      "ĠLuwi": 9181,
      "ĠLiqi": 9182,
      "ĠLife": 9183,
      "ĠLiru": 9184,
      "ĠLiwi": 9185,
      "ĠLiso": 9186,
      "ĠLeza": 9187,
      "ĠQasi": 9188,
      "ĠQari": 9189,
      "ĠQowo": 9190,
      "ĠQaqi": 9191,
      "ĠQaba": 9192,
      "ĠQaga": 9193,
      "ĠQoxi": 9194,
      "ĠQoyi": 9195,
      "ĠQoqi": 9196,
      "ĠQaki": 9197,
      "ĠQoxe": 9198,
      "ĠQago": 9199,
      "ĠQuxa": 9200,
      "ĠQuwe": 9201,
      "ĠQiku": 9202,
      "ĠQiyi": 9203,
      "ĠQepo": 9204,
      "ĠRepe": 9205,
      "ĠDasi": 9206,
      "ĠDona": 9207,
      "ĠDaya": 9208,
      "ĠDaje": 9209,
      "ĠDawu": 9210,
      "ĠDoku": 9211,
      "ĠDazu": 9212,
      "ĠDoqo": 9213,
      "ĠDohu": 9214,
      "ĠDape": 9215,
      "ĠDova": 9216,
      "ĠDuzi": 9217,
      "ĠDuco": 9218,
      "ĠDuwi": 9219,
      "ĠDuki": 9220,
      "ĠDimu": 9221,
      "ĠDeno": 9222,
      "ĠDepa": 9223,
      "ĠDeyo": 9224,
      "ĠDejo": 9225,
      "ĠVata": 9226,
      "ĠVosa": 9227,
      "ĠVoga": 9228,
      "ĠVaqe": 9229,
      "ĠVaza": 9230,
      "ĠVuto": 9231,
      "ĠVexa": 9232,
      "ĠYatu": 9233,
      "ĠYato": 9234,
      "ĠYofe": 9235,
      "ĠYawe": 9236,
      "ĠYapa": 9237,
      "ĠYalu": 9238,
      "ĠYani": 9239,
      "ĠYoqi": 9240,
      "ĠYoto": 9241,
      "ĠYubo": 9242,
      "ĠYuyu": 9243,
      "ĠYefa": 9244,
      "ĠYeze": 9245,
      "ĠYelu": 9246,
      "ĠKuni": 9247,
      "ĠKaye": 9248,
      "ĠKopu": 9249,
      "ĠKuqo": 9250,
      "ĠKumo": 9251,
      "ĠKido": 9252,
      "ĠKisi": 9253,
      "ĠKiso": 9254,
      "ĠKepo": 9255,
      "ĠKezi": 9256,
      "ĠKebe": 9257,
      "ĠKejo": 9258,
      "ĠJasi": 9259,
      "ĠJasu": 9260,
      "ĠJomi": 9261,
      "ĠJovo": 9262,
      "ĠJilu": 9263,
      "ĠJahu": 9264,
      "ĠJabo": 9265,
      "ĠJuye": 9266,
      "ĠJila": 9267,
      "ĠJucu": 9268,
      "ĠJipa": 9269,
      "ĠJiye": 9270,
      "ĠJiku": 9271,
      "ĠJedi": 9272,
      "ĠJeda": 9273,
      "ĠJeyu": 9274,
      "ĠJeka": 9275,
      "ĠHofe": 9276,
      "ĠHafo": 9277,
      "ĠHuza": 9278,
      "ĠHufe": 9279,
      "ĠHuje": 9280,
      "ĠHije": 9281,
      "ĠHiso": 9282,
      "ĠHedo": 9283,
      "ĠHeme": 9284,
      "ĠFopa": 9285,
      "ĠFodi": 9286,
      "ĠFajo": 9287,
      "ĠFoxo": 9288,
      "ĠFoki": 9289,
      "ĠFuqa": 9290,
      "ĠFumi": 9291,
      "ĠFuju": 9292,
      "ĠFufu": 9293,
      "ĠFupo": 9294,
      "ĠFisu": 9295,
      "ĠFipi": 9296,
      "ĠFiza": 9297,
      "ĠFiyi": 9298,
      "ĠFeze": 9299,
      "ĠWoza": 9300,
      "ĠWoga": 9301,
      "ĠWaza": 9302,
      "ĠWuye": 9303,
      "ĠWovi": 9304,
      "ĠWuru": 9305,
      "ĠWufu": 9306,
      "ĠWuva": 9307,
      "ĠWubi": 9308,
      "ĠWixi": 9309,
      "ĠWibu": 9310,
      "ĠWiwi": 9311,
      "ĠWefe": 9312,
      "ĠWetu": 9313,
      "ĠGaxa": 9314,
      "ĠGaqi": 9315,
      "ĠGazo": 9316,
      "ĠGuvo": 9317,
      "ĠGuqa": 9318,
      "ĠGuji": 9319,
      "ĠGubo": 9320,
      "ĠGuwa": 9321,
      "ĠGepa": 9322,
      "ĠGega": 9323,
      "ĠXoza": 9324,
      "ĠXodi": 9325,
      "ĠXilo": 9326,
      "ĠXoki": 9327,
      "ĠXume": 9328,
      "ĠXizi": 9329,
      "ĠXira": 9330,
      "ĠXica": 9331,
      "ĠXeno": 9332,
      "ĠZofi": 9333,
      "ĠZoji": 9334,
      "ĠZasa": 9335,
      "ĠZaju": 9336,
      "ĠZazu": 9337,
      "ĠZuso": 9338,
      "ĠZoro": 9339,
      "ĠZupe": 9340,
      "ĠZuyu": 9341,
      "ĠZiyo": 9342,
      "ĠZimi": 9343,
      "ĠZesa": 9344,
      "ĠZemu": 9345,
      "ĠPoze": 9346,
      "ĠPapu": 9347,
      "ĠPaye": 9348,
      "ĠPoqo": 9349,
      "ĠPoxo": 9350,
      "ĠPavo": 9351,
      "ĠPaza": 9352,
      "ĠPaki": 9353,
      "ĠPago": 9354,
      "ĠPica": 9355,
      "ĠPefe": 9356,
      "ĠPeni": 9357,
      "ĠPemu": 9358,
      "ĠPezo": 9359,
      "ĠPega": 9360,
      "ĠSoni": 9361,
      "ĠSota": 9362,
      "ĠSama": 9363,
      "ĠSapa": 9364,
      "ĠSajo": 9365,
      "ĠSoko": 9366,
      "ĠSanu": 9367,
      "ĠSape": 9368,
      "ĠSaka": 9369,
      "ĠSuxo": 9370,
      "ĠSiye": 9371,
      "ĠSira": 9372,
      "ĠSiku": 9373,
      "ĠSeda": 9374,
      "ĠSeji": 9375,
      "ĠTaku": 9376,
      "ĠToxi": 9377,
      "ĠTuse": 9378,
      "ĠTuva": 9379,
      "ĠTuwu": 9380,
      "ĠTizi": 9381,
      "ĠTido": 9382,
      "ĠTixu": 9383,
      "ĠTesu": 9384,
      "ĠTeha": 9385,
      "ĠTepa": 9386,
      "ĠTeja": 9387,
      "ĠTeyi": 9388,
      "ĠTehu": 9389,
      "ĠNoba": 9390,
      "ĠNoto": 9391,
      "ĠNuye": 9392,
      "ĠNudi": 9393,
      "ĠNiwo": 9394,
      "ĠNeba": 9395,
      "ĠNeku": 9396,
      "ĠNecu": 9397,
      "ĠMuzu": 9398,
      "ĠMigo": 9399,
      "ĠMiwa": 9400,
      "ĠMeyo": 9401,
      "ĠRapo": 9402,
      "ĠRazu": 9403,
      "ĠRoxa": 9404,
      "ĠRaho": 9405,
      "ĠRopu": 9406,
      "ĠRora": 9407,
      "ĠRoxe": 9408,
      "ĠRoto": 9409,
      "ĠRuza": 9410,
      "ĠRuzu": 9411,
      "ĠMaxe": 9412,
      "ĠMawo": 9413,
      "ĠBoku": 9414,
      "ĠBafe": 9415,
      "ĠBoqo": 9416,
      "ĠBafu": 9417,
      "ĠBaqa": 9418,
      "ĠBilo": 9419,
      "ĠBusu": 9420,
      "ĠBupe": 9421,
      "ĠBiho": 9422,
      "ĠBiwa": 9423,
      "ĠBiyi": 9424,
      "ĠBizu": 9425,
      "ĠBesi": 9426,
      "ĠCune": 9427,
      "ĠCoqo": 9428,
      "ĠCayi": 9429,
      "ĠCoyo": 9430,
      "ĠCuse": 9431,
      "ĠCufe": 9432,
      "ĠCuta": 9433,
      "ĠCudi": 9434,
      "ĠCutu": 9435,
      "ĠCise": 9436,
      "ĠCena": 9437,
      "ĠCega": 9438,
      "ĠLaya": 9439,
      "ĠLaju": 9440,
      "ĠLayo": 9441,
      "ĠLaxi": 9442,
      "ĠLaxu": 9443,
      "ĠLamo": 9444,
      "ĠLuya": 9445,
      "ĠLuqe": 9446,
      "ĠLuwu": 9447,
      "ĠLino": 9448,
      "ĠLira": 9449,
      "ĠQusa": 9450,
      "ĠQoda": 9451,
      "ĠQojo": 9452,
      "ĠQaha": 9453,
      "ĠQabo": 9454,
      "ĠQudo": 9455,
      "ĠQuqa": 9456,
      "ĠQuva": 9457,
      "ĠQubo": 9458,
      "ĠQuxi": 9459,
      "ĠQipa": 9460,
      "ĠQiqa": 9461,
      "ĠQeso": 9462,
      "ĠQewo": 9463,
      "ĠQeme": 9464,
      "ĠReze": 9465,
      "ĠRebu": 9466,
      "ĠReba": 9467,
      "ĠDoba": 9468,
      "ĠDanu": 9469,
      "ĠDido": 9470,
      "ĠDifo": 9471,
      "ĠDiwi": 9472,
      "ĠDiwo": 9473,
      "ĠDedi": 9474,
      "ĠDena": 9475,
      "ĠDeho": 9476,
      "ĠVari": 9477,
      "ĠVuni": 9478,
      "ĠVaze": 9479,
      "ĠVoze": 9480,
      "ĠVawe": 9481,
      "ĠVodi": 9482,
      "ĠVuqo": 9483,
      "ĠVubu": 9484,
      "ĠVuxa": 9485,
      "ĠVipa": 9486,
      "ĠViwo": 9487,
      "ĠVevi": 9488,
      "ĠYomu": 9489,
      "ĠYoba": 9490,
      "ĠYoki": 9491,
      "ĠYabo": 9492,
      "ĠYova": 9493,
      "ĠYuzu": 9494,
      "ĠYipa": 9495,
      "ĠYiye": 9496,
      "ĠYefo": 9497,
      "ĠYemi": 9498,
      "ĠYeqa": 9499,
      "ĠYewe": 9500,
      "ĠKawi": 9501,
      "ĠKofo": 9502,
      "ĠKoze": 9503,
      "ĠKajo": 9504,
      "ĠKori": 9505,
      "ĠKusu": 9506,
      "ĠKuki": 9507,
      "ĠKuju": 9508,
      "ĠKuje": 9509,
      "ĠKiho": 9510,
      "ĠKimu": 9511,
      "ĠKica": 9512,
      "ĠKeqi": 9513,
      "ĠKeho": 9514,
      "ĠKeku": 9515,
      "ĠJuyi": 9516,
      "ĠJudi": 9517,
      "ĠJini": 9518,
      "ĠJiko": 9519,
      "ĠJiqa": 9520,
      "ĠJeru": 9521,
      "ĠJeqo": 9522,
      "ĠJezi": 9523,
      "ĠJeco": 9524,
      "ĠJeto": 9525,
      "ĠHunu": 9526,
      "ĠHonu": 9527,
      "ĠHowi": 9528,
      "ĠHamu": 9529,
      "ĠHadi": 9530,
      "ĠHohu": 9531,
      "ĠHaka": 9532,
      "ĠHubi": 9533,
      "ĠHiwa": 9534,
      "ĠHibe": 9535,
      "ĠHiyo": 9536,
      "ĠHedi": 9537,
      "ĠHeto": 9538,
      "ĠFoco": 9539,
      "ĠFoze": 9540,
      "ĠFaxa": 9541,
      "ĠFoci": 9542,
      "ĠFolu": 9543,
      "ĠFuvo": 9544,
      "ĠFape": 9545,
      "ĠFaqo": 9546,
      "ĠFufe": 9547,
      "ĠFuwi": 9548,
      "ĠFume": 9549,
      "ĠFiju": 9550,
      "ĠFefe": 9551,
      "ĠFeda": 9552,
      "ĠWaje": 9553,
      "ĠWoxo": 9554,
      "ĠWozi": 9555,
      "ĠWocu": 9556,
      "ĠWoqi": 9557,
      "ĠWaka": 9558,
      "ĠWoje": 9559,
      "ĠWila": 9560,
      "ĠGofa": 9561,
      "ĠGoxi": 9562,
      "ĠGaza": 9563,
      "ĠGada": 9564,
      "ĠGucu": 9565,
      "ĠGiwa": 9566,
      "ĠGeba": 9567,
      "ĠGese": 9568,
      "ĠGebo": 9569,
      "ĠXeri": 9570,
      "ĠXono": 9571,
      "ĠXoqo": 9572,
      "ĠXozu": 9573,
      "ĠXovu": 9574,
      "ĠXoqi": 9575,
      "ĠXoko": 9576,
      "ĠXaxe": 9577,
      "ĠXumi": 9578,
      "ĠXima": 9579,
      "ĠXiru": 9580,
      "ĠXepu": 9581,
      "ĠXejo": 9582,
      "ĠZuxa": 9583,
      "ĠZixa": 9584,
      "ĠZiga": 9585,
      "ĠZije": 9586,
      "ĠZebi": 9587,
      "ĠPawa": 9588,
      "ĠPapi": 9589,
      "ĠPabu": 9590,
      "ĠPoto": 9591,
      "ĠPafo": 9592,
      "ĠPuwi": 9593,
      "ĠPuki": 9594,
      "ĠPima": 9595,
      "ĠPiru": 9596,
      "ĠPeqe": 9597,
      "ĠPelu": 9598,
      "ĠSona": 9599,
      "ĠSaca": 9600,
      "ĠSomi": 9601,
      "ĠSani": 9602,
      "ĠSoqi": 9603,
      "ĠSuje": 9604,
      "ĠSixe": 9605,
      "ĠSica": 9606,
      "ĠSivu": 9607,
      "ĠSepi": 9608,
      "ĠTaru": 9609,
      "ĠToxa": 9610,
      "ĠTayi": 9611,
      "ĠTuca": 9612,
      "ĠTume": 9613,
      "ĠTibe": 9614,
      "ĠTeju": 9615,
      "ĠNara": 9616,
      "ĠNoja": 9617,
      "ĠNosu": 9618,
      "ĠNubi": 9619,
      "ĠNija": 9620,
      "ĠNexu": 9621,
      "ĠNefa": 9622,
      "ĠNeha": 9623,
      "ĠNevu": 9624,
      "ĠNeya": 9625,
      "ĠNehu": 9626,
      "ĠMona": 9627,
      "ĠMope": 9628,
      "ĠMura": 9629,
      "ĠMusu": 9630,
      "ĠMuso": 9631,
      "ĠMiga": 9632,
      "ĠMevu": 9633,
      "ĠMeqo": 9634,
      "ĠMeqa": 9635,
      "ĠMega": 9636,
      "ĠRomu": 9637,
      "ĠRonu": 9638,
      "ĠRopa": 9639,
      "ĠRoya": 9640,
      "ĠRoqo": 9641,
      "ĠRaqe": 9642,
      "ĠRojo": 9643,
      "ĠRori": 9644,
      "ĠRudo": 9645,
      "ĠRuqa": 9646,
      "ĠRife": 9647,
      "ĠRiwo": 9648,
      "ĠRiya": 9649,
      "ĠBata": 9650,
      "ĠBacu": 9651,
      "ĠBoya": 9652,
      "ĠBaya": 9653,
      "ĠBoto": 9654,
      "ĠBuqa": 9655,
      "ĠBuja": 9656,
      "ĠBume": 9657,
      "ĠBise": 9658,
      "ĠBiyu": 9659,
      "ĠBemu": 9660,
      "ĠBepi": 9661,
      "ĠCasi": 9662,
      "ĠCope": 9663,
      "ĠCawa": 9664,
      "ĠCapu": 9665,
      "ĠCusa": 9666,
      "ĠCaxo": 9667,
      "ĠCocu": 9668,
      "ĠCuqa": 9669,
      "ĠCuvu": 9670,
      "ĠCita": 9671,
      "ĠCuje": 9672,
      "ĠCexa": 9673,
      "ĠCesa": 9674,
      "ĠCewu": 9675,
      "ĠCeju": 9676,
      "ĠCebi": 9677,
      "ĠCeyu": 9678,
      "ĠCeje": 9679,
      "ĠLasi": 9680,
      "ĠLuno": 9681,
      "ĠLara": 9682,
      "ĠLopa": 9683,
      "ĠLaca": 9684,
      "ĠLabe": 9685,
      "ĠLaza": 9686,
      "ĠLuze": 9687,
      "ĠLujo": 9688,
      "ĠLisu": 9689,
      "ĠLiku": 9690,
      "ĠLemu": 9691,
      "ĠLeji": 9692,
      "ĠQacu": 9693,
      "ĠQato": 9694,
      "ĠQasa": 9695,
      "ĠQawa": 9696,
      "ĠQane": 9697,
      "ĠQayi": 9698,
      "ĠQuma": 9699,
      "ĠQulu": 9700,
      "ĠQuhu": 9701,
      "ĠQila": 9702,
      "ĠQufo": 9703,
      "ĠQuru": 9704,
      "ĠQuja": 9705,
      "ĠQuba": 9706,
      "ĠQume": 9707,
      "ĠQiho": 9708,
      "ĠQiyo": 9709,
      "ĠQiza": 9710,
      "ĠQedi": 9711,
      "ĠQefo": 9712,
      "ĠQebi": 9713,
      "ĠReyu": 9714,
      "ĠReji": 9715,
      "ĠRepu": 9716,
      "ĠDobo": 9717,
      "ĠDafa": 9718,
      "ĠDopi": 9719,
      "ĠDayo": 9720,
      "ĠDani": 9721,
      "ĠDoda": 9722,
      "ĠDuqi": 9723,
      "ĠDine": 9724,
      "ĠDuko": 9725,
      "ĠDibe": 9726,
      "ĠDija": 9727,
      "ĠDiki": 9728,
      "ĠDiwe": 9729,
      "ĠDije": 9730,
      "ĠVasu": 9731,
      "ĠVako": 9732,
      "ĠVaye": 9733,
      "ĠVozo": 9734,
      "ĠVoxo": 9735,
      "ĠVoyo": 9736,
      "ĠVugo": 9737,
      "ĠVufa": 9738,
      "ĠVuwa": 9739,
      "ĠVeha": 9740,
      "ĠVezi": 9741,
      "ĠVewa": 9742,
      "ĠYonu": 9743,
      "ĠYobo": 9744,
      "ĠYoqo": 9745,
      "ĠYadi": 9746,
      "ĠYavu": 9747,
      "ĠYaqa": 9748,
      "ĠYozi": 9749,
      "ĠYopo": 9750,
      "ĠYito": 9751,
      "ĠYuqe": 9752,
      "ĠYuwe": 9753,
      "ĠYidi": 9754,
      "ĠYixu": 9755,
      "ĠYisa": 9756,
      "ĠYize": 9757,
      "ĠYepa": 9758,
      "ĠKaci": 9759,
      "ĠKoco": 9760,
      "ĠKosa": 9761,
      "ĠKaba": 9762,
      "ĠKoqe": 9763,
      "ĠKuvu": 9764,
      "ĠKuca": 9765,
      "ĠKiko": 9766,
      "ĠKibe": 9767,
      "ĠKiwu": 9768,
      "ĠKeda": 9769,
      "ĠJaso": 9770,
      "ĠJapo": 9771,
      "ĠJavi": 9772,
      "ĠJodi": 9773,
      "ĠJalu": 9774,
      "ĠJafe": 9775,
      "ĠJaba": 9776,
      "ĠJoda": 9777,
      "ĠJobi": 9778,
      "ĠJafo": 9779,
      "ĠJodo": 9780,
      "ĠJuqi": 9781,
      "ĠJubo": 9782,
      "ĠJuko": 9783,
      "ĠJumu": 9784,
      "ĠJipe": 9785,
      "ĠJebo": 9786,
      "ĠJepa": 9787,
      "ĠHasa": 9788,
      "ĠHoga": 9789,
      "ĠHopi": 9790,
      "ĠHozu": 9791,
      "ĠHayi": 9792,
      "ĠHuse": 9793,
      "ĠHaxe": 9794,
      "ĠHuso": 9795,
      "ĠHuwi": 9796,
      "ĠHuwu": 9797,
      "ĠHumo": 9798,
      "ĠHuwa": 9799,
      "ĠHiwu": 9800,
      "ĠHicu": 9801,
      "ĠHefe": 9802,
      "ĠHeqi": 9803,
      "ĠHeca": 9804,
      "ĠFomi": 9805,
      "ĠFobo": 9806,
      "ĠFaze": 9807,
      "ĠFawu": 9808,
      "ĠFaki": 9809,
      "ĠFuye": 9810,
      "ĠFupi": 9811,
      "ĠFupa": 9812,
      "ĠFuzu": 9813,
      "ĠFijo": 9814,
      "ĠFiru": 9815,
      "ĠFifa": 9816,
      "ĠFiso": 9817,
      "ĠFizu": 9818,
      "ĠFexo": 9819,
      "ĠFeso": 9820,
      "ĠFeki": 9821,
      "ĠFebu": 9822,
      "ĠWunu": 9823,
      "ĠWari": 9824,
      "ĠWofo": 9825,
      "ĠWapo": 9826,
      "ĠWaku": 9827,
      "ĠWaho": 9828,
      "ĠWobi": 9829,
      "ĠWazo": 9830,
      "ĠWoqa": 9831,
[...]
